#version: 0.2
t h
i n
a n
th e</w>
e r
a r
an d</w>
a t</w>
o u
t o</w>
in g</w>
e n
t i
a l
r e
o s
o n
th e
o r
th at</w>
a p
o n</w>
s e
t e
i t</w>
a c
y o
yo u</w>
l e
ap os
& apos
w e</w>
&apos ;
l i
q u
c a
l y</w>
i s</w>
a s</w>
e s</w>
o t
o m
s t
n o
i t
b e
l e</w>
w h
o r</w>
o p
e d</w>
a s
th is</w>
qu ot
s e</w>
m a
er e</w>
v ar
s o</w>
d e
var _
i c
m e</w>
b u
e n</w>
d o
v er
a b
l o
a t
l d</w>
c h
r o
d i
v e</w>
quot ;</w>
& quot;</w>
ou t</w>
s i
s t</w>
u r
e r</w>
the y</w>
r i
a n</w>
ti on</w>
ar e</w>
k e</w>
w as</w>
l l</w>
- -</w>
f or</w>
en t</w>
a l</w>
p e
k _
g o
al ly</w>
s h
wh at</w>
bu t</w>
n e
no w</w>
g h
c om
ou r</w>
u n
a y</w>
in g
on e</w>
w it
a i
ca n</w>
al l</w>
wit h</w>
w or
b e</w>
t r
b r
&apos; t</w>
t s</w>
c on
f i
ab out</w>
th ere</w>
se p
c e</w>
te d</w>
do t</w>
sep _
sep_ dot</w>
g e
c i
ou n
p ro
r e</w>
v i
a g
t er
s om
gh t</w>
ou ld</w>
m e
m ar
the r</w>
te r</w>
no t</w>
a se
e x
s u
a d</w>
d o</w>
p er
o l
u se</w>
m i
t o
ver y</w>
m y</w>
&apos; re</w>
w e
h as
d s</w>
en ti
pe op
e s
ase :
th ing</w>
peop le</w>
h o
l a
os e</w>
i f</w>
li ke</w>
w i
j u
or e</w>
h e</w>
m p
br ac
y e
t u
the se</w>
var_ e</w>
quot _
quot_ mar
quot_mar k_
brac k_
C T</w>
B ase:
- Base:
ju st</w>
f e
k ing</w>
be ca
v er</w>
a me</w>
p l
ti on
c l
e i
a d
m o
an t</w>
var_ o</w>
beca use</w>
u c
g i
th in
u s</w>
a r</w>
ur e</w>
ho w</w>
at e</w>
t a
h e
b o
b y</w>
p o
d e</w>
k now</w>
h i
u p</w>
b i
the m</w>
f or
d enti
lo o
ic h</w>
ar s</w>
go ing</w>
s p
h ere</w>
ap p
er s</w>
r a
m ore</w>
wh ich</w>
p u
i f
op a
som e
w ay</w>
thin k</w>
h ad</w>
opa -Base:
opa-Base: has
ei opa-Base:has
it y</w>
t t
se e</w>
o ther</w>
ge t</w>
g e</w>
ing s</w>
d er
f u
p ar
y our</w>
re ally</w>
the i
g le
w n</w>
thei r</w>
t h</w>
gle if
w ould</w>
the n</w>
w ere</w>
re s
f f
&apos; ve</w>
a m
oun d</w>
g h</w>
ai n</w>
an y</w>
v e
wor ld</w>
c re
l l
tu ally</w>
ou r
ti me</w>
som e</w>
&apos; m</w>
en ce</w>
d on</w>
ca l</w>
a y
in e</w>
o d</w>
h as</w>
c u
a tion</w>
e v
ac tually</w>
k s</w>
os t</w>
c o
op en</w>
in to</w>
a f
tion s</w>
s te
c e
cl ose</w>
th ings</w>
g r
m ent</w>
g o</w>
wi ll</w>
ye ars</w>
ai d</w>
g u
eiopa-Base:has I
ou gh</w>
ac k</w>
st r
ac e</w>
N ame</w>
ag e</w>
denti f
n o</w>
t w
var_ s</w>
ab le</w>
i l
c ould</w>
dentif y
we ll</w>
quot_mark_ r</w>
quot_mark_ l</w>
ing Name</w>
eiopa-Base:hasI dentify
eiopa-Base:hasIdentify ingName</w>
brack_ open</w>
brack_ close</w>
W H
WH E
WHE R
WHER E</w>
T I
TI N
TIN CT</w>
S TINCT</w>
S E
SE L
SEL E
SELE CT</w>
I STINCT</w>
D ISTINCT</w>
h app
in ter
w ant</w>
c h</w>
c t</w>
i s
t al
t y</w>
d y</w>
ma ke</w>
ri ght</w>
as t</w>
k e
f in
be en</w>
s aid</w>
en ts</w>
d ing</w>
v es</w>
le d</w>
ay s</w>
m ost</w>
sh o
di ff
m s</w>
com e</w>
sh e</w>
h u
com p
se l
t ure</w>
some thing</w>
fi r
g re
un i
ch an
en t
s ch
c al
st or
fir st</w>
gleif -
tw o</w>
th ose</w>
th an</w>
v ing</w>
te s</w>
s o
h is</w>
loo k</w>
tt le</w>
s ti
on g</w>
k ed</w>
t ing</w>
wor k</w>
p r
pro b
s y
li ttle</w>
ar d</w>
de r</w>
e k
m in
go t</w>
a u
p h
diff er
al so</w>
b ack</w>
m u
uc h</w>
m uch</w>
l li
g y</w>
f ac
ti ve</w>
d u
s ay</w>
p re
m on
st u
s pe
ou s</w>
i mp
o ver</w>
le s</w>
en d</w>
0 0</w>
ma n</w>
f o
t ri
z ek
zek er
an i
k i
ver zeker
si on</w>
w a
on ly</w>
s ur
it e</w>
es s</w>
re e</w>
b le</w>
ev en</w>
r u
m any</w>
se d</w>
be t
bo dy</w>
ta ke</w>
e ver
an s</w>
on s</w>
o f</w>
s s</w>
ever y
si g
y ing</w>
ic e</w>
i de
th r
fu l</w>
o k</w>
t ur
ne ed</w>
d n</w>
lo t</w>
st ar
go od</w>
j e
g en
d ed</w>
ar ound</w>
p os
wh y</w>
d ay</w>
le t</w>
f f</w>
do wn</w>
&apos; ll</w>
t e</w>
n ing</w>
ac h</w>
var_ a</w>
e l
or t
w s</w>
differ ent</w>
i n</w>
e very</w>
th ou
s ing</w>
d re
tr y</w>
thr ough</w>
c ol
di s
f a
com m
e t</w>
i denti
te ch
un der
al s</w>
pu t</w>
h a
c ent</w>
w er</w>
prob le
be ing</w>
an ce</w>
an y
s ame</w>
stor y</w>
s a
happ en
p res
al i
si de</w>
c oun
do ing</w>
mp le</w>
1 9
s c
or t</w>
p i
s ci
ac h
a in
se s</w>
identi fi
sel f</w>
s er
n i
i es</w>
ti c</w>
v ed</w>
a m</w>
con t
identifi es</w>
gleif -Base:
gleif-Base: identifies</w>
th ree</w>
le ar
w r
sy ste
i ma
cal led</w>
en g
per i
an d
s h</w>
lo gy</w>
d d
an s
ti es</w>
w ays</w>
s ol
tech no
c ar
e l</w>
gleif- L
gleif-L 1
gleif-L1 :
gleif-L1: has
tal k</w>
&apos; d</w>
ma de</w>
s on</w>
per cent</w>
m es</w>
lli on</w>
r os
ar y</w>
j o
re c
d uc
c es</w>
so ci
le c
c our
to day</w>
bu il
f ore</w>
de sig
af ter</w>
o l</w>
pl an
gre at</w>
p ri
re d</w>
or g
e ar
t ly</w>
an k</w>
ti c
x t</w>
te ly</w>
n ed</w>
te ll</w>
qu es
under st
lo w</w>
l s</w>
hu man</w>
st s</w>
imp ort
bi g</w>
chan ge</w>
fac t</w>
an other</w>
fin d</w>
or s</w>
l ast</w>
z e</w>
at ing</w>
ye ar</w>
a tes</w>
r on
w om
l t</w>
s en
o wn</w>
a ted</w>
i c</w>
po in
ide a</w>
k es</w>
u e</w>
wi th
di dn</w>
v .</w>
. v.</w>
t re
be fore</w>
o b
var_ l</w>
gi ve</w>
r ic
p ic
n _
n_ v</w>
n .v.</w>
res s</w>
w ent</w>
ti mes</w>
sh ould</w>
l ar
ex peri
on der
ch i
i r
star ted</w>
he l
ll s</w>
thou ght</w>
in di
re s</w>
s in
w an
v en</w>
ar t</w>
g ro
c an
be li
t en
la r</w>
le ss</w>
ima g
v en
gleif- b
gleif-b ase:
gleif-base: has
ne ver</w>
tt ing</w>
pl ace</w>
ag ain</w>
cour se</w>
import ant</w>
bet ter</w>
0 00</w>
c ur
o ff</w>
sch o
as e</w>
n at
sho w</w>
syste m</w>
m an
g al
verzeker ing
g er</w>
e f
proble m</w>
ex a
b re
hi m</w>
w ing</w>
techno logy</w>
ter s</w>
ne xt</w>
mi ght</w>
e ach</w>
sti ll</w>
to ge
toge ther</w>
tr a
b it</w>
k no
ag o</w>
par t</w>
se e
0 0
op er
ch il
wa ter</w>
br ain</w>
d ic
, 000</w>
u sed</w>
ca me</w>
wh o
th ank</w>
li ty</w>
b ot
f t</w>
ic ally</w>
st ing</w>
comp le
a tion
f ound</w>
e ver</w>
l ong</w>
s m
be r</w>
l an
d at
de ve
si ble</w>
po li
c or
e p</w>
te n</w>
we en</w>
bet ween</w>
c ess</w>
pro duc
g ra
fe w</w>
com es</w>
ac t</w>
m ents</w>
to o</w>
a ti
inter e
me m
ch e
li ght</w>
b as
me an</w>
h om
loo king</w>
qu ar
in cre
f ri
spe ci
je ct</w>
dre n</w>
chil dren</w>
ma y
for ma
se con
e ve</w>
c ou
re ad
poin t</w>
o m</w>
c ts</w>
c k</w>
may be</w>
lo gi
str uc
c er
t y
d one</w>
w al
s ort</w>
com pu
am er
e y</w>
1 0</w>
w 1
ques tion</w>
de ci
p s</w>
es n</w>
do esn</w>
who le</w>
lo ve</w>
f un
sel ves</w>
ros s</w>
dat a</w>
me di
fa mi
exa mple</w>
es s
ca tion</w>
underst and</w>
in d</w>
wan ted</w>
n s</w>
ma y</w>
scho ol</w>
b or
e con
gen er
he al
a tions</w>
p p
o ld</w>
econ om
c en
w ar
c ap
f our</w>
p en
l op
g a
cu l
ce p
uni ver
forma tion</w>
wor king</w>
or i
re al</w>
ai r</w>
tr ying</w>
li ve</w>
an ds</w>
le a
mi llion</w>
chan g
sh i
p la
f ace</w>
c all</w>
wom en</w>
ch o
in s</w>
h er
ab ly</w>
v ol
y s</w>
u sing</w>
re as
r y</w>
O per
sch app
schapp i
schappi j</w>
ma at
maat schappij</w>
n or
mon ey</w>
a way</w>
i m
every thing</w>
or y</w>
le g
al ways</w>
deve lop
u l
l ine</w>
ki ds</w>
ne c
b l
beli eve</w>
per son</w>
u tion</w>
fe el</w>
z ed</w>
it s</w>
ar e
desig n</w>
& #
&# 9
y es</w>
v al
re la
com ing</w>
par ti
po wer</w>
gr ap
fi ve</w>
ad quar
S t
se ar
hel p</w>
ic i
ll ing</w>
f l
as k</w>
ab i
in e
en er
be g
th er
un ity</w>
ro om</w>
cre ate</w>
ma t
sp ace</w>
m om
h op
d ri
u .
thin king</w>
m er
l dn</w>
tr ans
as s</w>
e gal
to ok</w>
b li
in formation</w>
e lec
at us</w>
a ma
ti cal</w>
pl ay</w>
gleif-L1:has L
gleif-L1:hasL egal
C oun
ener gy</w>
w er
me ans</w>
ne e
fo od</w>
pu bli
secon d</w>
al ity</w>
af ric
sen se</w>
ge tting</w>
u m</w>
ch ar
be come</w>
fu ture</w>
qu ite</w>
ot s</w>
ou s
i l</w>
i le</w>
en ough</w>
h al
vi e
stu d
st o
l ing</w>
sm all</w>
m en
be st</w>
prob ably</w>
ter i
ma king</w>
ter s
g er
read y</w>
verzekering en</w>
s ays</w>
ters A
tersA dd
tersAdd ress</w>
gleif-L1:has H
gleif-L1:hasH e
gleif-L1:hasHe adquar
gleif-L1:hasHeadquar tersAddress</w>
wh ere</w>
c li
op p
buil ding</w>
s ing
ou t
c ri
go ver
gr ou
with out</w>
sp on
m y
w at
qu i
m or
wh e
hom e</w>
be au
c t
stu ff</w>
h un
re ad</w>
intere sting</w>
o ff
h ard</w>
le ft</w>
tal king</w>
l on
bo ok</w>
b ro
th s</w>
l ing
soci al</w>
at h</w>
ne ss</w>
on es</w>
sci ence</w>
ic s</w>
v o
st er
cont ro
c r
afric a</w>
z ing</w>
happen ed</w>
e du
ll ars</w>
b ri
s ure</w>
i ld</w>
k en</w>
p le</w>
ear th</w>
for m</w>
tri es</w>
h ar
onder ling
ay ing</w>
w as
do llars</w>
a k</w>
en vi
ar t
it ing</w>
y oun
re ali
abi lity</w>
ve l</w>
pl ac
f ol
bu ild</w>
5 0</w>
h ou
d ge</w>
c y</w>
o k
2 0</w>
w ard</w>
ent ly</w>
tion al</w>
pi e
d r
gover n
any thing</w>
tr u
envi ron
bu sin
onderling e</w>
tt y</w>
f r
we e
w 19
la tion</w>
wh ile</w>
hal f</w>
cl u
go es</w>
si mple</w>
pre tty</w>
se t</w>
se en</w>
mar ke
ma kes</w>
mo de
mo ve</w>
li ves</w>
d in
w ed</w>
sci enti
ph y
m en</w>
de n</w>
or m</w>
o cal</w>
gleif-L1:hasLegal F
gleif-L1:hasLegalF orm</w>
ac ross</w>
L ocal</w>
shi p</w>
to ld</w>
l and</w>
0 1
on ce</w>
g s</w>
st re
happ en</w>
re spon
su b
su ch</w>
bas ically</w>
wor ks</w>
th ers</w>
ma l</w>
li ving</w>
si ve</w>
ca se</w>
si c</w>
s on
s it
n er</w>
mi s
el se</w>
a te
re sear
pro ject</w>
ac ti
su pp
m b
ye t</w>
pro te
imag ine</w>
heal th</w>
min u
fe c
m ent
pic ture</w>
parti cu
ot e</w>
coun tries</w>
sa w</w>
ca r</w>
happen s</w>
th ough</w>
for m
d es</w>
mom ent</w>
b ad</w>
it al</w>
ha ving</w>
mem ber</w>
l in
ok ay</w>
org ani
n u
h and</w>
fami ly</w>
min d</w>
d ays</w>
con nec
to p</w>
experi ence</w>
b er
in ste
hi gh
o f
proble ms</w>
al l
en ds</w>
as ked</w>
la ter</w>
dis co
v ity</w>
e as
soci e
ide as</w>
ai r
te ach
youn g</w>
verzeker ing</w>
hi gh</w>
si ons</w>
a h</w>
p op
lear n</w>
nat ure</w>
gi r
ne t</w>
fi l
fe ct</w>
t ain</w>
s li
a tive</w>
o h</w>
c le
amer ic
ous ly</w>
compu ter</w>
tur n</w>
in side</w>
p as
vi de
st ri
fi c</w>
ic es</w>
every body</w>
busin ess</w>
plan et</w>
m ach
ex pl
sh ar
pro cess</w>
pr in
reas on</w>
s aying</w>
hi story</w>
no thing</w>
bot h</w>
si x</w>
cont in
ca ted</w>
c er</w>
p ati
leg al</w>
incre di
lan gu
k in
st ates</w>
a me
ot o
nat ur
sing le</w>
bi o
whe ther</w>
fo re
with in</w>
al most</w>
st an
su c
ol s</w>
loo ks</w>
ou ght</w>
ce lls</w>
beau ti
thou s
in a</w>
f ron
bi llion</w>
ev ol
ap s</w>
pop u
al ready</w>
f ar</w>
br ing</w>
wr ong</w>
di se
re member</w>
mu sic</w>
p at
chi ld</w>
ke ep</w>
ar i
s ity</w>
tic s</w>
ma te</w>
gu y</w>
comm uni
our s</w>
pos sible</w>
ge st</w>
d ra
b ac
w onder
tr ue</w>
can cer</w>
mo ther</w>
l ly</w>
pro f
p er</w>
c ent
hop e</w>
beauti ful</w>
loo ked</w>
he ard</w>
e mp
tu res</w>
in te
or der</w>
of ten</w>
i ous</w>
d ar
mat ter</w>
w ar</w>
ti ty
n tity
E ntity
sol u
m ic
ir d</w>
en ces</w>
ser v
indi a</w>
ag es</w>
vide o</w>
gh ts</w>
c ra
2 00
o ce
mon ths</w>
ama zing</w>
grou p</w>
ans wer</w>
pro gra
ph oto
comm unity</w>
publi c</w>
ase d</w>
ta tion</w>
s ou
ge ts</w>
pie ce</w>
p or
st ra
some one</w>
go d</w>
stor ies</w>
univer se</w>
f as
ur ing</w>
my self</w>
un ti
s ki
be ha
3 0</w>
ma teri
f re
di es</w>
0 s</w>
ta king</w>
plac es</w>
m al
buil t</w>
inste ad</w>
ch all
uni ted</w>
st ate</w>
hou se</w>
m als</w>
sin ce</w>
unti l</w>
resear ch</w>
edu cation</w>
at t
f lo
c ed</w>
wor ds</w>
ur y</w>
is n</w>
fe el
our selves</w>
some times</w>
ac tion</w>
un der</w>
per son
mi dd
is su
a ar</w>
speci es</w>
ar ti
si mp
z ation</w>
k ne
hun dre
n ame</w>
ap e</w>
d ent</w>
govern ment</w>
deci ded</w>
al lo
some body</w>
s s
contro l</w>
do es</w>
re su
su m
ac y</w>
. .</w>
. ..</w>
je cts</w>
c tion</w>
si on
le r</w>
t un
inter net</w>
cou ple</w>
gleif-base:has N
gleif-base:hasN ame
gleif-base:hasName Local</w>
ex p
eiopa-Base:has Oper
eiopa-Base:hasOper ation
eiopa-Base:hasOperation St
eiopa-Base:hasOperationSt art
eiopa-Base:hasOperationStart D
eiopa-Base:hasOperationStartD ate</w>
coun try</w>
tur ns</w>
langu age</w>
re gi
ra ther</w>
os p
a de
li es</w>
ta in
fi g
po wer
ni ght</w>
ex ac
exac tly</w>
sh ed</w>
midd le</w>
happ y</w>
vi du
indi vidu
he art</w>
vie w</w>
f er
d an
b lo
col le
was n</w>
di rec
kin ds</w>
e st</w>
every one</w>
ap er</w>
in no
du ce</w>
ye ah</w>
it self</w>
verzeker aar</w>
do m</w>
u p
t able</w>
vi r
pos i
gr ound</w>
qu ic
in i
comple tely</w>
the m
them selves</w>
sp i
minu tes</w>
lar ge</w>
ani mals</w>
g l
stud ents</w>
te st</w>
sto p</w>
socie ty</w>
bi r
ad e</w>
s cal
in v
beca me</w>
ap pe
ai l
ru n</w>
g ame</w>
le vel</w>
b ly</w>
a .</w>
wom an</w>
cep t</w>
tr y
mu st</w>
jo b</w>
bi g
ex pe
ar chi
a tely</w>
happen ing</w>
au di
mode l</w>
fron t</w>
wor d</w>
struc ture</w>
sh are</w>
in du
1 00</w>
hu m
d ate</w>
beha vi
ne t
lear ned</w>
hu ge</w>
he ar</w>
environ ment</w>
stu dy</w>
bu r
fri ends</w>
cre ated</w>
b ab
americ a</w>
o il</w>
3 ;</w>
1 ;</w>
&#9 3;</w>
&#9 1;</w>
ment al</w>
in ning</w>
l ate</w>
ver ed</w>
th ird</w>
sho ws</w>
sc ri
try W
tryW her
tryWher e
tryWhere Entity
tryWhereEntity Oper
tryWhereEntityOper ates</w>
ne ws</w>
eiopa-Base:has E
eiopa-Base:hasE U
eiopa-Base:hasEU Coun
eiopa-Base:hasEUCoun tryWhereEntityOperates</w>
di g
de mo
h ours</w>
n er
w on</w>
re li
l ab
de v
am es</w>
sig n
natur al</w>
li ter
dise ase</w>
c os
a v
gu ys</w>
e p
u lt</w>
g ni
co gni
p le
p ain
i can</w>
grap h
inno v
tu al</w>
s ound</w>
me as
en s</w>
al ong</w>
wor ked</w>
fu lly</w>
s or
ou ldn</w>
ch ina</w>
per h
perh aps</w>
ques tions</w>
particu lar</w>
ro w</w>
opp ort
am oun
n a</w>
kne w</w>
mi c</w>
ain st</w>
ag ainst</w>
tur ned</w>
o thers</w>
le ven
cou ldn</w>
mo ving</w>
fig ure</w>
an t
l ots</w>
ear ly</w>
ch ing</w>
t in
ve ly</w>
c op
are a</w>
war ds</w>
oun ds</w>
l os
ga ve</w>
b s</w>
leven s
d uring</w>
w o
con si
or din
oce an</w>
lear ning</w>
elec tr
cent ury</w>
b en
p ast</w>
ex i
tr an
marke t</w>
h ol
d ence</w>
oper ate</w>
amer ican</w>
vi sion</w>
t om
sti tu
st a
ph one</w>
ta kes</w>
kno wn</w>
ci p
str y</w>
p t</w>
in t
e le
le ast</w>
in de
es ted</w>
cl os
ei ght</w>
th re
k y</w>
k er</w>
ai l</w>
out side</w>
mach ine</w>
eng ine
le ad
d ru
an ge</w>
t or</w>
re st</w>
k ly</w>
in es</w>
fin ally</w>
ob vi
o c
g le</w>
en ing</w>
i a</w>
techno logi
ri s
1 5</w>
y or
syste ms</w>
wonder ful</w>
ce ll</w>
u es</w>
dic tion</w>
enti re</w>
0 ,000</w>
w in
si cal</w>
diff ic
su g
nee ds</w>
star ting</w>
st atus</w>
lli ons</w>
gleif-base:has Coun
gleif-base:hasCoun try</w>
differ ence</w>
bre a
St atus</w>
ta ken</w>
m ing</w>
se ven</w>
su per
st ance</w>
n a
fa ther</w>
cul ture</w>
j our
vi s
to m</w>
an ce
r un
phy s
i d</w>
fi sh</w>
thous ands</w>
o t</w>
in ed</w>
archi te
cen tr
sur pri
j ur
e ld</w>
ci r
rela tion
g ing</w>
wh ate
whate ver</w>
pat ter
h ind</w>
rec or
power ful</w>
s is</w>
yor k</w>
ve ment</w>
p ot
enti al</w>
ap pro
ad v
par ts</w>
f ar
beg inning</w>
see ing</w>
be hind</w>
sch ade
pro vi
pla y
y our
your self</w>
popu lation</w>
lea ve</w>
gi ven</w>
e yes</w>
d ly</w>
chang ed</w>
cer tain</w>
si bi
ar gu
ke y</w>
v é</w>
uni vé</w>
sp end</w>
ima ge</w>
an ci
o ver
mu l
scal e</w>
m p</w>
di ed</w>
t ou
as tic</w>
4 0</w>
gro w</w>
e mo
par ents</w>
audi ence</w>
te le
er ing</w>
c ost</w>
b an
ter ms</w>
o ks</w>
ab solu
si ze</w>
k ers</w>
f ree</w>
be d</w>
at s</w>
pr op
p a
p hi
eas y</w>
th y</w>
fin i
comp ani
can not</w>
ne ur
inter ested</w>
in clu
wal k</w>
s ter</w>
p ur
gre en</w>
d en
medi a</w>
ma j
comp any</w>
an ts</w>
ex tre
cur r
comm on</w>
amoun t</w>
is m</w>
cen ter</w>
m ed</w>
e m</w>
bu y</w>
te am</w>
s our
go o
for ce</w>
diffic ult</w>
t on</w>
econom ic</w>
reli gi
beg an</w>
at ure</w>
st age</w>
se qu
lo cal</w>
e vi
de ath</w>
su al</w>
in stitu
fu ll</w>
f li
ver age</w>
k il
h y
an ding</w>
ct or</w>
cl as
in vol
kno w
ch ed</w>
t ot
ra di
n ation
jur is
juris diction</w>
h ands</w>
h on
c y
bo oks</w>
gi n</w>
g one</w>
simp ly</w>
s ite</w>
lon ger</w>
con ver
z org
r ai
pres ent</w>
e ts</w>
p aper</w>
nee ded</w>
tr ac
sp ent</w>
res our
reali zed</w>
m er</w>
fri end</w>
incredi ble</w>
gro w
ei ther</w>
sur vi
m as
ci ties</w>
wee k</w>
know le
de al</w>
bl ack</w>
tri ed</w>
hum ans</w>
val ue</w>
u. a.</w>
u _
u_ a</w>
e qu
de li
col lec
ci vi
ase s</w>
c ted</w>
c ks</w>
grow th</w>
quic kly</w>
on d</w>
for ward</w>
tr ain
e m
u ses</w>
tra di
me ss
ca te</w>
ic k</w>
hel p
sur face</w>
for tun
de scri
con di
sit u
me an
f ro
comple x</w>
at ten
sit ting</w>
ros s
fe et</w>
compani es</w>
verzekering s
p ol
or der
mo le
mole cu
s .</w>
ho ld</w>
h or
e f</w>
fi eld</w>
we st</w>
wat ch</w>
w ouldn</w>
re vol
l ost</w>
d na</w>
ste p</w>
gir l</w>
d ers</w>
2 5</w>
logi cal</w>
knowle dge</w>
w1 7
te mp
cle ar</w>
c le</w>
bor n</w>
a ds</w>
6 0</w>
p sy
e t
p ay</w>
ne i
in ve
at or</w>
ro bo
par t
mi les</w>
k ing
w ers</w>
re cogni
f e</w>
a x
po or</w>
g ar
b ased</w>
m ine</w>
b loo
wee ks</w>
vi ol
sou th</w>
car e
b al
ani mal</w>
m os
li sh</w>
fu n</w>
fe lt</w>
econom y</w>
e at</w>
wh ite</w>
technologi es</w>
poli tical</w>
ordin ary</w>
n ers</w>
im pro
behavi or</w>
re ality</w>
gro wing</w>
opport unity</w>
me t</w>
chang es</w>
br ought</w>
mb ers</w>
en e
comp as
spe c
ou gh
li ke
gi ving</w>
stre et</w>
se a</w>
fol lo
si mi
mor ning</w>
any one</w>
te lling</w>
pos ed</w>
e mer
d a
wr ote</w>
i ll
f ly</w>
com pe
bor der</w>
ti s
e d
pati ents</w>
ne y</w>
m it</w>
the ory</w>
su st
con v
develop ed</w>
vi ll
person al</w>
he ad</w>
fl u
f ur
cu t</w>
str u
mo der
imag es</w>
are as</w>
am ed</w>
sp ir
progra m</w>
feel ing</w>
de ca
var_ p</w>
tic ally</w>
ross B
rossB order
rossBorder Status</w>
n ice</w>
eiopa-Base:has C
eiopa-Base:hasC rossBorderStatus</w>
c ross</w>
gi ves</w>
f ast</w>
de f
ca mer
the ma
ma thema
lab or
d ro
m ber</w>
h osp
gr ad
en cy</w>
underst anding</w>
u. s.</w>
u res</w>
scienti sts</w>
ori g
f ra
di e</w>
con sci
char ac
u ght</w>
te xt</w>
s mar
pre dic
an ti
su n</w>
atten tion</w>
wr ite</w>
w1 8
st e</w>
lar ly</w>
ex c
tur al</w>
re p
a w
liter ally</w>
in spi
d am
cli mate</w>
see ms</w>
op s</w>
in sur
disco vered</w>
to ols</w>
enti ally</w>
d om
spe ak</w>
nu mbers</w>
fil m</w>
cer tain
mo vi
es pe
c us</w>
reali ze</w>
o x
s cre
pro duce</w>
c ars</w>
a ter</w>
e g
&apos ;</w>
sh ing</w>
en ge</w>
chall enge</w>
w 0
a verage</w>
ty p
ri ed</w>
l and
ar ing</w>
absolu tely</w>
pati ent</w>
n on
materi al</w>
i g
fre e
st and</w>
pres en
spe a
th an
hundre ds</w>
for ms</w>
run ning</w>
qu e</w>
per form
mp les</w>
individu al</w>
e -
bot tom</w>
ac cess</w>
al one</w>
resu lt</w>
nor mal</w>
mi llions</w>
es ti
develop ing</w>
sh ape</w>
phy sical</w>
no body</w>
2 0
pla ying</w>
mo vement</w>
al low</w>
gir ls</w>
ci ally</w>
z er
cre ating</w>
ch es</w>
rec ently</w>
fa v
ex pres
eng lish</w>
de ep</w>
au th
re le
moder n</w>
l 01
ke t</w>
av ail
var i
sibi lity</w>
compas sion</w>
la w</w>
we b</w>
n uc
hu man
f oun
an al
sho wed</w>
demo cr
bu n
b ar
ad d
wi sh</w>
sust ain
produc t</w>
in ation</w>
for d</w>
com b
y e</w>
sol ution</w>
qu ality</w>
photo graph
la b</w>
ine se</w>
chang ing</w>
s al
lli g
kno ws</w>
inte llig
in ess</w>
develop ment</w>
8 0</w>
relation ship</w>
r ate</w>
maj or</w>
fo cus</w>
any body</w>
ter ri
m a</w>
grap h</w>
tin y</w>
see m</w>
obvi ously</w>
ma p</w>
g lo
ef fec
d ings</w>
bac k
mo ved</w>
innov ation</w>
indu stry</w>
comp li
ben ef
ar en</w>
nuc le
fer ence</w>
tal ked</w>
ster n</w>
re f
like ly</w>
ki d</w>
desig ned</w>
dar k</w>
che mi
ch inese</w>
verzekerings maatschappij</w>
so on</w>
pr om
me t
se ver
incredi bly</w>
co ol</w>
be gin</w>
u se
sa ve</w>
revol ution</w>
n y</w>
medi cal</w>
espe cially</w>
eas i
c ing</w>
c ess
bloo d</w>
o s</w>
nei gh
issu e</w>
in ven
w all</w>
supp ort</w>
ris k</w>
m oun
am s</w>
ain s</w>
ag ed</w>
ac hi
tre at
ti vely</w>
s po
nor th</w>
ha ven</w>
experi ment</w>
evol ution</w>
di ver
bo ard</w>
avail able</w>
b es</w>
univer sity</w>
se cur
secur ity</w>
on line</w>
l ap
d ou
connec ted</w>
c es
be comes</w>
insur ance</w>
happ iness</w>
ef fect</w>
y ond</w>
sol ve</w>
l uc
gr and
ca tions</w>
be yond</w>
we i
per fect</w>
li fe
f al
gen e
fun dam
expl ain</w>
19 9
wr iting</w>
ple ase</w>
ma in
big ger</w>
ab o
sour ce</w>
g ames</w>
nec ess
gu ess</w>
ff ici
en ly</w>
c ity</w>
ta king
taking I
takingI D</w>
sur ance
surance U
suranceU n
suranceUn der
suranceUnder takingID</w>
reas ons</w>
n suranceUndertakingID</w>
eiopa-Base:hasI nsuranceUndertakingID</w>
situ ation</w>
sh e
resour ces</w>
ma g
gener ation</w>
ex tra
ag ing</w>
li ved</w>
k ind</w>
oper ation</w>
me dic
i se</w>
fundam ent
ing ly</w>
imp act</w>
f all</w>
compu ters</w>
tran sp
pu tting</w>
l led</w>
g en</w>
dev ice</w>
off ice</w>
grou ps</w>
fe ar</w>
dri ve</w>
br and
ti ci
te lls</w>
su ally</w>
net work</w>
dig ital</w>
d y
bac teri
ru les</w>
pro g
wi n</w>
scho ols</w>
re si
re qui
ou d</w>
me et</w>
om s</w>
nation al</w>
mis sion</w>
ho od</w>
g t</w>
di men
chall eng
as king</w>
te ach</w>
su p
materi als</w>
e ast</w>
de ad</w>
cl ass</w>
bab y</w>
tech ni
lin es</w>
wa ar
t ors</w>
pic tures</w>
om e</w>
ma in</w>
l u
de t
car b
bo x</w>
to wards</w>
te x
t on
speci al</w>
sever al</w>
scienti fic</w>
vo ice</w>
si l
read ing</w>
en ded</w>
chan ce</w>
invol ved</w>
gener al</w>
de gre
con cer
archite c
1 2</w>
so f
simi lar</w>
issu es</w>
de pen
z i
particu larly</w>
zorg verzekeraar</w>
teach ers</w>
su dd
sudd enly</w>
inde ed</w>
i cal</w>
do l
col or</w>
wr it
sh a
jo h
if ic
t end</w>
sol ar</w>
s le
on to</w>
z y</w>
s un
s af
pro jects</w>
or ies</w>
g ed</w>
bre ak</w>
w 01
to wn</w>
t ary</w>
s ounds</w>
re ly</w>
ex pen
ev en
&apos; s</w>
ro ad</w>
le t
f am
evi dence</w>
bas ic</w>
r ing</w>
ex ci
wor th</w>
psy cho
li ties</w>
hundre d</w>
certain ly</w>
r an
op h
int ro
1 6</w>
ste n</w>
st and
li sten</w>
l ts</w>
elec tri
d on
vi d</w>
tru th</w>
s we
robo t</w>
mess age</w>
bo y</w>
acti vity</w>
vill age</w>
ther e
ter r
tal ks</w>
ob ject</w>
cir cu
app li
any way</w>
wan ts</w>
levens verzekeringen</w>
in k</w>
cho ice</w>
tri bu
sion al</w>
con ne
ca mp
spe ed</w>
b a
w ind</w>
ter m</w>
str ong</w>
m ou
l low</w>
d ance</w>
ar ed</w>
ac tive</w>
st ay</w>
op en
mor al</w>
li st
exa mples</w>
do or</w>
colle ge</w>
co de</w>
star ts</w>
h it</w>
e th
n ine</w>
suc cess
sho wing</w>
pr oper
posi tive</w>
l a</w>
sy n
se cre
in vi
fur ther</w>
exc iting</w>
every where</w>
e ye</w>
e qui
u al</w>
tw are</w>
ti ce</w>
st ro
sp read</w>
sof tware</w>
smar t</w>
ski n</w>
re ach</w>
pri v
pr acti
no tice</w>
li st</w>
imp os
beli ev
en ding</w>
c ro
su ff
en ter
tot ally</w>
plan ts</w>
lo p</w>
jour ney</w>
intere st</w>
ic ity</w>
deve lop</w>
con struc
wal king</w>
str on
s ted</w>
pot ential</w>
meas ure</w>
d den</w>
carb on</w>
b an</w>
wa it</w>
s ent</w>
or ity</w>
opp ed</w>
nucle ar</w>
mal e</w>
extra ordinary</w>
democr acy</w>
big gest</w>
sug ge
st an</w>
s it</w>
re mar
peri od</w>
h our</w>
g ot
fol low</w>
con fli
sy m
mon th</w>
me ly</w>
b all</w>
ad d</w>
w on
p ac
g as</w>
am ong</w>
sh if
s end</w>
me chan
in st
de ser
ver s</w>
stud ent</w>
patter n</w>
goo gle</w>
ex tr
er ci
bu l
s lo
pl ant</w>
pic k</w>
even tually</w>
dan ger
pre si
m ass</w>
kil led</w>
gre w</w>
sm al
pl an</w>
orig in
n amed</w>
min i
in ten
hosp ital</w>
f ant
ear li
e ffici
de fini
contin u
buil dings</w>
ver ty</w>
po verty</w>
per spec
pe ace</w>
extre mely</w>
ex cept</w>
teach er</w>
st ore</w>
medic ine</w>
k os
jo bs</w>
j ap
inter national</w>
for t</w>
di st
ca use</w>
appro ach</w>
vi sual</w>
suc cess</w>
st ers</w>
hi v</w>
ess entially</w>
com par
at ures</w>
we b
pe ct</w>
organi zation</w>
le ad</w>
ex per
as h</w>
vis or</w>
u sually</w>
te m
produc ts</w>
plan e</w>
ob jects</w>
lo cated</w>
fo cu
contin ue</w>
wat ching</w>
sti c
gal ax
e ly</w>
camer a</w>
1 1</w>
y p
tre es</w>
s wi
resu lts</w>
r om
ma gi
ter n
mul ti
fortun ately</w>
da vid</w>
ar m</w>
sti c</w>
s ation</w>
poin ts</w>
ol der</w>
gh ter</w>
ct ors</w>
wor l
win do
some where</w>
li ar</w>
lar gest</w>
grad u
electr icity</w>
ric ul
fe cts</w>
con su
br ains</w>
vi ation
viation Local</w>
t an
super visor</w>
sign ific
sh ort</w>
sep ar
la un
l un
im medi
h an
gleif-base:has A
gleif-base:hasA b
gleif-base:hasAb bre
gleif-base:hasAbbre viationLocal</w>
fro m</w>
eiopa-Base:has N
eiopa-Base:hasN C
eiopa-Base:hasNC A</w>
add ress</w>
ver sion</w>
ser ies</w>
movi e</w>
m ous</w>
fi re</w>
col labor
c ru
stan ding</w>
some how</w>
min ds</w>
l ose</w>
g es</w>
f ai
en jo
c lo
b ers</w>
remar k
di ag
o ds</w>
is h</w>
expe ct</w>
do ctor</w>
2 00</w>
te d
stu dies</w>
saf e</w>
re gu
p age</w>
indu stri
impos sible</w>
c lear
b org
anal y
ac coun
y ed</w>
thr ough
ph en
phen om
phenom en
minu te</w>
lar ger</w>
high er</w>
cre ative</w>
v a
sur ger
sho wn</w>
ne w
lead ers</w>
expen sive</w>
enti on
cra zy</w>
thous and</w>
t le</w>
sor ts</w>
ser ious</w>
s k
he ad
allo wed</w>
ste m</w>
shi ps</w>
mo m</w>
ex pla
tou ch</w>
su s</w>
pie ces</w>
osp here</w>
le s
inclu ding</w>
in flu
ill u
fac es</w>
abo ve</w>
wi fe</w>
there fore</w>
t ch</w>
se x</w>
o od</w>
mode ls</w>
fav or
beau ty</w>
5 00</w>
wi de</w>
waar borg
waarborg maatschappij</w>
ul ti
fin ding</w>
ar -
tem per
t ree</w>
prof es
e st
d a</w>
con sum
train ing</w>
tradi tional</w>
se ll</w>
ri can</w>
mean ing</w>
m b</w>
individu als</w>
condi tions</w>
c in
architec ture</w>
af rican</w>
ve ls</w>
v ac
tru st</w>
sup posed</w>
posi tion</w>
mo bi
in ing</w>
go al</w>
exci ted</w>
bacteri a</w>
tru ly</w>
perspec tive</w>
compli cated</w>
co ver</w>
r ich</w>
produc tion</w>
mu se
dru gs</w>
dis cu
w0 3
viol ence</w>
u s
ta ught</w>
st ars</w>
org an
ne der
fami lies</w>
conne ct</w>
wo od</w>
uc k</w>
su e</w>
dru g</w>
cri sis</w>
civi li
ce le
zi ek
ziek te
ziekte kos
ziektekos ten
writ ten</w>
up on</w>
li tary</w>
heal thy</w>
favor ite</w>
fant astic</w>
en or
de te
treat ment</w>
scre en</w>
sc en
ro le</w>
fas ter</w>
fam ous</w>
dre am</w>
d au
ari ly</w>
y er</w>
ur s</w>
s sion</w>
ri se</w>
regi on</w>
r ay</w>
le n</w>
in come</w>
gh tly</w>
fi gu
e se</w>
de pres
communi ties</w>
bio logy</w>
ti z
ma th</w>
m self</w>
la u
incre as
hi mself</w>
f ing
d -
conv in
ci tiz
ali ve</w>
to ol</w>
o w
neur ons</w>
man u
wor se</w>
st ati
parti cip
form ed</w>
through out</w>
schade verzekering</w>
respon se</w>
par tic
me ant</w>
m r
ki ll</w>
free dom</w>
v al</w>
stri bu
ski lls</w>
rec ei
di stribu
de p
al though</w>
success ful</w>
r ange</w>
human ity</w>
fundament al</w>
fi ght</w>
cont ent</w>
bun ch</w>
9 0</w>
zer o</w>
z z
sho t</w>
qu e
pr ice</w>
p ain</w>
ni a</w>
gen es</w>
as se
1 8</w>
ke pt</w>
inven ted</w>
ho t</w>
fo ot
bo dies</w>
ti v
serv ice</w>
s ke
p al
f ine</w>
earli er</w>
str ange</w>
poli cy</w>
ici al</w>
got ten</w>
emp lo
colle ag
clear ly</w>
centr al</w>
be ings</w>
smal ler</w>
sel f
self -
recogni ze</w>
om e
mi litary</w>
i de</w>
con text</w>
con cept</w>
af gh
ye ar-
secon ds</w>
phys ics</w>
patter ns</w>
le y</w>
gh ting</w>
ca ses</w>
an tly</w>
ach ed</w>
r or</w>
prog ress</w>
ing ing</w>
gh t
fami liar</w>
cho ose</w>
o re
mach ines</w>
m it
l 00
ch ri
z ations</w>
won der</w>
wi se</w>
we stern</w>
tr ou
than ks</w>
p an
cos ts</w>
solu tions</w>
ri ghts</w>
p tion</w>
mi r
f le
de ter
cep tion</w>
brand verzekeraar</w>
at ors</w>
americ ans</w>
allo ws</w>
1 9</w>
wa ste</w>
val ues</w>
tre at</w>
str ai
ri d</w>
recor d</w>
lo ved</w>
list ening</w>
he y</w>
cre ati
any where</w>
ac tual</w>
stra te
s low</w>
presi dent</w>
no or
gre ater</w>
consi der</w>
con tribu
b and</w>
r ap
pr os
pl astic</w>
mas sive</w>
d ad</w>
re ct</w>
provi de</w>
ox y
jour n
8 9</w>
wei ght</w>
wa iting</w>
muse um</w>
ma tic</w>
hi c</w>
f low</w>
effec tive</w>
e k</w>
danger ous</w>
bri dge</w>
br u
ap es</w>
ac tions</w>
was h
religi on</w>
magi c</w>
m ers</w>
h ab
deci sions</w>
year- old</w>
we ver</w>
prote ct</w>
n one</w>
in se
ho wever</w>
compe ti
cele br
wh ose</w>
wh er
wal ked</w>
remark able</w>
pres s</w>
fas cin
dra w</w>
cri tical</w>
con ference</w>
tra vel</w>
ro bot
robot s</w>
la ws</w>
la tions</w>
is ms</w>
intellig ence</w>
exp lo
dri ving</w>
diver sity</w>
cul tural</w>
conver sation</w>
arti st</w>
any more</w>
teach ing</w>
surger y</w>
leg s</w>
i al</w>
de b
co o
ac ci
00 ,000</w>
ther n</w>
ru le</w>
re duc
pre v
poli tics</w>
joh n</w>
in fec
foun d
f fe
curr ent</w>
be coming</w>
ag ricul
pro ces
ini ti
fore st</w>
fi ed</w>
connec tion</w>
ti tu
sp ac
si ght</w>
s wit
exi st</w>
direc tion</w>
cle an</w>
sustain able</w>
sub ject</w>
pu ll</w>
mi sta
immedi ately</w>
hop e
fu el</w>
el s</w>
con tr
c ked</w>
b om
au tom
af ter
underst ood</w>
t v</w>
phi los
ne ar
incre ase</w>
gre ate
greate st</w>
fin anci
engine ering</w>
aw are</w>
as su
ar ri
web site</w>
s ong</w>
lan ds</w>
hi stor
gene tic</w>
enor mous</w>
c ei
t or
ous ness</w>
m ot
land sc
glo b
flo or</w>
fl ying</w>
deca de</w>
de mon
vir us</w>
sli de</w>
sequ ence</w>
practi ce</w>
p ose</w>
n ur
m ani
lo wer</w>
li ber
ju sti
fo ot</w>
environ mental</w>
e ting</w>
t ar
st y
n ar
ge ment</w>
creati vity</w>
b ank</w>
as h
ve h
veh ic
sur r
re pr
repr ene
rai se</w>
mo tiv
marke ts</w>
fun ction</w>
f ru
ent reprene
do cu
c ket</w>
b at
wer en</w>
tele vision</w>
si a</w>
phys ici
photo graph</w>
mar s</w>
for get</w>
follo wing</w>
comple te</w>
co ld</w>
a st
var ious</w>
tu m
t ro
survi ve</w>
re por
pre ci
for th</w>
for ces</w>
dis appe
ag ree</w>
ad ap
ab les</w>
un fortunately</w>
tr ain</w>
temper ature</w>
serv ices</w>
net works</w>
la ted</w>
de sp
c k
use ful</w>
uni que</w>
shar ed</w>
priv ate</w>
perform ance</w>
h and
er y</w>
e ur
do g</w>
di vi
d ama
ar ds</w>
a p</w>
prin t</w>
os i
ne ar</w>
gl ass</w>
expl or
do ctors</w>
confli ct</w>
ch air</w>
cap ac
al ing</w>
air s</w>
ta ins</w>
sum mer</w>
re cent</w>
op ti
op e
mp tion</w>
mi l
me eting</w>
inde pen
in stru
f os
er ed</w>
eng th</w>
br inging</w>
and a</w>
a head</w>
tre men
tremen d
st ar</w>
spea king</w>
spe e
regi ster</w>
pr ac
poli ce</w>
pas sion</w>
op e</w>
ho le</w>
help ed</w>
gleif-L1:hasLegal Name</w>
fun c
fe ed</w>
e li
comm it
5 ,000</w>
w n
tr ade</w>
socie ties</w>
p ath</w>
mu sc
is la
fun ny</w>
fin al</w>
bab ies</w>
b os
x i
v ic
typ es</w>
ti vity</w>
si bly</w>
r is</w>
r an</w>
produc ed</w>
pos sibly</w>
origin al</w>
mos tly</w>
institu tions</w>
evol ved</w>
direc tly</w>
le vels</w>
in c
bo ys</w>
ar ts</w>
ar tic
we ap
shar ing</w>
lon don</w>
in fra
experi ments</w>
disco ver</w>
consci ousness</w>
as soci
tr ack</w>
ph ones</w>
non -
inspi red</w>
gen ome</w>
g ent
en cour
ef fects</w>
chemi cal</w>
ther ap
sor ry</w>
sig n</w>
sear ch</w>
prof ess
mo on</w>
mic ros
go l
gen e</w>
financi al</w>
care er</w>
be low</w>
we a
w19 7
speci fic</w>
se x
no tic
is land</w>
indi an</w>
dr .</w>
ai ds</w>
19 8
t op
st ation</w>
s an</w>
par k</w>
he at</w>
consi der
con clu
terri ble</w>
s ky</w>
grap hic</w>
govern ments</w>
challeng es</w>
c ure</w>
we al
stru g
ple as
obvi ous</w>
n os
li ghts</w>
expl ore</w>
ep ing</w>
emo tional</w>
e ma
de stro
bir ds</w>
ap h
ani stan</w>
afgh anistan</w>
scienti st</w>
s at</w>
s an
it h</w>
inve st
deci de</w>
cap ital</w>
arti sts</w>
anci ent</w>
7 0</w>
wor kers</w>
rela ted</w>
h ur
g ori
deci sion</w>
comp on
ci es</w>
bri lli
bi ll</w>
b ought</w>
wi lling</w>
w 00
tw ice</w>
t ask</w>
play ed</w>
in stance</w>
ge o
ev ent</w>
con duc
clas s
ca uses</w>
br a
x ity</w>
tur ning</w>
tion ary</w>
stan tly</w>
sle ep</w>
re ve
mobi le</w>
me th
ga z
focu sed</w>
din os
comple xity</w>
wor ry</w>
strai ght</w>
sti ck</w>
st om
s mo
ll -
infra structure</w>
i an</w>
dau ghter</w>
communi cation</w>
co ffe
clos er</w>
car ry</w>
bio logical</w>
ai ls</w>
tu be</w>
t a</w>
sp ending</w>
sli ghtly</w>
o d
do wn
de si
de m
charac ter</w>
ch ris</w>
capac ity</w>
camp ai
campai g
cal i
bir th</w>
surpri sing</w>
pu sh</w>
neigh bor
molecu les</w>
mic ro
is ra
intro duc
dise ases</w>
deca des</w>
d ying</w>
tri al</w>
stre am</w>
s me
pur pose</w>
pre par
mi le</w>
manu fac
j a
f air
en ced</w>
dev ices</w>
secre t</w>
ri ver</w>
re ci
er a</w>
de cl
ch a
bu d
al e</w>
v ul
vul ner
the tic</w>
s y</w>
re presen
quic k</w>
popu lar</w>
p au
mem ory</w>
l y
ex ten
de s
u m
u g
trou ble</w>
signific ant</w>
on i
extr a</w>
di a</w>
com for
cal cul
bal ance</w>
ali zed</w>
ur ban</w>
tremend ous</w>
pres sure</w>
p ho
o -
f la
f it</w>
ent ing</w>
desig ners</w>
coffe e</w>
ce ll
cal ls</w>
supp ly</w>
resear ch
par a
n it
mem bers</w>
k en
ig n</w>
g la
for nia</w>
fas hi
f ail
e ating</w>
degre es</w>
citiz ens</w>
cali fornia</w>
c ting</w>
b on
ans wers</w>
ac ting</w>
wor st</w>
u sual</w>
ter y</w>
ru s
me ters</w>
m osphere</w>
i ra
fac t
at mosphere</w>
ap art</w>
ag re
we l
ro oms</w>
radi o</w>
philos oph
pas sed</w>
par al
p ass</w>
p aid</w>
industri al</w>
gr ade</w>
et c</w>
col lap
che ck</w>
as r</w>
acti vi
s al</w>
no tion</w>
n ation</w>
ma tely</w>
justi ce</w>
differ ences</w>
cre ates</w>
communi cate</w>
bro ken</w>
a gement</w>
u ne
stic s</w>
sch e</w>
publi shed</w>
moun tain</w>
me x
ma gaz
levens verzekering</w>
impro ve</w>
he aring</w>
struc tures</w>
stan ces</w>
ro ck</w>
ric hard</w>
notic ed</w>
met aph
l ying</w>
e cos
ecos y
char ge</w>
bl ind</w>
1 0,000</w>
see med</w>
phenomen on</w>
oxy gen</w>
logi st</w>
found ation</w>
econom i
af fec
1 7</w>
y ers</w>
sy mp
se lec
respon sibility</w>
re pe
pp ed</w>
hu s
help ing</w>
e dge</w>
di tion</w>
colleag ues</w>
ziektekosten verzekeringen</w>
tran si
stud ying</w>
s w</w>
r en
oc cu
n ations</w>
feel s</w>
far mers</w>
easi ly</w>
b its</w>
ad ul
ac cep
8 6</w>
ti sh</w>
supp or
sty le</w>
s sed</w>
s and</w>
r ace</w>
progra ms</w>
prin cip
plan ets</w>
near ly</w>
e ding</w>
de fin
de e
cor ner</w>
as ks</w>
adv an
achi eve</w>
1 3</w>
1 ,000</w>
windo w</w>
tis sue</w>
stor s</w>
partic les</w>
par ty</w>
organi zations</w>
electr on
cap it
3 00</w>
. a.</w>
tot al</w>
te ch</w>
stand ard</w>
si des</w>
shif t</w>
re al
pain ting</w>
mar y</w>
li e</w>
landsc ape</w>
high -
h air</w>
dro p</w>
at ory</w>
adv ant
1 8
z e
th ro
stra tion</w>
re turn</w>
re duce</w>
organ isms</w>
op hi
o es</w>
imag ination</w>
el ds</w>
wi s
sta ur
re staur
ni ger
neigh b
necess arily</w>
kno wing</w>
high ly</w>
gori th
gi ant</w>
electri c</w>
al gorith
2 7</w>
19 7
tu i
stre ets</w>
st opped</w>
religi ous</w>
pos sibility</w>
necess ary</w>
my ster
in tui
fl u</w>
fi x</w>
f light</w>
f air</w>
cor por
condi tion</w>
cho ices</w>
b la
at temp
ac ts</w>
uni ties</w>
tra ve
st one</w>
ser ve</w>
relation ships</w>
pr ot
opport unities</w>
ira q</w>
inter act</w>
civi l</w>
t al</w>
sol di
slo w
schade verzekeringen</w>
s ac
pri son</w>
lo ad</w>
lea ds</w>
ju d
fini shed</w>
figu red</w>
differ ently</w>
desp ite</w>
ch ur
benef it</w>
y ou
ver ing</w>
un e</w>
ulti mately</w>
ti ves</w>
sh el
s ent
profess or</w>
prof it</w>
organi c</w>
mis sing</w>
h ei
ga tive</w>
eng ine</w>
dol lar</w>
br ings</w>
argu ment</w>
si tes</w>
pri ze</w>
mom ents</w>
mo ves</w>
ma m
luc ky</w>
lon g
li br
inte l
i er</w>
g ers</w>
f lies</w>
ef fort</w>
defini tion</w>
cro w
bir d</w>
al tern
vis it</w>
sequ ences</w>
o ther
mr .</w>
mathema tics</w>
jo in</w>
f our
desig ner</w>
cor ru
con serv
cl ai
bu b
ye llow</w>
ser i
per fec
les son</w>
lead ing</w>
fore ver</w>
fore ign</w>
en d
emo tions</w>
e ty</w>
dom in
comfor table</w>
benef its</w>
b oun
agricul ture</w>
2 ,000</w>
z en</w>
w ri
ti n</w>
t -
str ic
s cul
res pect</w>
pu zz
pres ents</w>
or g</w>
no ise</w>
new sp
la w
hel ps</w>
heal th
fair ly</w>
f er</w>
ch ic
brilli ant</w>
att ack</w>
worl d
te en
ot yp
logi sts</w>
ll en
li f
extre me</w>
en ess</w>
e a
dou b
diag nos
comm erci
ber t</w>
1 4</w>
wis dom</w>
vol un
tici ans</w>
suff ering</w>
slow ly</w>
sion ate</w>
r aid</w>
pu ts</w>
pre vi
pen gu
mar k</w>
h i</w>
fre qu
fos si
eng age</w>
d ents</w>
d an</w>
co ast</w>
as ia</w>
an der
af raid</w>
shar es</w>
sen s
sa fe
r o</w>
op pos
nu tri
mu sli
mat ters</w>
le ts</w>
jap an</w>
i b
ge or
fe male</w>
engine ers</w>
cre atures</w>
c ore</w>
bi llions</w>
app ly</w>
adul ts</w>
8 8</w>
w1 6
th row</w>
tal ity</w>
ta tions</w>
po e
n ote</w>
fac e
face book</w>
ele ments</w>
effici ent</w>
de ep
cy cle</w>
co vered</w>
c king</w>
brea k
an a</w>
af ford</w>
ac cur
y a</w>
t ail</w>
st ant</w>
progra m
long -
gu e</w>
fr en
fren ch</w>
fascin ating</w>
edu ca
disco very</w>
competi tion</w>
bre ad</w>
beg ins</w>
as ter</w>
am i</w>
ac cor
- maatschappij</w>
vir tual</w>
v ast</w>
tur ing</w>
sym me
influ ence</w>
hope fully</w>
hom e
experi ences</w>
easi er</w>
di stance</w>
br an
be es</w>
an n
z org</w>
wal ls</w>
val ent</w>
ty pi
typi cal</w>
stati stics</w>
se ctor</w>
sa ving</w>
s ick</w>
respon d</w>
rep ort</w>
pro found</w>
ne l</w>
mo thers</w>
los s</w>
identi ty</w>
fi ghting</w>
fashi on</w>
con fi
chil d
che ap</w>
cap able</w>
an ge
a vo
19 6
wi ld</w>
tr af
traf fic</w>
sur ge
str ali
lea ving</w>
f ically</w>
cu stom
cri me</w>
consci ous</w>
ca ught</w>
bri tish</w>
au strali
ari a</w>
ve ments</w>
respon sible</w>
ne gative</w>
li n</w>
ir an</w>
fi elds</w>
enjo y</w>
em brac
cl in
bro ther</w>
bo at</w>
ad op
a be
val u
surr oun
spee ch</w>
sh ouldn</w>
scul p
rep li
r ying</w>
pl at
pain t</w>
other wise</w>
opp ing</w>
off er</w>
mou se</w>
meas u
magaz ine</w>
is ter</w>
invest ment</w>
import antly</w>
fr an
deser t</w>
car to
bre ast</w>
b att
ali zation</w>
res sed</w>
ref lec
rai sed</w>
r 1
quot e</w>
qui d</w>
me at</w>
inve st</w>
inse cts</w>
ex tin
dre ams</w>
descri be</w>
col ors</w>
campaig n</w>
b one</w>
we ll-
su dden</w>
stu died</w>
so ld</w>
princip les</w>
nor m
norm ally</w>
le ss
l er
ing ton</w>
hol ding</w>
galax y</w>
fe llow</w>
de a
ach es</w>
ac k
7 5</w>
4 3</w>
wh i
typ e</w>
th o
ter ed</w>
si ster</w>
seri ously</w>
ot ing</w>
op y</w>
oc cur
molecu le</w>
mex ic
invi sible</w>
in t</w>
fi ll</w>
every day</w>
engine er</w>
ef s</w>
econom ics</w>
dama ge</w>
coun t</w>
att ac
an cy</w>
vi ru
trans form</w>
thre e-
su it</w>
sibi lities</w>
r op
oppos ite</w>
oper ating</w>
li fe</w>
langu ages</w>
intel lec
he ld</w>
gu n</w>
gent le
g n
enti rely</w>
di d</w>
demo cra
degre e</w>
d ai
cri min
av y</w>
app ed</w>
am bi
ach ing</w>
spir it</w>
l ay</w>
l ack</w>
j an
hus band</w>
fil led</w>
ex hi
ev ents</w>
es ses</w>
depres sion</w>
cra ft</w>
civili zation</w>
beli ef</w>
air plane</w>
vac c
ste ps</w>
prote in</w>
prin ci
princi ple</w>
pho to</w>
mi ted</w>
ma tes</w>
li mited</w>
kil ome
ep ide
desi re</w>
deli ver</w>
concer ned</w>
ca tch</w>
be at</w>
artic le</w>
arti f
argu e</w>
a i</w>
ye ster
yester day</w>
x ed</w>
wo w</w>
to ward</w>
temp or
s la
re ver
ra tion</w>
ra in
profes sional</w>
plac ed</w>
o om</w>
lin k</w>
lab or</w>
he a
go s</w>
desig ning</w>
deep ly</w>
c are</w>
believ ed</w>
back ground</w>
app reci
advant age</w>
2 4</w>
wh en
when ever</w>
we ar</w>
war ming</w>
u it
titu de</w>
therap y</w>
st uck</w>
res ol
r ot
predic t</w>
oce ans</w>
na mic</w>
man aged</w>
m ention
institu te</w>
increas ingly</w>
h ad
gre en
follo wed</w>
fai led</w>
eur ope
dy namic</w>
dimen sional</w>
commerci al</w>
co 2</w>
child hood</w>
c les</w>
blo ck</w>
as sur
9 9</w>
4 5</w>
wash ington</w>
ver sus</w>
transp or
tom or
tomor row</w>
t ent</w>
t an</w>
surpri se</w>
spec tr
p ages</w>
h ate</w>
evi l</w>
de st</w>
d ry</w>
b ase</w>
ar ms</w>
ad a</w>
3 5</w>
x es</w>
who m</w>
weal th</w>
wa ve</w>
u tionary</w>
thin ks</w>
the ater</w>
te lli
separ ate</w>
sa telli
re ma
perfec tly</w>
open ed</w>
men ted</w>
hor ri
fr ag
electri cal</w>
cop y</w>
consu mption</w>
con stantly</w>
cir cle</w>
char les</w>
br it
be d
accor ding</w>
wh o</w>
wh en</w>
we aring</w>
te x</w>
star t</w>
r ough
quar ter</w>
qu es</w>
prev ent</w>
pau l</w>
op ini
op ening</w>
nu mber</w>
he adquar
headquar ters</w>
ha ve</w>
gleif-base:has Entity
gleif-base:hasEntity Status</w>
gleif-base:has C
gleif-base:hasC ity</w>
gener ate</w>
far m</w>
fail ure</w>
enti ty</w>
emp o
app le</w>
am p</w>
a thy</w>
viru ses</w>
un less</w>
tr ic
survi val</w>
photo s</w>
p ounds</w>
mexic o</w>
j i
har der</w>
four th</w>
fact ory</w>
dimen sions</w>
def ine</w>
comp are</w>
4 00</w>
wi l
sp ring</w>
metaph or</w>
me a</w>
mat ch</w>
ju mp</w>
inter vie
g an
e th</w>
de part
curr ently</w>
class room</w>
car di
b .a.</w>
ad ly</w>
ach mea</w>
a stron
2 5
2 3</w>
vo ices</w>
univer sal</w>
stu di
st ac
spac es</w>
sh es</w>
o be
mou th</w>
mi d
ke ts</w>
ke eping</w>
isra el</w>
intellig ent</w>
indepen dent</w>
gr y</w>
galax ies</w>
g ri
exper ts</w>
exi st
emplo ye
deter min
chur ch</w>
c ard</w>
al ism</w>
af fect</w>
ad ver
- year-old</w>
wor ried</w>
wor k
we ird</w>
w19 0
volun te
ve y</w>
va art
ur al</w>
uit vaart
u r</w>
tum or</w>
train ed</w>
t ough</w>
struc tion</w>
rele v
r ural</w>
prop os
ot h</w>
mon it
maj ority</w>
lead er
leader ship</w>
lea ves</w>
inc enti
he ads</w>
h 01
g ate</w>
g ain</w>
fing er</w>
dra wing</w>
d le</w>
cre ation</w>
cogni tive</w>
ch imp
ac e
vi su
ven tion</w>
tele sc
supp ose</w>
so il</w>
sign als</w>
sign al</w>
sh apes</w>
ran dom</w>
prot otyp
li c
fac i
exi sts</w>
equi valent</w>
din ner</w>
deb ate</w>
corru ption</w>
compar ed</w>
ca used</w>
a di
1 .
z es</w>
w19 6
tu m</w>
sh ou
nar ra
li c</w>
lar ge
it ation</w>
it able</w>
inste in</w>
hi dden</w>
has n</w>
gradu ate</w>
gh ten
e instein</w>
cor tex</w>
busin esses</w>
artif icial</w>
ar c
app ing</w>
wher e
vehic le</w>
val ley</w>
transp ar
thre at</w>
sp here</w>
sho es</w>
res er
re present</w>
plan ning</w>
neighbor hood</w>
musc le</w>
mic als</w>
la yer</w>
invi ted</w>
he ll</w>
gl as
ema il</w>
contin ent</w>
con centr
che micals</w>
ari an</w>
ar a
ap ers</w>
ag en
weap ons</w>
strate gy</w>
p aying</w>
ne s
mor tality</w>
mention ed</w>
me ter</w>
mal aria</w>
lun ch</w>
let ter</w>
la dy</w>
jap an
japan ese</w>
i or</w>
ho les</w>
h 00
fac ts</w>
expres sion</w>
descri bed</w>
construc tion</w>
be ar</w>
wea ther</w>
vic ti
tu red</w>
to i
suc ce
spo t</w>
s au
pr oud</w>
pl us</w>
mag ne
le ct</w>
inter pre
high est</w>
gener ations</w>
feel ings</w>
dinos a
dinosa urs</w>
collec tive</w>
ca mp</w>
2 01
world wide</w>
wa ke</w>
viol ent</w>
st ate
se ly</w>
rop ri
mo tion</w>
mis sions</w>
je c
inv esti
inter action</w>
ex plan
e co
di rect</w>
cur i
cl oud</w>
brit ain</w>
ation al</w>
app ropri
am ro</w>
ab n</w>
a war
20 th</w>
u lar</w>
tre ated</w>
se at</w>
s am
n ames</w>
multi ple</w>
mar ri
laun ched</w>
ke ys</w>
for ced</w>
emer ging</w>
dou ble</w>
distribu tion</w>
ali st</w>
ag ers</w>
2 1</w>
un k</w>
ro ll</w>
per cei
organi zed</w>
ne u
mic ha
micha el</w>
los ing</w>
k ore
in ci
hy dro
eng land</w>
can ada</w>
are ly</w>
ar r
appe ar</w>
techni cal</w>
p it
min ister</w>
libr ary</w>
le st</w>
ki lling</w>
inter face</w>
ho te
gar den</w>
fe ll</w>
f at</w>
ex erci
dr ink</w>
det ails</w>
cor al</w>
con sequences</w>
colle ct</w>
ac tor</w>
v es
tri als</w>
te eth</w>
surpri sed</w>
str ate</w>
sme ll</w>
rough ly</w>
resour ce</w>
re m
rem ote</w>
ra tes</w>
produc ing</w>
p ment</w>
opti mi
nor thern</w>
movi es</w>
let ters</w>
intellec tual</w>
im m
i z
hon est</w>
hom es</w>
he avy</w>
grand mother</w>
gr as
gr and</w>
europe an</w>
equi pment</w>
equ al</w>
emo tion</w>
du e</w>
det ail</w>
depart ment</w>
con cep
clos ed</w>
ch ain</w>
b ase
aw ful</w>
avo id</w>
associ ated</w>
ar my</w>
w -
tri p</w>
studi o</w>
s ophi
ra tional</w>
pleas ure</w>
n ic
ma tically</w>
k it
jo y</w>
is tic</w>
i ze</w>
form ing</w>
ele ph
democra tic</w>
cont act</w>
col on
co al</w>
an o</w>
1 00,000</w>
wa ves</w>
ve ge
trans formation</w>
sho p</w>
sc an
sa v
oc ca
ob serv
ob se
less ons</w>
ini cal</w>
go ld</w>
fe ed
feed back</w>
dis aster</w>
cl inical</w>
ch en</w>
ce ler
bro wn</w>
acci dent</w>
ac celer
ac ade
war m</w>
us ers</w>
the sis</w>
sym bo
spectr um</w>
si mu
s ad</w>
regu lar</w>
qu a
play er</w>
pe t</w>
niger ia</w>
lea der</w>
le g</w>
j ames</w>
import ance</w>
had n</w>
h all</w>
geor ge</w>
ga ther
def en
de aling</w>
d ness</w>
cul tures</w>
chemi stry</w>
ag s</w>
absolu te</w>
ab str
where as</w>
w1 0
w ine</w>
under ne
underne ath</w>
thou ghts</w>
ten s</w>
sto od</w>
soldi ers</w>
sh all</w>
s pl
s ici
research ers</w>
proper ty</w>
pos sibilities</w>
part ner</w>
mu sici
molecu lar</w>
micros cop
lo g
kilome ters</w>
ken ya</w>
fin ish</w>
effec tively</w>
di sp
ch ap
b right</w>
australi a</w>
accoun t</w>
v ous</w>
sug gest</w>
su m</w>
speci fically</w>
sol ved</w>
simp li
sh u
s m</w>
r ac
or ders</w>
ner vous</w>
mar ried</w>
ke e
it ual</w>
hou ses</w>
he li
fossi l</w>
en ter</w>
emp ty</w>
chic ken</w>
bud get</w>
b les</w>
at ur
arri ved</w>
3 d</w>
wi ki
transi tion</w>
sug ar</w>
shar ks</w>
sen si
sa ved</w>
ro ots</w>
rec y
radi cal</w>
pro ce
prac tical</w>
po le</w>
pa ki
ne go
nego ti
moun tains</w>
met al</w>
lo s</w>
la be
hon or</w>
fo ld</w>
ess ential</w>
dai ly</w>
cur ious</w>
ch t
car ds</w>
be ach</w>
affec ted</w>
ad dition</w>
a th
1 50</w>
w ings</w>
ve l
vari ety</w>
valu able</w>
th om
thom as</w>
sugge sts</w>
stu pi
ste el</w>
se tting</w>
pic ked</w>
org ans</w>
mathema tical</w>
man agement</w>
long- term</w>
ki d
k .</w>
hor se</w>
her o</w>
gro wn</w>
fi f
fe wer</w>
f ail</w>
expres s</w>
d p</w>
consider ed</w>
connec tions</w>
clo ck</w>
bre ath</w>
advan ced</w>
ad ult</w>
tw o-
techni ques</w>
spo ke</w>
so li
rela tively</w>
re action</w>
prote ction</w>
pro ve</w>
pe cted</w>
h er</w>
go als</w>
gi ft</w>
fun d</w>
fol ks</w>
di r
di et</w>
charac ters</w>
cal ling</w>
cal cu
c ros
archite ct</w>
app ar
ann oun
8 7</w>
z on</w>
wer ed</w>
v ote</w>
ty pic
typic ally</w>
th ri
th ir
st un
sour ces</w>
sophi sti
sil k</w>
requi re</w>
r ain</w>
produc tive</w>
pres er
pp er</w>
plat form</w>
photograph s</w>
newsp aper</w>
mi x</w>
mi ss</w>
meth od</w>
mean ing
mar ine</w>
inven tion</w>
in fin
imp li
hosp it
gal l
fr ame</w>
est ab
employe es</w>
d ots</w>
convin ce</w>
bu ying</w>
b ar</w>
altern ative</w>
3 2</w>
zorg verzekeringen</w>
z on
x -
verzekering -maatschappij</w>
tar get</w>
scen e</w>
relev ant</w>
pri me</w>
play ers</w>
lo w-
lo cation</w>
gra vity</w>
fl at</w>
expla ins</w>
experi enced</w>
exist ence</w>
evol utionary</w>
epide mic</w>
enti ons</w>
en coun
dem and</w>
ci l</w>
ar m
analy sis</w>
am a</w>
w ars</w>
tradi tion</w>
swi m</w>
se as
restaur ant</w>
previ ous</w>
prepar ed</w>
per ception</w>
pas s
n ose</w>
n as
nas a</w>
life time</w>
i dentif
identif y</w>
enter tain
dar win</w>
awar eness</w>
as i
ad ed</w>
abi lities</w>
win ter</w>
vulner able</w>
vide os</w>
v m</w>
to x
tech n
sent ence</w>
safe ty</w>
res sive</w>
re ward</w>
re presents</w>
radi ation</w>
r a</w>
pri mary</w>
n am
m ur
land sche</w>
kit chen</w>
inst al
increas ing</w>
in ner</w>
h am
h a</w>
graph y</w>
fu l
effici ency</w>
ecosy stem</w>
ear th
circu m
bu sh</w>
bro thers</w>
bat tery</w>
ban g</w>
ali ties</w>
2 9</w>
z one</w>
wit ter</w>
vol u
te sting</w>
t witter</w>
str an
shou l
se lling</w>
se ction</w>
sc o</w>
ro ads</w>
ris ks</w>
res h</w>
r ound</w>
proper ties</w>
prom ise</w>
person ally</w>
om y</w>
mot or</w>
marke ting</w>
la dies</w>
introduc ed</w>
ill ness</w>
hab it
fi shing</w>
fac tor</w>
f resh</w>
environ ments</w>
ention al</w>
e ment</w>
defini tely</w>
dee per</w>
col um
cap e</w>
b ic
ac cept</w>
1 ,
uni on</w>
un like</w>
swit ch</w>
strug gle</w>
ri c</w>
res sion</w>
re fu
r ab
prote ins</w>
proces ses</w>
pri vi
pre gn
pat ent</w>
org an</w>
men tion</w>
instru ment</w>
ex change</w>
e mb
convin ced</w>
chri st
bu tt
behavi ors</w>
ax is</w>
an gle</w>
200 8</w>
wonder ing</w>
wiki pe
wikipe dia</w>
var d</w>
tr ick</w>
the me</w>
tern al</w>
stupi d</w>
str ength</w>
sen ses</w>
sen ding</w>
ro of</w>
requi res</w>
re place</w>
r are</w>
poli ticians</w>
plan es</w>
or al</w>
natur ally</w>
mista ke</w>
marri age</w>
m aps</w>
li ked</w>
lap top</w>
k ness</w>
it i</w>
har vard</w>
ger many</w>
gener ally</w>
ga p</w>
fac ing</w>
ea stern</w>
e missions</w>
direc tor</w>
de l
coo king</w>
bu s</w>
batt le</w>
4 2</w>
windo ws</w>
wat ched</w>
un usual</w>
u t
s atur
recei ved</w>
qu it
psycho logy</w>
pengu ins</w>
para dig
pac i
paci fic</w>
os ci
neur osci
mi n</w>
ju mp
goo ds</w>
expe cted</w>
cr ash</w>
compon ents</w>
bot tle</w>
appli ed</w>
a bu
2 1
vi sible</w>
u. k.</w>
ton i
sex ual</w>
reas on
pu lled</w>
no r</w>
li quid</w>
h its</w>
fra me
do gs</w>
defin ed</w>
con g
chimp an
chimpan ze
cen ters</w>
care fully</w>
b ing</w>
ap art
ance stors</w>
ag er</w>
tri llion</w>
tra ge
strate gi
st able</w>
shar k</w>
run s</w>
re di
poe try</w>
per cent
percent age</w>
pas sionate</w>
noor d-
no vel</w>
no on</w>
mu m</w>
mon y</w>
ment ary</w>
inte gra
ing redi
discu ssion</w>
d sw</w>
d it</w>
cre dit</w>
collabor ation</w>
cli ck</w>
car rying</w>
ca te
bro ke</w>
blo cks</w>
ati ves</w>
appropri ate</w>
ad mini
a ster
z il</w>
wi re</w>
ste ve</w>
sh ir
se tt
ro bert</w>
re ven
os ity</w>
no tes</w>
mu sical</w>
mista kes</w>
mir ror</w>
mal es</w>
labor atory</w>
is on</w>
inv ent</w>
hospit als</w>
health care</w>
g ation</w>
fr anci
franci sco</w>
fa ith</w>
emp athy</w>
e c
dri ver</w>
dre w</w>
consum er</w>
compu ting</w>
collap se</w>
cl ou
bur ning</w>
brea king</w>
bra zil</w>
9 3</w>
v ag
une x
un it</w>
tempor ary</w>
te sts</w>
tan e
situ ations</w>
satelli te</w>
pol l
poll ution</w>
pl om
neighb ors</w>
mani pu
logi c</w>
l f</w>
intro duce</w>
in king</w>
hop ing</w>
hol land</w>
h ori
gu lf</w>
gr an
g ay</w>
exerci se</w>
esti mate</w>
dri ven</w>
dis play</w>
di plom
depen ds</w>
contro lled</w>
confi dence</w>
com fort</w>
chri sti
bub ble</w>
autom a
at trac
anal o
5 0,000</w>
wri ter</w>
three- dimensional</w>
t les</w>
swi m
sou thern</w>
pi ano</w>
ph an
pe ak</w>
p ra
opini on</w>
mil k</w>
micro bes</w>
medi um</w>
man age</w>
m as</w>
intere sts</w>
inte gr
in ti
in ev
hote l</w>
explor ation</w>
explan ation</w>
encour age</w>
e cu
dr opped</w>
do w</w>
de struction</w>
clos ely</w>
cap ture</w>
b n
b ay</w>
achi ev
you tube</w>
uitvaart verzekeringen</w>
sto ck</w>
sophisti cated</w>
sol ving</w>
sa tions</w>
ri de</w>
re min
qu est</w>
p ack</w>
isla m</w>
inspi ration</w>
in sight</w>
i ly</w>
gen cy</w>
g rid</w>
exp an
entreprene urs</w>
ele ment</w>
crow d</w>
con tain
at lan
adver ti
ad ded</w>
3 ,000</w>
0 6</w>
ulti mate</w>
trave ling</w>
t ons</w>
stra ted</w>
sing ing</w>
sh ort
s mile</w>
re ached</w>
qui et</w>
presen tation</w>
pl u
op o
meaning ful</w>
j os
inclu de</w>
g or
form er</w>
fore sts</w>
flo wers</w>
er ror</w>
er al</w>
eg gs</w>
dis ci
disci pl
clai m</w>
c .</w>
at oms</w>
ara b</w>
activi ties</w>
2 000</w>
v ei
tre ating</w>
transpor tation</w>
ta ste</w>
sun light</w>
si r</w>
sc r
ri dic
resi li
recor ded</w>
re d
qu an
quan tum</w>
pres ence</w>
neder land</w>
mo vements</w>
m on</w>
innov ative</w>
hi g
ha m</w>
h ac
frame work</w>
fac tors</w>
en ty</w>
electron ic</w>
cre te</w>
comb ination</w>
bl ing</w>
b allo
au ton
as pect</w>
am on
19 5
wher ever</w>
wal ks</w>
v ation</w>
top ic</w>
ti le</w>
technologi cal</w>
st ress</w>
sh ame</w>
religi ons</w>
re less</w>
re late</w>
r ou
pre dat
pl ans</w>
ic tion</w>
hur t</w>
hol ds</w>
gen i
fal ling</w>
educa tional</w>
dra matic</w>
de st
de la</w>
conclu sion</w>
co w</w>
cate g
camer as</w>
an ces</w>
amoun ts</w>
5 5</w>
3 1</w>
wi red</w>
v u
vu llen
vullen de</w>
use r</w>
u. n
u.n .</w>
toni ght</w>
th day</w>
te ams</w>
t ables</w>
stron ger</w>
st ad</w>
sa mple</w>
rele ase</w>
rela tive</w>
prote cted</w>
poin ted</w>
pain t
occur red</w>
ob ser
ner ship</w>
mu sh
manufac turing</w>
li ver</w>
li cen
is ol
hydro gen</w>
hy po
fundament ally</w>
en cing</w>
economi sts</w>
circum stances</w>
ca m
bor g</w>
bir thday</w>
b in
assur anti
assuranti e</w>
an vullende</w>
algorith ms</w>
a anvullende</w>
200 7</w>
vacc ine</w>
the s</w>
surge on</w>
sur vey</w>
str ing</w>
sig ned</w>
se ts</w>
se es</w>
pro je
pol len</w>
ox ide</w>
out come</w>
open -
o p</w>
jo ke</w>
institu tion</w>
incre ased</w>
her oes</w>
gr ain</w>
glo be</w>
fortun ate</w>
fi le</w>
fa ke</w>
expl osi
e ars</w>
dy nam
dri ves</w>
comb ine</w>
co ordin
ca st</w>
bro ad
bi n</w>
attemp t</w>
asse mb
archite cts</w>
ani c</w>
after noon</w>
abstr act</w>
wh el
v an</w>
techni que</w>
t ape</w>
swim ming</w>
spl it</w>
si o
sa tis
re mind</w>
rap i
rapi dly</w>
r1 6
r ene
part ners</w>
over whel
ol y
n 00
lo ck</w>
levens verzekering-maatschappij</w>
infec ted</w>
gol den</w>
gentle men</w>
g dp</w>
fi cation</w>
fal ls</w>
exper t</w>
exp and</w>
dete ct</w>
decl ine</w>
cu e</w>
cor rect</w>
col li
bos ton</w>
behavi oral</w>
b le
accur ate</w>
a mp
6 00</w>
vi a</w>
trac king</w>
tis m</w>
sha ke</w>
ro cket</w>
pp ing</w>
po p</w>
paradig m</w>
paki stan</w>
on ed</w>
mo di
measu red</w>
liter ature</w>
li m
in si
i ds</w>
h en
g ling</w>
g ence</w>
fi sh
ex act</w>
er ic</w>
en ed</w>
dis h</w>
de vi
cur ve</w>
cre ature</w>
continu ed</w>
con fu
comb ined</w>
clou ds</w>
ca ting</w>
b ones</w>
ast oni
adv ice</w>
wonder ed</w>
well- being</w>
w ai
vie ws</w>
vi br
under water</w>
t at
sustain ability</w>
sig ns</w>
sho ot</w>
regi ons</w>
re main</w>
re gre
por tra
philosoph y</w>
ph r
per form</w>
paral le
onder ling</w>
n al</w>
mir ac
me d
le gi
lau gh
inter nal</w>
fe eding</w>
fe atures</w>
exi sting</w>
exhi bi
ev ening</w>
eg on</w>
deter mine</w>
cu tting</w>
cour t</w>
corpor ate</w>
cong ress</w>
be t</w>
b age</w>
auth ority</w>
aster o
am ing</w>
a egon</w>
youn ger</w>
st af
staf f</w>
recor ds</w>
re co
poli o</w>
phys ically</w>
particip ate</w>
op tions</w>
op tion</w>
mon keys</w>
laun ch</w>
kee ps</w>
instru ments</w>
h os
gu ar
g ment</w>
fun ding</w>
fin ance</w>
ex ecu
eng aged</w>
d ary</w>
conv entional</w>
consi st
collec tion</w>
challeng ing</w>
cer e
c at</w>
bo w</w>
ay ed</w>
appli cations</w>
y l
worl ds</w>
w1 4
un clear</w>
trans formed</w>
tou ched</w>
thre at
swe et</w>
su spe
stor y
son gs</w>
selec tion</w>
scri pt</w>
schade verzekeringsmaatschappij</w>
s tion</w>
s qu
rever se</w>
re ference</w>
que en</w>
pri son
po em</w>
po cket</w>
paral y
par ib
parib as</w>
pac k
n n</w>
ma kers</w>
lin ked</w>
large ly</w>
is lands</w>
horri ble</w>
ha iti</w>
h01 3
gar d
fle w</w>
fing ers</w>
f ying</w>
embrac e</w>
emb arr
embarr as
defen se</w>
dea ths</w>
de di
dan cing</w>
d ent
comp os
cli p</w>
cli mb</w>
chi ca
chica go</w>
cardi f</w>
c ers</w>
bn p</w>
blo g</w>
ac qui
a we
21 st</w>
vill ages</w>
ven ture</w>
unex pected</w>
te mber</w>
t ol
sub jects</w>
simpli city</w>
sh ap
sep tember</w>
sc ot
rema ins</w>
ra w</w>
prin ting</w>
pr oto
perform ing</w>
o tic</w>
myster y</w>
mi gra
mess ages</w>
mechan ical</w>
la test</w>
joh n
har d
fu els</w>
expe c
entertain ment</w>
eli min
elec tion</w>
desig ns</w>
con crete</w>
compon ent</w>
clas sic</w>
charac ter
bic y
bi a</w>
at tr
ad mit</w>
20 10</w>
y pt</w>
wi reless</w>
w1 5
victi ms</w>
un known</w>
u ti
u pper</w>
te sted</w>
te a</w>
t as
st ands</w>
sou l</w>
some what</w>
sch e
re ti
pe cts</w>
p ort</w>
p ay
on e-
ob ama</w>
narra tive</w>
mas ter</w>
lo y
li ghting</w>
in her
fil ms</w>
figu res</w>
eg ypt</w>
dr ag
direc tions</w>
diag ra
concep ts</w>
clo thes</w>
cho col
ch e</w>
ca using</w>
c kets</w>
c ents</w>
bur n</w>
bu sy</w>
bom b</w>
autom o
auth or</w>
as si
ani ma
ac cu
ur ies</w>
th in</w>
ski ll</w>
sensi tive</w>
sculp ture</w>
s ons</w>
s can</w>
s -
rene w
pr ices</w>
pot entially</w>
pl ate</w>
per man
par king</w>
or che
orche str
nei ther</w>
mem ber
ma ker</w>
it arian</w>
in ts</w>
ger man</w>
fran kly</w>
f y</w>
expla ined</w>
ex cell
des per
de man
dan ger</w>
collec ted</w>
cent uries</w>
celebr ate</w>
bu cks</w>
b y
as ing</w>
af for
volu me</w>
ven i
ul ous</w>
tion ing</w>
telesc ope</w>
su sp
se v
sa har
rele ased</w>
recor ding</w>
r w
r hy
ph ins</w>
neder lan
nederlan den</w>
nation al
national e-
nationale- nederlanden</w>
magne tic</w>
identi cal</w>
hou sing</w>
green house</w>
func tions</w>
emp i
earth qua
doub t</w>
dol phins</w>
conver sations</w>
bu dd
bor ing</w>
bo xes</w>
bar ri
ba g</w>
afric ans</w>
7 7</w>
4 9</w>
200 5</w>
y o</w>
vehic les</w>
symme try</w>
sm all
shu t</w>
resi stance</w>
per si
par is</w>
paint ings</w>
p has
phas e</w>
p apers</w>
p air</w>
occu r</w>
ne st</w>
musli m</w>
mis m</w>
ma d</w>
lo vely</w>
la ke</w>
l ength</w>
j ury</w>
in tri
in put</w>
impli cations</w>
i phone</w>
i i</w>
gr ay</w>
gh ters</w>
fle xi
exp on
en tr
en able</w>
di abe
dep end</w>
d i</w>
conserv ation</w>
connec ting</w>
con stant</w>
char ity</w>
chap ter</w>
chan nel</w>
care ful</w>
blo g
ac tors</w>
2 8</w>
2 2</w>
we ak</w>
verzeker ings</w>
tici an</w>
ti tle</w>
th u
terr ori
st ayed</w>
spi der</w>
soli d</w>
rus sia</w>
ro ot</w>
requi red</w>
re cht
on e
obse ssed</w>
m ble</w>
lun g</w>
hand le</w>
gener ated</w>
gen om
g ps</w>
explor ing</w>
equ ation</w>
dis order</w>
consum ers</w>
commit ment</w>
clin ic</w>
cle ver</w>
clas ses</w>
centr ale</w>
ca ble</w>
bi om
bi ke</w>
ac ces
ab led</w>
7 0s</w>
6 0s</w>
19 th</w>
1 2
tr end</w>
ti ll</w>
su rely</w>
spe ct
sc ared</w>
r and
puzz le</w>
p en</w>
oly mp
obe sity</w>
nit ure</w>
n if
n an
meas uring</w>
me ss</w>
li mit
king dom</w>
j ac
inter view</w>
infin ite</w>
hi ll</w>
geni us</w>
fur niture</w>
fr ance</w>
distribu ted</w>
dist in
dis orders</w>
di v
di al
co ok</w>
ch ose</w>
certain ty</w>
automa tically</w>
allo wing</w>
4 0
z oom</w>
whi st
wer ing</w>
w03 0
v it
ug anda</w>
tom s</w>
t ops</w>
t all</w>
symp toms</w>
spir ing</w>
sch ade</w>
sc ore</w>
re a
qu anti
pregn ant</w>
power ed</w>
pi le</w>
p e</w>
ori ties</w>
optimi stic</w>
op posed</w>
mechan ism</w>
mar ch</w>
jo ined</w>
j er
is ted</w>
in su
in spiring</w>
imp le
ici de</w>
gro ws</w>
fac ial</w>
extin ct</w>
ex isted</w>
estab li
em bed
embed ded</w>
economi st</w>
e ar</w>
dra matically</w>
cle an
cl ay</w>
christ mas</w>
br on
awe some</w>
arc tic</w>
ag ency</w>
0 9</w>
ves sel
vessel s</w>
tric ks</w>
tr i</w>
te e</w>
state ment</w>
sp or
rus si
ri sing</w>
reco very</w>
re move</w>
r ors</w>
provi ding</w>
produc tivity</w>
po wers</w>
physici st</w>
per su
pe ter</w>
organ ism</w>
no where</w>
mon key</w>
mi gr
inter active</w>
hun ger</w>
her self</w>
happ ier</w>
fal se</w>
divi ded</w>
de cre
chocol ate</w>
car ried</w>
bl in
au tism</w>
ase r</w>
argu ments</w>
ad am</w>
ac ted</w>
4 8</w>
4 7</w>
we ek
u min
t our</w>
t ate</w>
surroun ded</w>
stand ards</w>
si mul
scr at
s now</w>
rom an
roman tic</w>
ri es</w>
rela tion</w>
proces sing</w>
po o
poo rest</w>
p ure</w>
p ost</w>
or bit</w>
microscop e</w>
ment ally</w>
men tation</w>
ly wood</w>
loo p</w>
lau gh</w>
ju dge</w>
jec tive</w>
it ting</w>
incre ases</w>
in f
ide al</w>
i te
har ve
graph ics</w>
ge ous</w>
fri es
fac ed</w>
f an</w>
econom ies</w>
dri j
do ors</w>
dir ty</w>
depen ding</w>
con go</w>
communi cations</w>
bu st</w>
brea the</w>
be drij
ani a</w>
an gi
al ph
ab sor
8 3</w>
wh al
whal es</w>
trans late</w>
tex as</w>
syn thetic</w>
swe den</w>
struc k</w>
st ations</w>
sil ence</w>
sev ere</w>
se r</w>
sa mples</w>
s mi
s and
re ment</w>
r ice</w>
psycho logical</w>
pla ys</w>
pain ful</w>
out comes</w>
osi tion</w>
orig ami</w>
n ity</w>
me et
meet ings</w>
ll o</w>
life style</w>
le tting</w>
l ler</w>
inten se</w>
incenti ves</w>
imm une</w>
i ron
he llo</w>
h eight</w>
gr ass</w>
fr ank</w>
ene my</w>
divi de</w>
d h</w>
con veni
can di
as ide</w>
appreci ate</w>
affor d
a k
y ra
yra mi
wan ting</w>
vir tually</w>
ver bl
verbl ad</w>
u. s</w>
tri g
th al</w>
tele phone</w>
st ingly</w>
so ft</w>
so -
so- called</w>
smo ke</w>
sli des</w>
she ep</w>
se cure</w>
sav ings</w>
s na
resol ution</w>
rela tions</w>
re member
ra p</w>
proper ly</w>
partic le</w>
p yrami
main ly</w>
la verblad</w>
k laverblad</w>
journ alist</w>
isla mic</w>
inv ent
intere stingly</w>
inspi re</w>
ig n
i op
habit at</w>
gu st</w>
gen der</w>
fro zen</w>
f are</w>
eth iop
enter ed</w>
ed it
dynam ics</w>
disappe ared</w>
destro yed</w>
der ek</w>
den sity</w>
cor n</w>
com e
clu b</w>
chi p</w>
ch t</w>
butt on</w>
bar re
ali sts</w>
agre ed</w>
after wards</w>
a do
200 9</w>
wh at
w are</w>
vulner ability</w>
ti ous</w>
t asks</w>
spir itual</w>
si vely</w>
si de
se ssion</w>
rhy th
pu shing</w>
preci sely</w>
phi li
par ent</w>
p ort
or ange</w>
off ers</w>
off ered</w>
n ame
musc les</w>
mi ser
log ically</w>
ll y
la tin</w>
kore a</w>
in struc
il legal</w>
hi de</w>
hea ven</w>
gran ted</w>
ge l
func tional</w>
fri ghten
flo ating</w>
ex tent</w>
equ ally</w>
dr inking</w>
do zen</w>
dev ast
d am</w>
circu it</w>
c up</w>
bri ef</w>
bi ble</w>
auth enti
att ached</w>
assu me</w>
adverti sing</w>
1 0
y i
wi lli
wh ale</w>
wa ard</w>
tr uck</w>
toi let</w>
ti e</w>
tane ously</w>
t ar</w>
stric t</w>
spect ac
sho oting</w>
rw anda</w>
rom os
ro cks</w>
re t
r ad
psy chi
psychi at
presen ted</w>
pres cri
practi ces</w>
pl enty</w>
phr ase</w>
photograph y</w>
phi n</w>
ob stac
n ai
motiv ation</w>
mb ing</w>
l ou
intui tive</w>
illu sion</w>
i sed</w>
hou se
har dly</w>
gra b</w>
gle s</w>
foot age</w>
fe ature</w>
exhibi tion</w>
en e</w>
disappe ar</w>
des k</w>
coun cil</w>
contro ver
co ck
ch romos
ballo on</w>
back wards</w>
attac ks</w>
appli cation</w>
appe ars</w>
an gry</w>
3 6</w>
200 4</w>
. c.</w>
x- ray</w>
w l</w>
trage dy</w>
thro wn</w>
ta g</w>
t wi
symbo l</w>
suff er</w>
sti mu
spo ken</w>
shoul der</w>
she et</w>
ref lect</w>
reduc tion</w>
provi ded</w>
prob ability</w>
pre fer</w>
popu lations</w>
pl ain</w>
pe st</w>
over all</w>
od d</w>
musli ms</w>
multi p
mr i</w>
main tain</w>
m c
lo cked</w>
li ft</w>
ju li
he t</w>
govern ance</w>
f loo
en h
earthqua ke</w>
dra wn</w>
di oxide</w>
den se</w>
de ce
d un
curi osity</w>
contro lling</w>
cha os</w>
ch ron
ch art</w>
brea thing</w>
brea ks</w>
be ll</w>
be a
b f</w>
appe ared</w>
agen da</w>
4 ,000</w>
whe el</w>
wel come</w>
vo ted</w>
tox ic</w>
tol er
to wer</w>
ti an</w>
ta x</w>
succe ed</w>
stan ford</w>
sp reading</w>
si ties</w>
si lic
silic on</w>
sc ary</w>
robo tic</w>
represen ted</w>
re aching</w>
provi des</w>
prototyp e</w>
prop or
privi le
privile ge</w>
paralle l</w>
on ic</w>
ol dest</w>
off icial</w>
lin ks</w>
leg acy</w>
ir on</w>
fe der
feder al</w>
fascin ated</w>
et ary</w>
eleph ant</w>
dist ant</w>
diabe tes</w>
contr ast</w>
con tains</w>
con sequence</w>
beha ve</w>
be er</w>
b low</w>
astron om
adap t</w>
y right</w>
whe el
un its</w>
u ary</w>
transpar ency</w>
trans forma
the less</w>
tal ent</w>
st y</w>
sp ots</w>
se as</w>
rep air</w>
rand om
ph arm
person ality</w>
pass eng
pal est
ox ford</w>
over come</w>
neur on</w>
ne ts</w>
man h
manh att
manhatt an</w>
m our</w>
lim its</w>
licen se</w>
l ens</w>
kne e</w>
jan uary</w>
innov ations</w>
imag ined</w>
hig gs</w>
grand father</w>
gol f</w>
glob alization</w>
gh ana</w>
g ates</w>
fortun e</w>
fli p</w>
fif th</w>
emer gency</w>
e .
du st</w>
destro y</w>
dat ab
d ay
d ates</w>
custom ers</w>
cop yright</w>
construc t</w>
com mon
capit alism</w>
calcul ate</w>
bicy cle</w>
apart ment</w>
anti cip
ad ding</w>
y ours</w>
wi de
w1 2
vi et</w>
un believ
ug ly</w>
ti ed</w>
su icide</w>
so viet</w>
sk u
secon dly</w>
seas on</w>
se ats</w>
sc ar
ridic ulous</w>
recogni zed</w>
re pu
repu tation</w>
photograph er</w>
op ens</w>
o ft</w>
mis sed</w>
min ing</w>
min d
micros oft</w>
mem ories</w>
mar tin</w>
it ory</w>
industri es</w>
inclu des</w>
in al</w>
hy per
hum or</w>
ho op</w>
histor ical</w>
he arts</w>
gu il
ge ome
fu sion</w>
flo wer</w>
fi xed</w>
fi ber</w>
fer ti
far mer</w>
extr act</w>
ex am
elec tro
descri bes</w>
den cy</w>
demon strate</w>
cour age</w>
confli cts</w>
cha mp
bu t
beli efs</w>
b i</w>
automo bi
as pects</w>
appar ently</w>
acces sible</w>
4 4</w>
zer o-
z is</w>
y ard</w>
volunte ers</w>
transp ort</w>
ta str
t ank</w>
sti cks</w>
sion ally</w>
si x
sear ching</w>
rai sing</w>
pos es</w>
po et</w>
pas sing</w>
oun ded</w>
off ic
mor ality</w>
lec ture</w>
lan ded</w>
l o</w>
l ating</w>
ke y
k a</w>
invol ves</w>
in ations</w>
gu ide</w>
ga ther</w>
fo ods</w>
er adi
en i
dro ve</w>
dig nity</w>
di g</w>
dar kness</w>
dar ies</w>
cr ying</w>
con stitu
chimpanze es</w>
che aper</w>
ch ase</w>
ca tastr
ca me
c ry</w>
boun daries</w>
be e</w>
au lt</w>
as pi
al y</w>
achiev ed</w>
a bun
6 5</w>
200 3</w>
waar borg</w>
v ital</w>
u e
tri bes</w>
trave led</w>
tr ends</w>
tion ally</w>
ti les</w>
thir ds</w>
the ore
tex t
tal s</w>
t ack
sur faces</w>
su per</w>
spea kers</w>
sho ck</w>
se where</w>
ru b
recogni tion</w>
re moved</w>
re ads</w>
pi one
p un
p an</w>
orchestr a</w>
o gen
noor d
noord hol
noordhol landsche</w>
na vi
musici ans</w>
mp s</w>
monit or</w>
mam mals</w>
m ol
lo red</w>
le ven</w>
j ail</w>
it u
integra ted</w>
hon est
har m</w>
ha gel
g ain
fin ds</w>
faci lity</w>
expla ining</w>
elec tions</w>
ele v
el sewhere</w>
discu s
d us</w>
cr ac
cor rec
contribu te</w>
contin ues</w>
collec ting</w>
che st</w>
c o</w>
bor ders</w>
bo ld</w>
bl ue
au d
astoni shing</w>
as sign
acti v
acci dents</w>
9 5</w>
6 4</w>
18 16</w>
- up</w>
z z</w>
x ing</w>
wat er
ver ies</w>
tr ag
to -
ste ms</w>
st or</w>
spea ker</w>
shir t</w>
shap ed</w>
se t
se ed</w>
satur n</w>
sand w
ru sh</w>
reduc ed</w>
qu alities</w>
pos ter</w>
pi g</w>
perman ent</w>
os s</w>
ori gin</w>
neur al</w>
neighb or</w>
la yers</w>
ingredi ents</w>
ign ore</w>
han g</w>
gre e
gr ab
g st</w>
exc use</w>
evol ve</w>
ethiop ia</w>
es cape</w>
eng aging</w>
electron ics</w>
ecosy stems</w>
e leg
disco veries</w>
diagra m</w>
der ing</w>
depres sed</w>
dedi cated</w>
cu te</w>
crimin als</w>
consu me</w>
colleag ue</w>
co res</w>
co ca
cl ing</w>
c enti
be n</w>
be et
base ball</w>
atlan tic</w>
assemb ly</w>
architec tural</w>
ar ies</w>
ange les</w>
amon gst</w>
ali en</w>
a thei
5 8</w>
2 0,000</w>
y n
wit ness</w>
w0 2
w ol
vie t
vag ina</w>
va a</w>
v vaa</w>
tra je
traje ct
tic a</w>
sto res</w>
spectac ular</w>
small po
smallpo x</w>
sil ent</w>
sha dow</w>
sh ment</w>
separ ated</w>
scrat ch</w>
s quar
recei ve</w>
real m</w>
re turned</w>
re plac
r ats</w>
pyrami d</w>
pu lling</w>
produc es</w>
pol ar</w>
pl as
pi lot</w>
pa th
out put</w>
os en</w>
nur ses</w>
noord- nederland</w>
na ked</w>
lop e</w>
life tri</w>
li kes</w>
l aser</w>
j ack</w>
initi al</w>
impro vement</w>
hi re</w>
gu i
foot print</w>
fir m</w>
fil m
exten ded</w>
encoun ter</w>
en o</w>
emer ged</w>
edu cated</w>
dial o
commit ted</w>
colon y</w>
co operation</w>
ch osen</w>
ca ts</w>
ca sh</w>
be lon
al ed</w>
air port</w>
air craft</w>
afford able</w>
achi e
9 0s</w>
8 1</w>
200 6</w>
z hei
zhei mer</w>
wheel chair</w>
ve mber</w>
under lying</w>
un likely</w>
terr or
terror ism</w>
tal i
spor ts</w>
sk y
resili ence</w>
refu ge
re cip
re act</w>
pro of</w>
predic tions</w>
predic table</w>
pre ce
poli cies</w>
po ol</w>
p ad</w>
open ness</w>
o oh</w>
mor ous</w>
ll ing
li mb</w>
inv ite</w>
inten ded</w>
ho ward</w>
han ging</w>
g y
focu sing</w>
fish er
fil ter</w>
fer ences</w>
excell ent</w>
ef ly</w>
contro ls</w>
conclu de</w>
concer n</w>
capit a</w>
cam bridge</w>
bri efly</w>
bi as</w>
b al</w>
as sum
arti stic</w>
al zheimer</w>
ad mi
200 1</w>
2 50</w>
z u
w17 88</w>
vir tu
verzeker d</w>
univer sities</w>
under ground</w>
treat ments</w>
th ick</w>
sy l
su bur
strategi es</w>
stran gers</w>
research er</w>
res cue</w>
r arely</w>
publi c
prop er</w>
pl ying</w>
p il
p ace</w>
ori da</w>
observ ation</w>
neurosci ence</w>
ne ls</w>
mi lli
mi llen
law yers</w>
je wish</w>
j une</w>
it er
il s</w>
guar an
glob ally</w>
gan g</w>
fron tal</w>
for ts</w>
fl orida</w>
fer red</w>
fe ars</w>
fav or</w>
fa bul
fabul ous</w>
f ed</w>
es the
eng agement</w>
emer ge</w>
ef forts</w>
dri ll</w>
diver se</w>
dinos au
dinosau r</w>
determin ed</w>
dep lo
cu lar</w>
construc ted</w>
cli ents</w>
b ars</w>
announ ced</w>
ali ze</w>
8 0s</w>
3 8</w>
wor ker</w>
vo ca
vic t
un s</w>
uc ks</w>
tr ucks</w>
ti red</w>
t ching</w>
surpri sing
surprising ly</w>
ste ven</w>
spac e
sp ort</w>
sen ior</w>
see ds</w>
sch ol
sal es</w>
s r
rou te</w>
repor ts</w>
re view</w>
re comm
ra ti
pu mp</w>
prote cting</w>
photograph ed</w>
pal m</w>
ou ter</w>
origin ally</w>
organi ze</w>
oper a</w>
on y
occu p
nutri tion</w>
mi es</w>
li mit</w>
le te</w>
k ic
journ al</w>
ir ani
inter actions</w>
inter acting</w>
instruc tions</w>
ini an</w>
in ches</w>
i zed</w>
i e</w>
hol lywood</w>
hard ware</w>
geo graphic</w>
frequ ency</w>
forma l</w>
foot ball</w>
ex posed</w>
eth ical</w>
e pi
discu ss</w>
deb t</w>
de mic</w>
de ar</w>
dau ghters</w>
cr ash
contr act</w>
clas sical</w>
ch y</w>
b o</w>
ar chy</w>
an ony
ama zon</w>
agricul tural</w>
3 7</w>
3 0s</w>
ver tical</w>
vari ation</w>
tun a</w>
tu s</w>
ter ies</w>
teen agers</w>
te ful</w>
sub tle</w>
sub -
sp a
some day</w>
smo oth</w>
sle eping</w>
sku ll</w>
ske p
see k</w>
sac red</w>
ric her</w>
ri f
remin ded</w>
re ef</w>
r us</w>
pre p
prep are</w>
pe ace
par ties</w>
p lot</w>
p ink</w>
organi zing</w>
or ing</w>
opti mism</w>
oper ations</w>
on na</w>
ol ing</w>
nur se</w>
noor d</w>
n ative</w>
meth ods</w>
m all</w>
liber al</w>
l oud</w>
k b</w>
in jury</w>
hon ey</w>
histor ic</w>
gu t</w>
gather ing</w>
g onna</w>
fru it</w>
f ab
fab ric</w>
di an</w>
cri tici
con stra
cli mbing</w>
cl ar
cir cles</w>
ci de</w>
chi ef</w>
che ese</w>
c tions</w>
bo om</w>
b arely</w>
b ags</w>
attr act</w>
ar ab
appe ar
ander zorg</w>
2 .
vac u
vacu um</w>
up set</w>
tum ors</w>
te s
t ants</w>
sugge sting</w>
sub way</w>
st ages</w>
sp inal</w>
sh ine</w>
sens ory</w>
regre t</w>
re minds</w>
r ings</w>
prom ote</w>
pres enting</w>
predic ted</w>
poin ting</w>
pic king</w>
pharm ace
pain ted</w>
or d</w>
mit ted</w>
mirac le</w>
m m</w>
m ice</w>
l ting</w>
l aid</w>
is tics</w>
in y</w>
i um</w>
hun gry</w>
fro g</w>
flo ws</w>
fig uring</w>
fai ling</w>
ex pos
ess ence</w>
depen dent</w>
d der</w>
cros sing</w>
cr ops</w>
comp la
character istics</w>
carto on</w>
cap tured</w>
bu ried</w>
bron x</w>
be l</w>
auton om
astero id</w>
artic les</w>
an ger</w>
am ent</w>
al ty</w>
a c</w>
- scale</w>
yo r</w>
writ ers</w>
what so
whatso ever</w>
weap on</w>
w18 06</w>
w17 27</w>
vi si
visi ted</w>
vi n</w>
un certainty</w>
ul ty</w>
transpar ent</w>
trans plant</w>
tradi tions</w>
tr au
tr ash</w>
ton y</w>
ta p</w>
t ches</w>
sy mb
symb ols</w>
suspe ct</w>
st airs</w>
sh r
sh it</w>
sens ors</w>
s lu
repe at</w>
reduc ing</w>
re build</w>
pur sue</w>
pu shed</w>
phi lan
philan thr
occa sionally</w>
me mes</w>
ma yor</w>
m un
lly fish</w>
law yer</w>
la ys</w>
l ine
je llyfish</w>
j un
it aly</w>
intri gu
initi ative</w>
imag ing</w>
i ses</w>
hen ry</w>
h art</w>
gro ene</w>
glob al</w>
gl ad</w>
gar bage</w>
g ore</w>
fun ded</w>
for gotten</w>
fa thers</w>
f iction</w>
expec tations</w>
entreprene ur
ed ges</w>
e ye
dom ain</w>
dol phin</w>
docu ment</w>
dep th</w>
d ress</w>
d ding</w>
cu b
cont ain</w>
con temporary</w>
cho os
cep tions</w>
catastr op
bio logists</w>
ben e
be gun</w>
arri ve</w>
ar do</w>
anti bio
ani el</w>
analy ze</w>
algorith m</w>
ai led</w>
agre ement</w>
adop ted</w>
admini stration</w>
ac u
ac compli
abu se</w>
z ens</w>
w inning</w>
vir al</w>
un cle</w>
trans fer</w>
to ber</w>
ti t
the ories</w>
te ars</w>
syn dr
syndr ome</w>
success fully</w>
sub stance</w>
strug gling</w>
st ops</w>
ske let
ske le
skele ton</w>
simu lation</w>
si sters</w>
si lly</w>
shel ter</w>
shel f</w>
she ll</w>
scen ari
scal es</w>
sal t</w>
s cores</w>
s ad
revol u
reven ue</w>
regi me</w>
re form</w>
prac tic
pleas ant</w>
pi gs</w>
phan tom</w>
percei ve</w>
paraly zed</w>
oc tober</w>
o logy</w>
ner ve</w>
ne w</w>
m ics</w>
le m
le e</w>
ki lls</w>
i on</w>
harve st</w>
glas ses</w>
gla mour</w>
g ent</w>
foun ded</w>
fol ding</w>
flexi ble</w>
explosi on</w>
expe ct
expect ancy</w>
exp anding</w>
es tic</w>
ear n</w>
e ds</w>
domin ant</w>
dom estic</w>
do zens</w>
di lem
cor respon
con trac
collabor ative</w>
ch airs</w>
car ing</w>
b and
audi o</w>
at tribu
al ex
19 60</w>
you th</w>
wi der</w>
w right</w>
vi o
v z</w>
tur key</w>
traject ory</w>
trac ks</w>
ti p</w>
thre w</w>
surge ons</w>
st ure</w>
sou p</w>
sla very</w>
sh or
sh opping</w>
sex u
ser ved</w>
s its</w>
ri o</w>
restaur ants</w>
res on
repor ted</w>
reali zing</w>
prof its</w>
por tion</w>
par tly</w>
pa tho
ow ner</w>
open- source</w>
on vz</w>
n e</w>
mon u
men zis</w>
lo ves</w>
lo aded</w>
li ve
le verage</w>
kil ler</w>
ji m</w>
intui tion</w>
insi ghts</w>
inev itable</w>
imag ery</w>
hom o</w>
h ost</w>
gla morous</w>
gar age</w>
g li
fi lling</w>
ex ternal</w>
ex tend</w>
emp has
dis ap
diagnos ed</w>
di ving</w>
deli vered</w>
de sh</w>
compu tation</w>
christi an</w>
ch am
cap ability</w>
ca ve</w>
blo gs</w>
as m</w>
ap p</w>
agen cies</w>
af fects</w>
adv ance</w>
accu mu
accep ted</w>
z ar
zar re</w>
unbeliev able</w>
tri be</w>
tr in
ti se</w>
than e</w>
ten sion</w>
t ag
sto red</w>
smar ter</w>
sm ith</w>
sh ri
shri mp</w>
robo tics</w>
ro of
res sing</w>
repli cate</w>
propos ed</w>
pit ch</w>
per mission</w>
pe er</w>
pan els</w>
ne ander
mo ore</w>
mo de</w>
met abo
mechan isms</w>
meas ures</w>
me thane</w>
marke t
ma xi
lif es
le thal</w>
k is
je sus</w>
inse ct</w>
initi ally</w>
identifi ed</w>
home work</w>
her o
heli cop
head ed</w>
gras s
gra m</w>
goo d
for mul
fla g</w>
f at
exper tise</w>
en z
en ted</w>
dis ru
dimen sion</w>
dete ction</w>
descri ption</w>
curr ency</w>
cor d</w>
bi zarre</w>
b by</w>
b ats</w>
at titude</w>
ar k
angi ogen
an ish</w>
air planes</w>
ag g
ad ing</w>
a to</w>
w17 89</w>
vir g
trans lation</w>
train s</w>
to ci
toci n</w>
tex ts</w>
terr or</w>
tali ban</w>
sugge sted</w>
sub- sahar
sub-sahar an</w>
stro ke</w>
st aying</w>
sp in</w>
sh ore</w>
sch iz
schiz oph
schizoph ren
san e</w>
sal e</w>
russi an</w>
reli able</w>
real -
re insurance</w>
r1 40
r140 25
program ming</w>
preci se</w>
po ckets</w>
ph .
oxy tocin</w>
ot ton</w>
op es</w>
od ds</w>
mon ade</w>
mer ely</w>
ment ing</w>
ma ster
luc k</w>
lea ther</w>
le monade</w>
la p</w>
l ot
jo e</w>
investi g
immedi ate</w>
ig nor
ic on</w>
h013 4</w>
h itting</w>
grand children</w>
ght -
gene tics</w>
fu r</w>
fin ed</w>
fe bru
febru ary</w>
expon ential</w>
expan sion</w>
es sion</w>
entreprene ur</w>
enter ing</w>
en sure</w>
eg yp
e u
e ded</w>
don atus</w>
dialo gue</w>
devi l</w>
dent ally</w>
de grad
coun ty</w>
continu ing</w>
consist ent</w>
consci ously</w>
comp rom
civili zations</w>
c otton</w>
bru sh</w>
bl ack
bio diversity</w>
be ars</w>
asi ve</w>
ar ro
ar den</w>
ans wered</w>
ali an</w>
9 2</w>
198 0s</w>
wo o
whe at</w>
w ad
wad ays</w>
vege tables</w>
v or</w>
u bi
ubi quit
ubiquit ous</w>
trag ic</w>
tr op
to y</w>
tis su
tissu es</w>
ti m</w>
terrori sts</w>
tan z
t sun
tsun ami</w>
sion als</w>
signific antly</w>
sent ences</w>
reve al</w>
r ose</w>
profes sionals</w>
pri mi
primi tive</w>
pri mar
primar ily</w>
preser ve</w>
ph os
phos ph
phosph or
phosphor us</w>
pan demic</w>
ordin arily</w>
o ven</w>
no wadays</w>
me al</w>
mani fe
mam mo
m ingly</w>
lin col
lincol n</w>
key board</w>
interpre tation</w>
indi ca
impro ving</w>
i po
hypo thesis</w>
high way</w>
gradu ally</w>
got ta</w>
g uns</w>
fr action</w>
fr ac
flu id</w>
faci lities</w>
experi mental</w>
esti ma
elec ted</w>
ele mentary</w>
el der
elder ly</w>
e. o
disco vering</w>
di ve</w>
di strict</w>
conne cts</w>
con fron
compas sionate</w>
chan nels</w>
ca s
ca ke</w>
c ric
break fast</w>
bot tles</w>
be sides</w>
ban ks</w>
bal ls</w>
al li
ad vo
zz a</w>
zero- sum</w>
wer king</w>
wei gh
wat ts</w>
wat ers</w>
wash ing</w>
war ning</w>
w196 3</w>
vie wed</w>
verzekering maatschappij</w>
um c</w>
trans lated</w>
titu des</w>
thre sho
thresho ld</w>
t ability</w>
syn the
sti mul
sta tic</w>
se l</w>
scri p
sam en
samen werking</w>
s que
s ar
ro bust</w>
ricul um</w>
remember ed</w>
re store</w>
re ments</w>
re cep
ra ys</w>
r on</w>
r b</w>
pre tend</w>
plas tics</w>
pi zza</w>
phenomen a</w>
passeng er</w>
p in
om ic</w>
o v
nar row</w>
mush room</w>
mi xed</w>
m apping</w>
li on</w>
le sc
le -
l 0
l0 2
john son</w>
je cted</w>
j on
inve sting</w>
inv enting</w>
inter ior</w>
in stantly</w>
imp acts</w>
im men
ici an</w>
i ties</w>
i ed</w>
ho ods</w>
hi p</w>
hab it</w>
h00 88</w>
h at
glas verzekering</w>
geome try</w>
frag ile</w>
en danger
endanger ed</w>
empi re</w>
eco logical</w>
e x</w>
dic tionary</w>
deser ve</w>
dece mber</w>
dam n</w>
cur riculum</w>
cru ci
cruci al</w>
crimin al</w>
cos mo
concer t</w>
come dy</w>
co vering</w>
char ges</w>
cap tive</w>
bur gh</w>
buil ds</w>
bub bles</w>
bo b</w>
bla me</w>
be long</w>
ba th
b end</w>
at omic</w>
ar med</w>
ado lesc
7 6</w>
2 6</w>
199 0s</w>
197 0s</w>
1 5
ver s
to ys</w>
ten dency</w>
suppor ted</w>
stor m</w>
st ability</w>
sig nature</w>
sh ops</w>
sh an
shan gh
shangh ai</w>
sci ences</w>
sac rif
ro lling</w>
ri vers</w>
re efs</w>
puzz les</w>
pu l
pros tate</w>
prof oun
profoun dly</w>
proce d
proced ure</w>
prison ers</w>
pengu in</w>
para do
par li
parli ament</w>
ow ned</w>
opa mine</w>
on stage</w>
off ici
o cide</w>
nutri ents</w>
ne at</w>
my th</w>
mos quit
me tr
magi cal</w>
ma il</w>
li ze</w>
li hood</w>
le ver</w>
le on
ja zz</w>
isol ated</w>
invent or</w>
inst in
imp ression</w>
im mer
i ted</w>
ho ly</w>
gre ek</w>
gor geous</w>
gh ted</w>
gentle man</w>
gene tically</w>
gen ocide</w>
g aps</w>
fri en
frien dly</w>
flo wing</w>
fi bers</w>
extin ction</w>
exten sion</w>
expe cting</w>
ex trac
entr opy</w>
eg g</w>
ea ten</w>
docu ments</w>
discipl ine</w>
di str
del hi</w>
da wn</w>
d opamine</w>
cos mic</w>
conduc ted</w>
comple ted</w>
com ment</w>
com ic</w>
co ws</w>
co ke</w>
clo thing</w>
cei ling</w>
categ ory</w>
car ol
bro w
bri an</w>
bo ards</w>
audi ences</w>
argu ing</w>
ar ray</w>
an gles</w>
an der</w>
ag ent</w>
a vi
8 00</w>
wil d
wild life</w>
w03 44</w>
verzekerings bedrij
verzekeringsbedrij f</w>
ven h
venh age</w>
ve ter
ul p</w>
tic ket</w>
ti ze</w>
terri bly</w>
tack le</w>
sum mit</w>
stra tes</w>
ster dam</w>
ste ph
steph en</w>
sio en
sioen -</w>
simul taneously</w>
sh ulp</w>
sh ots</w>
sau ce</w>
sandw ich</w>
sam en</w>
s- gra
s-gra venhage</w>
s or</w>
ri dge</w>
res pe
rema ined</w>
ref er</w>
recht shulp</w>
re main
remain ing</w>
re is
reis -</w>
re cover</w>
rap id</w>
r out
r ope</w>
prin ts</w>
preci ous</w>
posi tions</w>
portra it</w>
plu g</w>
pen sioen-</w>
particip ants</w>
or an</w>
occur s</w>
ob jective</w>
o ost</w>
nee d
n gos</w>
musici an</w>
mp tions</w>
mot ors</w>
mathema ticians</w>
line ar</w>
k oran</w>
jump ed</w>
ji had</w>
inno cent</w>
infec tion</w>
ine quality</w>
in formed</w>
hun t</w>
hori zon</w>
home less</w>
ho li
gro ot</w>
fru strated</w>
far ming</w>
es is</w>
el and</w>
dun g</w>
dri vers</w>
dist ur
demo graphic</w>
deli very</w>
datab ase</w>
d .</w>
cy ber
cr ack</w>
confi dent</w>
compe lling</w>
compar ison</w>
com mo
clos ing</w>
can opy</w>
can cers</w>
bro ad</w>
bas is</w>
b ye</w>
b it
attrac tive</w>
assu mptions</w>
assu mption</w>
arc tica</w>
appear ance</w>
ant arctica</w>
analo gy</w>
an e</w>
ama te
am sterdam</w>
al d</w>
ag en</w>
acade my</w>
3 0,000</w>
201 1</w>
z o
yn man</w>
wo ods</w>
whe els</w>
un comfortable</w>
suppor ting</w>
stor age</w>
ste pped</w>
st ones</w>
spi ll</w>
sp anish</w>
six th</w>
simi larly</w>
sho cking</w>
shar p</w>
ser ving</w>
ri l</w>
represen tation</w>
represen ta
rati o</w>
ra ham</w>
qu it</w>
propor tion</w>
pre vention</w>
philosoph er</w>
oc curr
ner ves</w>
ne l
nel son</w>
myster ious</w>
mem ori
luc ki
lucki ly</w>
lea p</w>
le f
lef t-
laugh ing</w>
lab s</w>
jud gment</w>
inst ant</w>
ing en
help ful</w>
h ong</w>
gl ac
gather ed</w>
g ments</w>
g am
fun ds</w>
free ly</w>
fe ynman</w>
fas test</w>
f its</w>
ex clu
establi shed</w>
eli te</w>
eleph ants</w>
ed a</w>
det ailed</w>
dea f</w>
d ated</w>
conver t</w>
contr ary</w>
contin ents</w>
conserv ative</w>
col or
citiz en</w>
chan ces</w>
ce o</w>
camp us</w>
bur den</w>
bio logist</w>
bi al</w>
b les
b at</w>
ar ran
appro aching</w>
ap ril</w>
ab raham</w>
7 00</w>
wo ke</w>
win ds</w>
wi d
weal thy</w>
w197 3</w>
w19 42</w>
w19 40</w>
w18 75</w>
w16 86</w>
w00 60</w>
w0 19
w019 2</w>
ver sions</w>
tu bes</w>
tra its</w>
thr opo
ter ho
terho ek</w>
teen age</w>
tar gets</w>
swi ss</w>
sust ain</w>
sum mar
su ck</w>
stron g
strong ly</w>
stri ke</w>
ster e
st ine</w>
sp ain</w>
shif ting</w>
she ets</w>
s wa
s n
rhyth m</w>
r ent</w>
qui to</w>
pur suit</w>
pro file</w>
pri or</w>
pi e</w>
pan el</w>
pa use</w>
p m</w>
off ices</w>
off ering</w>
ob li
nu al</w>
ni ght
natur a</w>
natur a
natura -</w>
mos quito</w>
m acy</w>
m .</w>
liter acy</w>
lap tops</w>
ke vin</w>
k ick</w>
j o</w>
iz a</w>
infec tions</w>
indepen dence</w>
inclu ded</w>
in trin
impro ved</w>
imag in
ici ous</w>
health ier</w>
head lines</w>
han ded</w>
ha wai
gras p</w>
gra teful</w>
gener ous</w>
gall ery</w>
g as
fun g
fi res</w>
f ought</w>
experi encing</w>
ex ception</w>
eng ines</w>
electr on</w>
e go</w>
depen dence</w>
demon stration</w>
deman ds</w>
cy cles</w>
conveni ent</w>
confu sed</w>
com ics</w>
clos est</w>
chi ps</w>
ce ment</w>
bur cht</w>
bu rea
bom bs</w>
bl ank</w>
believ es</w>
assign ment</w>
asse mble</w>
an thropo
an nual</w>
an drew</w>
an ced</w>
an as</w>
ad venture</w>
ad dic
activi st</w>
ach terhoek</w>
a tic</w>
9 7</w>
6 ,000</w>
5 0s</w>
20 50</w>
. m.</w>
z o</w>
yi eld</w>
wor thy</w>
woo den</w>
wide ly</w>
was h</w>
ur ge</w>
un happy</w>
un able</w>
tri c</w>
trans forming</w>
to es</w>
than k
telesc opes</w>
ted talk</w>
techn ically</w>
te en</w>
tal e</w>
supp lies</w>
ste al</w>
stati sti
soci ally</w>
smal lest</w>
se y</w>
s ca
reli ef</w>
recy cling</w>
re public</w>
rap ed</w>
r s</w>
pros thetic</w>
pros per
priv acy</w>
prin ted</w>
pri de</w>
por ts</w>
pol lu
pi p
physici sts</w>
ph er
perform ed</w>
percei ved</w>
pe ers</w>
pat ents</w>
particip ation</w>
part nership</w>
p uni
ow nership</w>
nee dle</w>
name ly</w>
n ific
nific ent</w>
mi a</w>
man dela</w>
mag nificent</w>
ly n</w>
lo c
limit ations</w>
jos hu
joshu a</w>
je ff</w>
inv ested</w>
inter vention</w>
ho ok</w>
hi red</w>
har mony</w>
gr as</w>
go ds</w>
gla desh</w>
gl ue</w>
gener ating</w>
ge ar</w>
g ur
g are
fron ti
fri day</w>
found ations</w>
formul a</w>
fi n</w>
f esti
expres sions</w>
expe dition</w>
enter pri
en cies</w>
eco logy</w>
du tch</w>
down town</w>
dis a
coun ting</w>
conduc tor</w>
comm and</w>
co lored</w>
ci gare
brand -
bi osphere</w>
bene ath</w>
barri er</w>
ban gladesh</w>
b ol
autonom ous</w>
auth orities</w>
at ar</w>
arab ic</w>
ar k</w>
anony mous</w>
5 2</w>
1 20</w>
z ones</w>
w16 80</w>
w15 89</w>
w10 90</w>
w01 32</w>
viet n
vietn am</w>
ur ation</w>
two- thirds</w>
tro ops</w>
tre as
tor ture</w>
thu si
threat ened</w>
thre ats</w>
ther mal</w>
th us</w>
terr ain</w>
ten ds</w>
symp hon
surroun ding</w>
sun day</w>
str eng
st .</w>
soldi er</w>
sil ver</w>
sche pen
schepen verzekering</w>
ri j
rij n</w>
ri ght-
reve als</w>
reser ves</w>
re stric
re r</w>
rad ically</w>
r at</w>
pur poses</w>
publi shing</w>
prop osition</w>
previ ously</w>
predat ors</w>
pos t-
physici an</w>
person alized</w>
pack age</w>
nu ts</w>
non profit</w>
newsp apers</w>
near by</w>
min es</w>
medic ines</w>
mathema tician</w>
lo west</w>
landsc apes</w>
l01 19</w>
k ins</w>
inve stors</w>
int on</w>
insu lin</w>
ing u
influ enced</w>
incenti ve</w>
imp ressive</w>
il ing</w>
i led</w>
hun ting</w>
hi er
h ans</w>
guaran tee</w>
grad es</w>
gain ed</w>
for got</w>
fal len</w>
f ancy</w>
extra ordinarily</w>
estima ted</w>
en thusi
en ables</w>
empo wered</w>
down load</w>
dist ingu
dest iny</w>
denti al</w>
defin ing</w>
d ressed</w>
d aniel</w>
controver si
compe te</w>
comm it</w>
cli ent</w>
cl inton</w>
circu its</w>
choos ing</w>
challeng ed</w>
ch asing</w>
car pet</w>
cap abilities</w>
bro a
bran ches</w>
be ating</w>
antibio tics</w>
anima tion</w>
ag ue</w>
achie vement</w>
a ward</w>
a er
8 5</w>
7 th</w>
6 7</w>
200 2</w>
y ourselves</w>
xi ety</w>
wor rying</w>
wor ms</w>
wi res</w>
wi p
visu alization</w>
virg ini
virgini a</w>
un prece
unprece den
unpreceden ted</w>
umin es
tun e</w>
tri x</w>
ton gue</w>
theore tical</w>
tex ting</w>
terri fying</w>
tanz ania</w>
t one</w>
suff ered</w>
str ands</w>
spea ks</w>
smi ling</w>
simp ler</w>
si n</w>
set i</w>
sen sation</w>
se al</w>
s ant
sant a</w>
ro c
respon ses</w>
remark ably</w>
re actor</w>
prop ose</w>
prin ter</w>
pi pe
ph ot
peop les</w>
pas sive</w>
ot a</w>
on going</w>
ol umines
obstac les</w>
ob serve</w>
o ted</w>
o red</w>
ne ck</w>
miser able</w>
mini mum</w>
min al</w>
ma ture</w>
ma trix</w>
lun gs</w>
ll ers</w>
list ened</w>
li ghten
lar ry</w>
labe l</w>
je t</w>
inter ven
imp lan
illu strate</w>
i r</w>
har b
harb or</w>
fol ds</w>
er rors</w>
encour aging</w>
en lighten
earli est</w>
dy s
dis abled</w>
dilem ma</w>
desp air</w>
deli ci
delici ous</w>
decre ase</w>
d ity</w>
cur ves</w>
cre w</w>
conv ic
connec tivity</w>
colon ies</w>
collap sed</w>
cho ir</w>
c led</w>
bu g</w>
bran ch</w>
bi olumines
b ond</w>
as y</w>
an xiety</w>
ama zed</w>
affec ting</w>
ab and
a than</w>
x ury</w>
wor e</w>
wel fare</w>
wei gh</w>
w190 8</w>
w19 43</w>
w19 21</w>
w10 27</w>
w1 25
w125 8</w>
w03 93</w>
volunte er</w>
v oting</w>
u de</w>
ti tan</w>
ti me
th west</w>
ta min
stre tch</w>
str ating</w>
story telling</w>
story te
squ are</w>
space craft</w>
slu ms</w>
short ly</w>
sho cked</w>
secre ts</w>
se ven
scen es</w>
s wee
res ses</w>
renew able</w>
re placed</w>
rain forest</w>
psycho logists</w>
psycho logist</w>
prote q</w>
plan etary</w>
par ks</w>
our ing</w>
oun d
ou ri
ou d
oud se</w>
offic er</w>
o vm</w>
nit ude</w>
ni c</w>
neighbor hoods</w>
narra tives</w>
mi se</w>
mi ke</w>
mechan ics</w>
market place</w>
mag nitude</w>
lu xury</w>
lo cations</w>
li ght
l01 31</w>
l g</w>
kid ney</w>
ju ly</w>
ju g
je ction</w>
jan e</w>
ja min</w>
j ones</w>
in sane</w>
in dus</w>
ic a</w>
hu h</w>
ho l</w>
histor ically</w>
har dest</w>
hal luc
h00 89</w>
h an</w>
grand parents</w>
gi f
g oudse</w>
fl ouri
fl ash</w>
ffici ent</w>
fail ures</w>
fact ories</w>
f ate</w>
eth nic</w>
equ ality</w>
emer gence</w>
em br
eleg ant</w>
electr ons</w>
edu cate</w>
dr opping</w>
dis ability</w>
di tional</w>
der i
de fe
cric ket</w>
cre ator</w>
con tamin
con front</w>
compe ting</w>
co vers</w>
co hol</w>
class rooms</w>
categ ories</w>
carto ons</w>
camp s</w>
cal ories</w>
ca p</w>
bur ned</w>
br is</w>
br and</w>
br a</w>
bl ue</w>
bi lity</w>
ben jamin</w>
automobi le</w>
at titudes</w>
appro aches</w>
alph a</w>
al titude</w>
al t</w>
al cohol</w>
ad vi
ad ditional</w>
ac id</w>
a ff
4 0,000</w>
200 ,000</w>
199 0</w>
. c</w>
y ment</w>
willi am</w>
we dding</w>
w ns</w>
ves sel</w>
u tical</w>
tri cal</w>
thro wing</w>
teach es</w>
te ment</w>
ta xes</w>
surger ies</w>
sur gi
surgi cal</w>
succe eded</w>
strai ght
straight forward</w>
str ings</w>
st ly</w>
st ack</w>
sque e
smo king</w>
sin k</w>
schizophren ia</w>
scan ning</w>
sc ans</w>
saf er</w>
s quid</w>
s ence</w>
reser ve</w>
recip e</w>
rec ession</w>
read ers</w>
r ough</w>
pro ven</w>
prepar ing</w>
pi ll</w>
pi ge
philanthr opy</w>
pharmace utical</w>
ph. d.</w>
peace ful</w>
over head</w>
orig ins</w>
or ate</w>
nif e</w>
new ton</w>
neu tr
ne ssed</w>
navi gate</w>
mobi lity</w>
mi mic</w>
me als</w>
main stream</w>
m t</w>
lot tery</w>
leon ardo</w>
le op
le i
le ban
k nife</w>
it alian</w>
it ably</w>
intrigu ing</w>
intervie wed</w>
inev itably</w>
imp ul
hu mi
hori zon
honest ly</w>
ho p</w>
heli um</w>
h at</w>
h abi
g ases</w>
follo ws</w>
exci tement</w>
equ ations</w>
enz y
ene mies</w>
ei gh
e state</w>
e er
e di
dra wings</w>
domin ated</w>
distin ct</w>
dis agree</w>
di c</w>
di ame
diame ter</w>
di al</w>
de ception</w>
de als</w>
correc tly</w>
corpor ations</w>
coo ki
contribu ted</w>
concentr ated</w>
compar ing</w>
cl ue</w>
civi c</w>
candi date</w>
c ence</w>
bo red</w>
bo ats</w>
blo wing</w>
bi lls</w>
be lt</w>
back yard</w>
b c</w>
b adly</w>
ar l</w>
ap plying</w>
an ni
an esthe
ab sence</w>
- day</w>
ziektekosten verzekering</w>
z v</w>
y st
win ner</w>
war ri
w196 9</w>
w12 92</w>
w03 19</w>
w rap</w>
verzekerings -maatschappij</w>
vei ll
veill ance</w>
une mp
u ms</w>
transforma tive</w>
trans mission</w>
tr ace</w>
tou gh
to k
ti ps</w>
ti fication</w>
sur veillance</w>
sub stan
substan ti
su l
ste am</w>
sp are</w>
some time</w>
scot t</w>
ret ina</w>
reflec tion</w>
reason able</w>
re fri
refri ger
re actions</w>
r oph
r itual</w>
propos al</w>
pro be</w>
pre diction</w>
po ison</w>
pic ks</w>
pi lls</w>
phy sio
per s</w>
pe ts</w>
or phan
on ing</w>
on ds</w>
no red</w>
neurosci enti
neu ro
neder landsche</w>
ne ys</w>
n zv</w>
n in
mush rooms</w>
mis si
micro bial</w>
mic roph
medi cation</w>
mean while</w>
main tain
lin der</w>
li sts</w>
lea f</w>
large -scale</w>
l01 16</w>
ke t
k i</w>
intervie ws</w>
int ent</w>
institu tional</w>
instal led</w>
ig nored</w>
hor ses</w>
helicop ter</w>
heal ing</w>
hab its</w>
gre at
gen u
ge sture</w>
g mented</w>
g ad
frighten ing</w>
fries land</w>
fri end
fre a
expos ure</w>
enjo yed</w>
don or</w>
dom s</w>
diffic ulty</w>
di vision</w>
di stances</w>
der ed</w>
d ough</w>
cy linder</w>
cub a</w>
cu ts</w>
cu be</w>
cr yst
cour ses</w>
cou ra
con doms</w>
comprom ise</w>
clai ms</w>
carol ina</w>
came l</w>
calcu lations</w>
cal m</w>
bul b</w>
budd hi
break through</w>
bos s</w>
bat teries</w>
al u
al ex</w>
agg ressive</w>
advan ces</w>
adop tion</w>
adap ted</w>
ad y</w>
accoun ts</w>
a h
&apos; clock</w>
z ingly</w>
z er</w>
wid th</w>
wan dering</w>
vol can
vo y
victi m</w>
vi sually</w>
vi sions</w>
vari ations</w>
ti s</w>
ter ey</w>
te ar</w>
syste matically</w>
swit ched</w>
super market</w>
su its</w>
st at
sp reads</w>
sp inning</w>
skelet al</w>
sel fish</w>
secre tary</w>
scan ner</w>
s lation</w>
ri a</w>
reti rement</w>
resol ve</w>
resi dents</w>
renew ables</w>
rec ru
re wards</w>
re gard
regard less</w>
publi sh</w>
prom ised</w>
prin ce</w>
pos ted</w>
p ants</w>
ori tes</w>
occurr ing</w>
no vember</w>
niger ian</w>
ne are
neare st</w>
n ot
mon terey</w>
mind set</w>
mem bran
mas ses</w>
mar g
man ual</w>
like lihood</w>
li ons</w>
legi slation</w>
l at
kin dness</w>
ju ice</w>
jos ep
josep h</w>
ite ms</w>
inten sity</w>
in don
indon e
indone sia</w>
in ch</w>
i di
hop es</w>
high- tech</w>
hal f
half way</w>
guil ty</w>
gra ms</w>
gir l
fi re
fav orites</w>
f ence</w>
exp lic
esti mates</w>
enjo ying</w>
engine ered</w>
dra g</w>
doub led</w>
diplom acy</w>
devast ating</w>
deli ber
de adly</w>
d v
d ges</w>
custom er</w>
coun ter
connec tom
communi cating</w>
cham ber</w>
calcul us</w>
bri dges</w>
bre eding</w>
bo wl</w>
believ ing</w>
bacteri al</w>
as th
appro ached</w>
ambi gu
ama zingly</w>
accep table</w>
196 0s</w>
- to-
, 500</w>
zorg verzeker
zorgverzeker a
zorgverzekera ars</w>
ze al
zeal and</w>
y al</w>
w197 8</w>
w18 77</w>
w18 25</w>
w17 67</w>
w17 43</w>
w17 09</w>
w17 06</w>
w15 76</w>
w030 2</w>
w030 1</w>
w01 09</w>
vi v
viv at</w>
ver e
vere en
vereen de</w>
v ice</w>
v a</w>
un seen</w>
ul tr
ultr as
ultras ound</w>
tun nel</w>
tran sc
top ics</w>
toler ance</w>
to we
the ast</w>
th ur</w>
te mple</w>
tas mani
t ant</w>
symphon y</w>
survi ved</w>
sugge stion</w>
sub mer
stun ning</w>
struc tural</w>
strategi c</w>
sin s</w>
selec ted</w>
scenari o</w>
sacrif ice</w>
rub ber</w>
ro yal</w>
ro t</w>
ro gen</w>
ro e
roe min
roemin ck</w>
ric k</w>
real istic</w>
re aches</w>
pur su
pr ic
portra its</w>
phenomen al</w>
pass age</w>
p h</w>
overwhel med</w>
ope dia</w>
non- life</w>
no bel</w>
nit rogen</w>
multip ly</w>
mp se</w>
mosquit os</w>
mb s</w>
mar ath
loc ally</w>
legi ti
l00 29</w>
l ted</w>
l ord</w>
k ong</w>
j ing</w>
int act</w>
ic onic</w>
i jing</w>
human itarian</w>
house hold</w>
hi p
he art
h au
gro ep</w>
gra ve</w>
gr ace</w>
good bye</w>
go li
gli mpse</w>
genom es</w>
fl uc
ff ic
ferti li
fe males</w>
fe eds</w>
far ms</w>
ever est</w>
es thetic</w>
er als</w>
en cy
ency cl
encycl opedia</w>
en a</w>
embarras sing</w>
em bo
elimin ate</w>
electro des</w>
duc k</w>
dr ops</w>
div or
dem o</w>
d ating</w>
cy rus</w>
cri mes</w>
cop e</w>
consum ed</w>
con temp
co verage</w>
clu bs</w>
cli ff</w>
clas si
centr amed</w>
centr alized</w>
ca sting</w>
c z</w>
c and
bul bs</w>
boun dary</w>
biom ass</w>
bin ary</w>
be ijing</w>
barre l</w>
b ound</w>
authenti c</w>
ar thur</w>
appro ved</w>
ali ens</w>
al arm</w>
ak zo</w>
ai m</w>
a ur
a esthetic</w>
7 3</w>
195 0s</w>
x ima
xima tely</w>
w art</w>
vege table</w>
v as</w>
underst ands</w>
tt e</w>
trans l
the mes</w>
the -
terr itory</w>
t less</w>
t ags</w>
suc ces
stri king</w>
ste wart</w>
sp an</w>
sho e</w>
sha k
shak espe
shakespe are</w>
see mingly</w>
scal ing</w>
s w
rot ate</w>
right- hand</w>
red wood</w>
reali zation</w>
re stor
re se
re land</w>
radi o
q a
qa eda</w>
psy ch
profes sion</w>
pro cess
pre su
physici ans</w>
philosoph ers</w>
philos ophi
philosophi cal</w>
parado x</w>
p our</w>
p it</w>
ot ted</w>
op a</w>
on al</w>
obe se</w>
n ick</w>
mur der</w>
mu mb
mumb ai</w>
motiv ated</w>
monit oring</w>
min us</w>
min ority</w>
migra tion</w>
mi sphere</w>
maxi mum</w>
mar row</w>
manipu late</w>
man ner</w>
mal ay
m o</w>
m and
lon ge
longe vity</w>
lo ving</w>
li zed</w>
l i</w>
journ alists</w>
it age</w>
inter ru
inten sive</w>
integr ate</w>
instal lation</w>
ine ly</w>
indi ans</w>
inci dence</w>
in n
ib m</w>
i reland</w>
hy bri
hope ful</w>
hi ding</w>
her itage</w>
head ing</w>
he misphere</w>
gradu ated</w>
frequ ently</w>
fos ter</w>
fore station</w>
fla vor</w>
fir ing</w>
explo it</w>
encour aged</w>
dig ging</w>
def end</w>
de an</w>
dama ged</w>
cor als</w>
contribu tion</w>
continu ous</w>
concentr ation</w>
con vey</w>
competi tive</w>
co at</w>
che at</w>
char lie</w>
car ries</w>
car es</w>
can vas</w>
cal end
au gust</w>
at oes</w>
asse ts</w>
appro ximately</w>
angiogen esis</w>
al ge
ad just</w>
2 0s</w>
1 1
- year</w>
- the-
ziektekosten verzekeraar</w>
wi shes</w>
who ever</w>
web sites</w>
w19 86</w>
w19 38</w>
w19 13</w>
w18 99</w>
w18 60</w>
w01 43</w>
w01 23</w>
vir gin</w>
vacc ines</w>
v ali
uni qu
tr apped</w>
to s</w>
tho lic</w>
teen ager</w>
tar ge
ta tional</w>
syn chron
syl via</w>
stra tions</w>
stor ms</w>
st ot
stot le</w>
sr le
srle v</w>
sme lls</w>
slo wer</w>
sion -
sion- making</w>
simp lest</w>
shif ts</w>
she pher
shepher d</w>
sen ds</w>
se ctors</w>
sau di</w>
safe ly</w>
sa ke</w>
ro lled</w>
ri st</w>
res ted</w>
recomm end</w>
reason ing</w>
re think</w>
re quest</w>
random ly</w>
r16 12
r itu
ritu als</w>
r ail
prosper ity</w>
predat or</w>
pr ay</w>
pot ent</w>
peri ods</w>
pen cil</w>
par kin
parkin son</w>
p is
p ays</w>
p &
p& i</w>
overwhel ming</w>
on -
om ag
olymp ics</w>
ol ine</w>
observ ations</w>
noord- holland</w>
non- zero-sum</w>
mo z
mo od</w>
me ta
me me</w>
mar t</w>
mar ry</w>
man agers</w>
m u</w>
m one</w>
loy ment</w>
lo ads</w>
live stock</w>
lau ghter</w>
labe led</w>
l01 87</w>
l01 80</w>
l00 93</w>
k mu</w>
ju ven
isra el
israel i</w>
irani an</w>
introduc tion</w>
interpre t</w>
inter connected</w>
inten tion</w>
inde x</w>
illu min
hos tile</w>
hor mone</w>
hier archy</w>
hi lls</w>
h01 25</w>
gas oline</w>
g on</w>
g and
gand hi</w>
fo ie</w>
fin dings</w>
eur ope</w>
er t</w>
en de
ende av
electr omag
edit or</w>
du mb</w>
distin ction</w>
di stor
determin es</w>
destro ying</w>
deplo yed</w>
den ial</w>
dee pest</w>
deci sion-making</w>
dan cers</w>
d ant</w>
cros sed</w>
cop ies</w>
cop ied</w>
controversi al</w>
concer ns</w>
compu tational</w>
colum n</w>
clin ics</w>
chromos ome</w>
cer ti
ca tholic</w>
ca tal
c tive</w>
blog ging</w>
bla h</w>
ber lin</w>
bed room</w>
beauti fully</w>
be half</w>
bath room</w>
b ite</w>
assur ant</w>
ari stotle</w>
ar rested</w>
ans as</w>
amp ;</w>
ag ents</w>
accoun tability</w>
abun dance</w>
a my</w>
a bed</w>
4 6</w>
1 7th</w>
& amp;</w>
z zy</w>
work force</w>
v ot
use less</w>
tri angle</w>
trans mit</w>
tou ching</w>
the dr
text books</w>
temper atures</w>
ted talks</w>
sur ve
sub si
st le</w>
st ays</w>
st -
signific ance</w>
si zes</w>
si mon</w>
sex y</w>
sens or</w>
se ctions</w>
sch edu
satelli tes</w>
s wal
reve aled</w>
resi stant</w>
reflec ted</w>
re public
republic ans</w>
re n</w>
re con
recon ci
pur ple</w>
pu p
pu lls</w>
proje ction</w>
program mers</w>
pro ved</w>
prison er</w>
practic ing</w>
pol lin
par enting</w>
pan cre
pa ste</w>
p ity</w>
os h</w>
ori ous</w>
opini ons</w>
oper ative</w>
op tical</w>
nu mer
nor den</w>
n is</w>
mu d</w>
mo du
min d-
measu rements</w>
me sh</w>
mc don
mcdon ald</w>
man kind</w>
mach in
machin ery</w>
m i</w>
low- cost</w>
lo go</w>
lifes pan</w>
le ar</w>
lan es</w>
lan ding</w>
l ac
kore an</w>
ite m</w>
invest ments</w>
inti macy</w>
inst all</w>
ingredi ent</w>
if y</w>
ici ans</w>
hor ror</w>
he ating</w>
hawai i</w>
har ry</w>
har m
h ot
green land</w>
gr ant</w>
gl orious</w>
g ains</w>
fe min
expan ded</w>
evol ving</w>
enh agen</w>
en abled</w>
empo wer</w>
dis gust</w>
demon strated</w>
cop enhagen</w>
continu ously</w>
compu te</w>
commo dity</w>
comm and
collec tively</w>
coca ine</w>
co operative</w>
co in</w>
co ch
cen sus</w>
carto oni
car t</w>
car ed</w>
ca ttle</w>
ca thedr
ca tching</w>
ca bles</w>
c any
but ter
bur st</w>
broa der</w>
blin dness</w>
beet le</w>
barri ers</w>
auton omy</w>
attrac ted</w>
app s</w>
ap ol
ai ling</w>
accompli shed</w>
ac ids</w>
aband oned</w>
7 4</w>
zon d
zond hei
zondhei d
zondheid s
zondheids zorg</w>
youn gest</w>
ye ast</w>
wi j
wij ker</w>
w196 1</w>
w190 9</w>
w17 49</w>
w16 50</w>
w14 87</w>
w00 10</w>
w ling</w>
w is</w>
vo or</w>
ver theless</w>
ver se</w>
ver eni
vereni ging</w>
v ors</w>
v entions</w>
v ar</w>
ut ter
utter ly</w>
univer ses</w>
uni lever</w>
uni e</w>
un conscious</w>
u. k</w>
tru ths</w>
trop ical</w>
tri ps</w>
tra vels</w>
th als</w>
terri fied</w>
terri fic</w>
t vm</w>
t bi
tbi j</w>
t ap
symme trical</w>
sto len</w>
ste en
steen wijker</w>
star ing</w>
speci alized</w>
sp ra
sp her
sk top</w>
shoul ders</w>
shor ter</w>
seven th</w>
sett le
sequ encing</w>
separ ation</w>
self- interest</w>
see king</w>
sca ff
ris ky</w>
repor ting</w>
repe ated</w>
recy cled</w>
recogni zing</w>
re produce</w>
re g
reg ard</w>
re be
r16 20
r1620 36</w>
r14025 6</w>
r ape</w>
qu ir
prototyp es</w>
profess ors</w>
prof itable</w>
privi leg
privileg ed</w>
poli tician</w>
plat forms</w>
plan ted</w>
pige on</w>
pas ses</w>
par ac
parac hu
parachu te</w>
pa arden</w>
p airs</w>
onderling en</w>
om es</w>
olymp ic</w>
ok lyn</w>
occa sion</w>
neander thals</w>
ne vertheless</w>
mini stry</w>
mi st</w>
mer curi
mercuri us</w>
medi risk</w>
med itation</w>
man n</w>
mag ician</w>
m ously</w>
m ask</w>
lo an</w>
lling en</w>
lif ted</w>
li ed</w>
leop ard</w>
le wis</w>
l .a.</w>
jo int</w>
ipo d</w>
inti mate</w>
inter ventions</w>
integra tion</w>
insur ances</w>
inste llingen</w>
inci dentally</w>
im provi
i .
horizon tal</w>
home town</w>
hol ders</w>
he a</w>
hagel unie</w>
h tbij</w>
gra ins</w>
gr oss</w>
ght ful</w>
ge zondheidszorg</w>
ge stion</w>
ga e</w>
fu ll-
fro gs</w>
fries che</w>
frequ encies</w>
foun der</w>
film maker</w>
fe ver</w>
far ther</w>
enor mously</w>
eer ste</w>
e tr
e ats</w>
du mp
dru m</w>
dir t</w>
dic htbij</w>
diagnos is</w>
di arr
diarr hea</w>
dete ctor</w>
desper ately</w>
def ic
de sktop</w>
cro ws</w>
convic ted</w>
contr ad
cont ag
consum ing</w>
concentr ate</w>
con gestion</w>
con f
common s</w>
comm un
comm er
co oling</w>
chromos omes</w>
chimpanze e</w>
che f</w>
burea uc
bro oklyn</w>
brand assurantie</w>
br ain
bi e</w>
bea ten</w>
be an</w>
ban king</w>
bacteri um</w>
b ani
associ ate</w>
ash a</w>
ans var</w>
anesthe sia</w>
alex ander</w>
al gae</w>
ai ms</w>
afgh an</w>
acqui re</w>
ac ou
6 0,000</w>
3 50</w>
3 3</w>
199 9</w>
199 8</w>
y ards</w>
y an</w>
y -
wit nessed</w>
wip ed</w>
wil son</w>
who a</w>
ver bal</w>
ur able</w>
up side</w>
un fortunate</w>
tw ent
trig ger</w>
ti ght</w>
ti ger</w>
thri lled</w>
th ly</w>
tex ture</w>
t win</w>
syn ap
stre ams</w>
st ag
spe ll</w>
sho ots</w>
shif ted</w>
sh y</w>
sen sing</w>
se als</w>
s l
s ands</w>
roof s</w>
ro b</w>
ri ding</w>
refuge e</w>
ques tion
pre mise</w>
poli tically</w>
play ful</w>
plan ned</w>
pac ked</w>
p ouring</w>
opp er</w>
offici als</w>
non sense</w>
non e
none theless</w>
neutr al</w>
my ce
myce li
myceli um</w>
mu tation</w>
mp h</w>
moun t</w>
mil o</w>
mil ky</w>
mid st</w>
mi ze</w>
mi ll</w>
me lo
m ere</w>
lo ose</w>
life -
le o</w>
kic ked</w>
k ward</w>
k ings</w>
jud gments</w>
ju red</w>
jon athan</w>
john ny</w>
j unk</w>
inci dent</w>
in jured</w>
i st</w>
happ ily</w>
halluc inations</w>
gard ens</w>
fam ine</w>
expres sed</w>
en try</w>
embrac ing</w>
econom ically</w>
disappe ars</w>
dis gu
dic t
dest ination</w>
de ck</w>
d ose</w>
d are</w>
cro p</w>
cri tic</w>
cor relation</w>
coordin ation</w>
constra ints</w>
con vention</w>
chron ic</w>
che ating</w>
chap ters</w>
cere mony</w>
celebr ity</w>
celebr ated</w>
cap s</w>
ca ves</w>
c opper</w>
c a</w>
budd ha</w>
blo wn</w>
ble w</w>
bi d</w>
belon gs</w>
be hold</w>
be am</w>
b ands</w>
aw kward</w>
authenti city</w>
argu es</w>
adop t</w>
ad dy</w>
accur acy</w>
acceler ating</w>
acceler ate</w>
8 2</w>
5 1</w>
20 20</w>
2 5,000</w>
199 4</w>
wri st</w>
work place</w>
we t</w>
war mer</w>
w197 4</w>
w19 83</w>
w19 20</w>
w14 23</w>
w02 81</w>
w age</w>
vers ary</w>
ven ess</w>
uitvaart verzekering</w>
u k</w>
tw en
twen the</w>
tru sted</w>
toi lets</w>
tal ented</w>
ta x
t s
symme tries</w>
stri kes</w>
storyte ller</w>
stimu lation</w>
stic king</w>
sti cht
sticht sche</w>
squar es</w>
spa ark
spaark as</w>
so on
soon er</w>
sli ce</w>
sh ining</w>
scienti fically</w>
sar ah</w>
revolu tions</w>
replac ement</w>
recei ving</w>
rab o</w>
prom o
poe ms</w>
phili p</w>
pe a
path ways</w>
p anic</w>
over night</w>
oper ates</w>
op us</w>
om in
obser ved</w>
o ct
oct opus</w>
ni um</w>
net working</w>
nes ses</w>
negoti ate</w>
n00 48</w>
mom en
momen tum</w>
mo therapy</w>
mir rors</w>
millen nium</w>
ment or</w>
me tals</w>
me lting</w>
m w</w>
m bling</w>
m bed</w>
lon ely</w>
liber ty</w>
lei d
leid sche</w>
left- hand</w>
lec tures</w>
leban on</w>
le go</w>
la den</w>
l00 25</w>
l as
k it</w>
k able</w>
je ws</w>
j h</w>
invol ve</w>
inv entions</w>
indi gen
indigen ous</w>
impro vements</w>
immen se</w>
ic eland</w>
i est</w>
hypo the
house holds</w>
her verzekeringsmaatschappij</w>
her verzekering</w>
he l</w>
h013 3</w>
h in
girl friend</w>
g al</w>
friend ship</w>
fre sh
fant asy</w>
enterpri se</w>
embarras sed</w>
docu mentary</w>
disa sters</w>
di shes</w>
desper ate</w>
dent al</w>
de cent</w>
d al</w>
coun ter</w>
coun ted</w>
cor ners</w>
com mission</w>
clu ster</w>
cli ps</w>
cli mbed</w>
christi ans</w>
chi le</w>
che motherapy</w>
char ter</w>
candi dates</w>
c on</w>
bur ger</w>
bu gs</w>
brand- herverzekering</w>
bra ve</w>
ber g</w>
be e
attac ked</w>
at er
astronom ers</w>
assum ed</w>
as cular</w>
appreci ation</w>
app les</w>
apart ments</w>
anni versary</w>
ambi tious</w>
alph abe
alphabe t</w>
ag an</w>
add ressing</w>
7 2</w>
6 8</w>
5 4</w>
4 0s</w>
1, 500</w>
1 2,000</w>
zer land</w>
z abe
zabe th</w>
ye men</w>
wr apped</w>
well- known</w>
visu alize</w>
vari able</w>
ut ni
utni k</w>
up ward</w>
un fair</w>
umin um</w>
u sal
usal em</w>
treas ure</w>
trac es</w>
tr ading</w>
to wns</w>
tin ational</w>
ti ming</w>
tal ents</w>
tag ged</w>
syste matic</w>
symbo lic</w>
swit zerland</w>
str and</w>
stom ach</w>
sta ke</w>
spi ders</w>
sp utnik</w>
so ap</w>
sk i</w>
simi lar
sexu ally</w>
se s
ses sions</w>
se bas
sebas tian</w>
se att
seatt le</w>
se a
sea water</w>
san itation</w>
s adly</w>
respon ded</w>
resili ent</w>
repor ter</w>
rela tives</w>
recep tor</w>
rec all</w>
re hen
r ome</w>
puni shment</w>
publi sh
proto cell</w>
prop ag
propag anda</w>
pric ing</w>
pri ority</w>
pri orities</w>
pri mates</w>
pri mate</w>
prev enting</w>
prescri ption</w>
prepar ation</w>
power point</w>
por tu
po les</w>
plan ting</w>
pipe line</w>
pho eni
phoeni x</w>
persi st
per ative</w>
pe an
pean u
p tions</w>
ow ners</w>
opo li
occup y</w>
nucle us</w>
ni ghts</w>
need les</w>
mul tinational</w>
midd le-
mi xing</w>
mi e</w>
metr opoli
mess y</w>
marath on</w>
mar ks</w>
lin king</w>
le ague</w>
la mp</w>
l it</w>
l ant</w>
jer usalem</w>
j or
iron y</w>
ir rational</w>
innov ate</w>
indi cate</w>
in struction</w>
imp lant</w>
im perative</w>
illu sions</w>
i ll</w>
hon ored</w>
high light</w>
ha ted</w>
grab bed</w>
gover n</w>
func tioning</w>
fru stration</w>
frighten ed</w>
for give</w>
flo at</w>
fi red</w>
fi les</w>
explo red</w>
ex otic</w>
ex am</w>
ev alu
estab lish</w>
equ ity</w>
equ als</w>
emo tionally</w>
eli zabeth</w>
dro w
dri f
docu mented</w>
do od
di ves</w>
di um</w>
di se</w>
deser ves</w>
democr ats</w>
deli vering</w>
de voted</w>
cu st
correspon ds</w>
corpor ation</w>
cop ying</w>
conver ted</w>
conduc t</w>
compani ed</w>
comp rehen
commit tee</w>
comb at</w>
colli sion</w>
col i</w>
co her
co ach</w>
catastrop hic</w>
c la
c coli</w>
buddhi st</w>
bro ccoli</w>
bos nia</w>
bo ther</w>
bi ll
bi c</w>
