#version: 0.2
t h
i n
a n
a r
th e</w>
e r
o s
an d</w>
a t</w>
a p
o u
t i
t o</w>
e n
in g</w>
s e
ap os
& apos
i s</w>
&apos ;
r e
a l
o n
th e
o r
th at</w>
o n</w>
a c
t e
v ar
var _
i t</w>
q u
o t
l e
o t</w>
a s
y o
yo u</w>
o p
l i
e s</w>
w e</w>
m e</w>
c a
qu ot
l y</w>
a s</w>
s t
&apos; s</w>
k _
i t
b e
w h
l e</w>
o r</w>
e d</w>
th is</w>
o w</w>
m a
s e</w>
e n</w>
er e</w>
e r</w>
s o</w>
o m
se p
d ot</w>
sep _
sep_ dot</w>
i c
a t
b r
b u
a b
l d</w>
d i
v e</w>
quot ;</w>
& quot;</w>
u r
ou t</w>
a se
s i
s t</w>
d e
r o
c h
h as
ase :
m ar
v er
the y</w>
ti on</w>
ar e</w>
l o
a n</w>
n e
t r
k e</w>
w as</w>
a l</w>
l l</w>
- -</w>
f or</w>
a y</w>
en t</w>
in g
p e
br ac
s h
var_ e</w>
quot _
quot_ mar
quot_mar k_
brac k_
C T</w>
B ase:
- Base:
al ly</w>
en ti
wh at</w>
bu t</w>
n ow</w>
g h
var_ o</w>
ou r</w>
on e</w>
w it
a i
ca n</w>
r i
f i
u n
al l</w>
wit h</w>
e i
w or
os e</w>
b e</w>
ou n
g o
&apos; t</w>
t s</w>
a me</w>
d enti
t er
c on
i f
ab out</w>
te d</w>
th ere</w>
op a
opa -Base:
opa-Base: has
ei opa-Base:has
c e</w>
c l
v i
p er
g e
m e
c i
c om
p ro
r e</w>
te r</w>
o l
gh t</w>
ou ld</w>
a g
g le
gle if
the r</w>
n ot</w>
e x
s u
o w
d o</w>
a d</w>
u se</w>
a d
o me</w>
m i
ver y</w>
m y</w>
&apos; re</w>
pe op
e s
th ing</w>
peop le</w>
t o
i f</w>
p l
d s</w>
li ke</w>
j u
or e</w>
w e
m p
w i
ti on
op en</w>
at e</w>
h e</w>
eiopa-Base:has I
cl ose</w>
N ame</w>
var_ s</w>
y e
denti f
u s</w>
a r</w>
the se</w>
dentif y
quot_mark_ r</w>
quot_mark_ l</w>
ing Name</w>
eiopa-Base:hasI dentify
eiopa-Base:hasIdentify ingName</w>
brack_ open</w>
brack_ close</w>
W H
WH E
WHE R
WHER E</w>
T I
TI N
TIN CT</w>
S TINCT</w>
S E
SE L
SEL E
SELE CT</w>
I STINCT</w>
D ISTINCT</w>
ju st</w>
t u
k ing</w>
f e
be ca
v er</w>
m o
an t</w>
re s
beca use</w>
u c
g i
h e
th in
t a
ur e</w>
h ow</w>
b y</w>
gleif -
u l
f or
d o
k now</w>
h i
u p</w>
the m</w>
d e</w>
b i
b o
lo o
ic h</w>
go ing</w>
om e
ar s</w>
h ere</w>
er s</w>
it y</w>
a tion</w>
m ore</w>
wh ich</w>
g r
a y
w ay</w>
s ome
o ther</w>
thin k</w>
h ad</w>
t t
p ar
se e</w>
g e</w>
p u
ge t</w>
ing s</w>
ca l</w>
a m
y our</w>
re ally</w>
the i
thei r</w>
t h</w>
s p
an y</w>
w ould</w>
the n</w>
w ere</w>
o f</w>
f f
&apos; ve</w>
d er
oun d</w>
ow n</w>
g h</w>
i l
e l
ap p
ai n</w>
c re
wor ld</w>
n o
ou r
tu ally</w>
ti me</w>
f u
s ome</w>
&apos; m</w>
en ce</w>
d on</w>
var_ a</w>
o d</w>
in e</w>
e v
h as</w>
ac tually</w>
k s</w>
a f
p o
os t</w>
in to</w>
a tion
c o
st r
s te
th ings</w>
d ay</w>
m ent</w>
g o</w>
wi ll</w>
ye ars</w>
i denti
a te
ai d</w>
ou gh</w>
ac k</w>
i s
ac e</w>
identi fi
t ing</w>
n o</w>
ag e</w>
identifi es</w>
gleif -Base:
gleif-Base: identifies</w>
t w
ab le</w>
t y</w>
c ould</w>
we ll</w>
h app
g u
w ant</w>
in ter
c h</w>
c t</w>
as t</w>
ay s</w>
t al
in d</w>
ma ke</w>
com p
gleif- L
gleif-L 1
gleif-L1 :
gleif-L1: has
oun tr
be en</w>
s aid</w>
k e
en ts</w>
c e
se l
d ing</w>
le d</w>
d y</w>
v es</w>
ri ght</w>
ne w</w>
di ff
m ost</w>
l a
c ome</w>
sh e</w>
h u
t ure</w>
some thing</w>
fi r
g re
ch an
ma n</w>
m s</w>
v e
st or
c al
fir st</w>
d er</w>
p r
tw o</w>
s o
th ose</w>
th an</w>
v ing</w>
i es</w>
p h
h is</w>
loo k</w>
tt le</w>
k ed</w>
on g</w>
wor k</w>
en t
li f
s ti
s y
pro b
li ttle</w>
i n</w>
r a
var_ l</w>
st ar
d d
g ot</w>
diff er
al so</w>
ar d</w>
b ack</w>
uc h</w>
m uch</w>
a u
g y</w>
l s</w>
p re
f ac
res s</w>
d u
lif e</w>
s ay</w>
ti ve</w>
un i
gleif- b
gleif-b ase:
gleif-base: has
st u
s pe
ou s</w>
tion s</w>
le s</w>
o ver</w>
m on
en d</w>
0 0</w>
f o
i mp
on ly</w>
si on</w>
th r
it e</w>
es s</w>
re e</w>
b le</w>
l li
ev en</w>
se d</w>
m any</w>
bo dy</w>
be t
ta ke</w>
r u
e ver
an s</w>
t e</w>
s ur
on s</w>
s s</w>
si g
ever y
ic e</w>
i de
h er</w>
fu l</w>
o k</w>
ti c
t ur
ne ed</w>
i z
s c
d n</w>
go od</w>
ch o
r os
g en
a m</w>
ar ound</w>
a in
p os
j e
wh y</w>
l ot</w>
le t</w>
d ed</w>
d own</w>
&apos; ll</w>
g al
i ma
f f</w>
qu ar
m u
ate s</w>
n ing</w>
ac h</w>
or t
m in
f a
s ing</w>
differ ent</w>
e very</w>
th ou
c ol
thr ough</w>
a mp
or t</w>
y ing</w>
d re
com m
e t</w>
w a
c u
al s</w>
un der
te ch
pu t</w>
as e</w>
prob le
be ing</w>
k i
h a
an y
c ent</w>
stor y</w>
s ame</w>
O per
i c</w>
happ en
s ci
si de</w>
do ing</w>
quar ter
op er
f in
se s</w>
ad quarter
S t
di s
sel f</w>
s er
v ed</w>
ti c</w>
con t
i m
th ree</w>
an s
le ar
w r
sy ste
cal led</w>
t y
le c
en g
e gal
u e</w>
an ce</w>
gleif-L1:has L
gleif-L1:hasL egal
C ountr
p i
lo gy</w>
ti es</w>
w ays</w>
s ol
tech no
e l</w>
re c
a ted</w>
tal k</w>
&apos; d</w>
s on</w>
d uc
ma de</w>
so ci
e f
s h</w>
per cent</w>
ar y</w>
c our
j o
o l</w>
pl an
l l
at us</w>
p res
m es</w>
s A
sA dd
sAdd ress</w>
gleif-L1:has H
gleif-L1:hasH e
gleif-L1:hasHe adquarter
gleif-L1:hasHeadquarter sAddress</w>
to day</w>
bu il
de sig
p ri
ex per
af ter</w>
gre at</w>
c ountr
c ar
t ly</w>
re d</w>
lli on</w>
e ar
an k</w>
s a
c es</w>
n ed</w>
tr i
lo w
x t</w>
d ic
te ll</w>
qu es
f r
under st
hu man</w>
imp ort
p ow
bi g</w>
chan ge</w>
fac t</w>
or s</w>
an other</w>
n i
m an
ac h
f ind</w>
at ing</w>
l ast</w>
ye ar</w>
st s</w>
b re
s en
or m</w>
ide a</w>
de v
p ic
o b
o cal</w>
k es</w>
wi th
w an
t re
di dn</w>
f ore</w>
be fore</w>
i r
gleif-L1:hasLegal F
gleif-L1:hasLegalF orm</w>
gi ve</w>
L ocal</w>
w ent</w>
ti mes</w>
sh ould</w>
r ic
po in
c an
he l
star ted</w>
o ld</w>
ch i
re s</w>
thou ght</w>
in di
h er
ation s</w>
s in
ol l
b l
ros s</w>
e ver</w>
be li
le ss</w>
tt ing</w>
ima g
ar t</w>
ne ver</w>
v en</w>
pl ace</w>
ag ain</w>
import ant</w>
bet ter</w>
0 00</w>
cour se</w>
s cho
o ff</w>
sh ow</w>
syste m</w>
be r</w>
c ur
b or
te s</w>
g er</w>
proble m</w>
ex amp
hi m</w>
an d
techno logy</w>
ne xt</w>
mi ght</w>
e ach</w>
sti ll</w>
to ge
toge ther</w>
b it</w>
se e
ag o</w>
si mp
par t</w>
tr a
k n
o le</w>
ch il
wa ter</w>
br ain</w>
vi r
, 000</w>
u sed</w>
ca me</w>
n at
th ank</w>
b as
li ty</w>
b ot
ic ally</w>
re al
re ad
ch e
comp le
ter s</w>
f ound</w>
l ong</w>
d at
s m
si ble</w>
tr y</w>
a ti
ro w
c or
ar t
o m</w>
pro duc
exper i
we en</w>
bet ween</w>
c ess</w>
fe w</w>
com es</w>
t en
an ds</w>
for m</w>
po li
ac t</w>
to o</w>
al l
inter e
me m
e p</w>
li ght</w>
l ar
a me
me an</w>
loo king</w>
ti ty
n tity
in cre
E ntity
je ct</w>
dre n</w>
chil dren</w>
ma y
st ing</w>
for ma
f l
se con
e ve</w>
c ts</w>
1 9
op e</w>
in v
poin t</w>
may be</w>
lo gi
c er
ay ing</w>
d one</w>
c k</w>
s ort</w>
com pu
te n</w>
c ou
am er
e y</w>
w al
te ly</w>
ques tion</w>
p s</w>
de ci
es n</w>
do esn</w>
wh ole</w>
lo ve</w>
f un
c ul
sel ves</w>
f ri
dat a</w>
or g
fa mi
examp le</w>
p p
es s
it s</w>
ca tion</w>
underst and</w>
wan ted</w>
ma y</w>
spe ci
e con
scho ol</w>
gen er
he al
econ om
n ame</w>
gleif-base:has N
gleif-base:hasN ame
gleif-base:hasName Local</w>
eiopa-Base:has Oper
eiopa-Base:hasOper ation
eiopa-Base:hasOperation St
eiopa-Base:hasOperationSt art
eiopa-Base:hasOperationStart D
eiopa-Base:hasOperationStartD ate</w>
do es</w>
&apos ;</w>
me di
1 0</w>
f our</w>
n s</w>
ce p
uni ver
forma tion</w>
wor king</w>
m ents</w>
g a
re al</w>
ai r</w>
w om
tr ying</w>
li ve</w>
2 0
c r
sh ow
mi llion</w>
sh i
chan g
c ap
ab ly</w>
f ace</w>
c all</w>
wom en</w>
tr ans
u sing</w>
re as
i a</w>
mon ey</w>
a way</w>
f t</w>
every thing</w>
or y</w>
v al
al ways</w>
el op
dev elop
ne c
ki ds</w>
ar e
l ine</w>
w as
u tion</w>
o k
str uc
beli eve</w>
per son</w>
n or
p en
fe el</w>
l t</w>
c en
ta k
desig n</w>
& #
&# 9
y es</w>
com ing</w>
se ar
pow er</w>
gr ap
fi ve</w>
y W
yW her
yWher e
yWhere Entity
yWhereEntity Oper
yWhereEntityOper ates</w>
eiopa-Base:has E
eiopa-Base:hasE U
eiopa-Base:hasEU Countr
eiopa-Base:hasEUCountr yWhereEntityOperates</w>
wh ere</w>
hel p</w>
ic i
countr y</w>
r y</w>
as k</w>
en er
l an
in e
be g
th er
ro om</w>
ma t
un ity</w>
cre ate</w>
d ate</w>
sp ace</w>
m om
thin king</w>
ab i
a ma
l dn</w>
as s</w>
to ok</w>
d oll
b li
in formation</w>
e lec
g s</w>
ti cal</w>
g lo
c el
ul ar</w>
pl ay</w>
par tic
ener gy</w>
me ans</w>
ne e
fo od</w>
or i
pu bli
m er
org an
secon d</w>
u m</w>
in s</w>
sen se</w>
af ric
ge tting</w>
ch ar
be come</w>
s k
fu ture</w>
qu ite</w>
ot s</w>
ou s
vi e
oper ate</w>
l and</w>
i l</w>
d ri
i le</w>
en ough</w>
y s</w>
stu d
ca ted</w>
sm all</w>
be st</w>
ou t
ex pl
prob ably</w>
c t
ma king</w>
st o
p on
g er
read y</w>
s ays</w>
star ting</w>
st atus</w>
gleif-base:has Countr
gleif-base:hasCountr y</w>
St atus</w>
j ur
g row
buil ding</w>
s ing
w o
go ver
qu i
gr ou
z e</w>
with out</w>
m y
w s</w>
op p
wh e
h ome</w>
be au
l ing</w>
stu ff</w>
h un
re ad</w>
intere sting</w>
c li
o ff
h ard</w>
c ri
le ft</w>
h al
we e
w on
th s</w>
tal king</w>
w at
bo ok</w>
on es</w>
ne ss</w>
l on
soci al</w>
at h</w>
le a
glo b
sci ence</w>
ic s</w>
cont ro
afric a</w>
n u
happen ed</w>
dic tion</w>
s ure</w>
p le</w>
ear th</w>
m or
h ar
h ou
gover n
i ld</w>
doll ars</w>
w ar
kn ow
a k</w>
pl ac
it ing</w>
ation al</w>
y oun
abi lity</w>
ve l</w>
bu ild</w>
ans w
m en
d ge</w>
c y</w>
ent ly</w>
pi e
e du
any thing</w>
tr u
vir on
en viron
tt y</w>
bu sin
e as
c are</w>
real iz
d r
wh ile</w>
hal f</w>
mo de
go es</w>
simp le</w>
pre tty</w>
for m
se t</w>
se en</w>
mar ke
ma kes</w>
2 0</w>
cl u
mo ve</w>
li ves</w>
d in
sci enti
ph y
m en</w>
h o
jur is
juris diction</w>
ac ross</w>
br i
shi p</w>
a v
to ld</w>
5 0</w>
on ce</w>
happ en</w>
res pon
su b
su pp
su ch</w>
si ve</w>
bas ically</w>
wor ks</w>
p as
th ers</w>
s on
n er</w>
li ving</w>
c ase</w>
si c</w>
s it
m b
mi s
el se</w>
re sear
pro ject</w>
fe c
ye t</w>
st re
ot e</w>
imag ine</w>
heal th</w>
min u
al i
pic ture</w>
ll ing</w>
countr ies</w>
sa w</w>
ca r</w>
happen s</w>
ent al</w>
th ough</w>
mom ent</w>
b ad</w>
a tive</w>
it al</w>
ha ving</w>
d es</w>
b er
con nec
ti v
mem ber</w>
ok ay</w>
ama z
h and</w>
fami ly</w>
m ind</w>
d ays</w>
to p</w>
experi ence</w>
c oun
hi gh
re gi
pro te
ai r
o f
proble ms</w>
en ds</w>
as ked</w>
glob al</w>
an ce
re l
l in
la ter</w>
dis co
fi l
soci e
ide as</w>
youn g</w>
hi gh</w>
a h</w>
p op
lear n</w>
nat ure</w>
gi r
si ons</w>
ne t</w>
ros s
fe ct</w>
tion al</w>
t ain</w>
or der
o h</w>
c le
s li
amer ic
ous ly</w>
compu ter</w>
tur n</w>
in side</w>
vi de
in ste
fi c</w>
ic es</w>
sh ar
pr in
every body</w>
busin ess</w>
st ri
plan et</w>
m ach
le ad
bi o
ter i
pro cess</w>
hi story</w>
su per
c er</w>
reas on</w>
s aying</w>
no thing</w>
bot h</w>
si x</w>
cont in
bor der</w>
p ati
incre di
lan gu
st ates</w>
ot o
v ol
var_ p</w>
ross B
rossB order
rossBorder Status</w>
eiopa-Base:has C
eiopa-Base:hasC rossBorderStatus</w>
comp any</w>
c ross</w>
sing le</w>
whe ther</w>
with in</w>
al most</w>
st an
k in
vi s
su c
ol s</w>
loo ks</w>
ur al</w>
ou ght</w>
cel ls</w>
p at
beau ti
thou s
chi ld</w>
in a</w>
fr on
bi llion</w>
ev ol
ap s</w>
al ready</w>
f ar</w>
br ing</w>
wr ong</w>
di se
re member</w>
mu sic</w>
fo re
w ard</w>
ke ep</w>
ei ght</w>
s ity</w>
tic s</w>
gu y</w>
comm uni
our s</w>
pos sible</w>
ge st</w>
ma te</w>
g n
pro f
b ac
won der
tr ue</w>
can cer</w>
mo ther</w>
p er</w>
d ar
h ope</w>
c ent
beauti ful</w>
loo ked</w>
he ard</w>
e mp
tu res</w>
in te
or der</w>
of ten</w>
v en
i ous</w>
v o
mat ter</w>
l ow</w>
ag es</w>
amp ;</w>
& amp;</w>
m ul
w ar</w>
sol u
m ic
en ces</w>
gh ts</w>
f as
ex p
ser v
n ational</w>
ta tion</w>
ma teri
indi a</w>
d ra
vide o</w>
20 0
o ce
mon ths</w>
amaz ing</w>
grou p</w>
answ er</w>
pro gr
ph oto
comm unity</w>
sh o
publi c</w>
ase d</w>
s ou
ge ts</w>
pie ce</w>
organ iz
some one</w>
go d</w>
th ir
stor ies</w>
st er
univer se</w>
ur ing</w>
u .
my self</w>
hou se</w>
un ti
c ed</w>
be ha
3 0</w>
f re
di es</w>
ta king</w>
plac es</w>
buil t</w>
inste ad</w>
ch all
uni ted</w>
st ate</w>
sin ce</w>
f ro
al ity</w>
unti l</w>
resear ch</w>
edu cation</w>
d an
at t
s ter</w>
mi dd
per son
wor ds</w>
p or
is n</w>
fe el
f ol
our selves</w>
i d</w>
0 s</w>
some times</w>
m al
ac tion</w>
un der</w>
is su
ic k
elec tr
speci es</w>
g l
ap e</w>
d ent</w>
s s
hun dre
0 ,000</w>
re su
su m
o thers</w>
ac y</w>
govern ment</w>
deci ded</w>
some body</w>
contro l</w>
. .</w>
. ..</w>
je cts</w>
e st</w>
c tion</w>
le r</w>
ul t</w>
t un
inter net</w>
e ur
cou ple</w>
tak ing
taking I
takingI D</w>
sur ance
surance U
suranceU n
suranceUn der
suranceUnder takingID</w>
n suranceUndertakingID</w>
eiopa-Base:hasI nsuranceUndertakingID</w>
tur ns</w>
langu age</w>
ra ther</w>
os p
col le
li es</w>
ta in
fi g
pow er
ni ght</w>
ex ac
exac tly</w>
sh ed</w>
midd le</w>
happ y</w>
vi du
indi vidu
ar ti
he art</w>
vie w</w>
ti ci
was n</w>
di rec
kin ds</w>
every one</w>
ate ly</w>
ap er</w>
no v
du ce</w>
cent ur
ye ah</w>
it self</w>
k il
do m</w>
u p
t able</w>
pos i
gr ound</w>
ai l
comple tely</w>
am es</w>
the m
them selves</w>
f er
minu tes</w>
lar ge</w>
im als</w>
an imals</w>
stud ents</w>
sto p</w>
socie ty</w>
sc ri
bi r
ad d
t as
s cal
beca me</w>
ap pe
t ow
ru n</w>
g ame</w>
le vel</w>
b ly</w>
wo man</w>
e le
cep t</w>
mu st</w>
jo b</w>
bi g
w in
ic k</w>
ex pe
ar chi
happen ing</w>
au di
mode l</w>
fron t</w>
re li
mi c</w>
wor d</w>
pop ul
sh are</w>
o il</w>
in du
1 00</w>
en s</w>
beha vi
ne t
lear ned</w>
hu ge</w>
he ar</w>
environ ment</w>
stu dy</w>
e p
fri ends</w>
cre ated</w>
b ab
americ a</w>
3 ;</w>
1 ;</w>
&#9 3;</w>
&#9 1;</w>
n er
t ro
ver ed</w>
thir d</w>
p le
p ain
show s</w>
ne ws</w>
de mo
h ours</w>
si on
k ind</w>
i can</w>
w on</w>
oper ation</w>
l ab
sig n
nat ural</w>
li ter
dise ase</w>
c os
gu ys</w>
ul ly</w>
ar i
re co
in nov
s ound</w>
me as
al ong</w>
t in
wor ked</w>
s or
hu m
tu al</w>
ou ldn</w>
ch ina</w>
vi sion</w>
photo grap
per h
perh aps</w>
d ence</w>
ques tions</w>
partic ular</w>
am s</w>
opp ort
am oun
n a</w>
k new</w>
o c
te ach
al low
ve ly</w>
er ing</w>
ain st</w>
ag ainst</w>
tur ned</w>
l os
gr ad
cou ldn</w>
mo ving</w>
fig ure</w>
l ots</w>
ear ly</w>
ch ing</w>
are a</w>
a w
oun ds</w>
ga ve</w>
b s</w>
d uring</w>
con si
ain s</w>
or din
oce an</w>
lear ning</w>
centur y</w>
bu r
b en
p ast</w>
ex i
t or</w>
marke t</w>
amer ican</w>
sti tu
ph one</w>
ta kes</w>
kn own</w>
str y</w>
p t</w>
b lo
ai l</w>
le ast</w>
in de
spe c
m ental</w>
r an
es ted</w>
cl os
te st</w>
in ning</w>
out side</w>
mach ine</w>
eng ine
d ru
re st</w>
fin ally</w>
ob vi
g le</w>
en ing</w>
l ls</w>
vis or</w>
techno logi
lo cated</w>
y or
syste ms</w>
m as
be h
wonder ful</w>
ce ll</w>
u es</w>
he ad</w>
h or
enti re</w>
b an
t on</w>
si cal</w>
diff ic
su g
nee ds</w>
in i
c ra
vi ation
viation Local</w>
super visor</w>
sh ort</w>
gleif-base:has A
gleif-base:hasA b
gleif-base:hasAb bre
gleif-base:hasAbbre viationLocal</w>
fro m</w>
eiopa-Base:has N
eiopa-Base:hasN C
eiopa-Base:hasNC A</w>
differ ence</w>
di g
add ress</w>
tak en</w>
r un
ar ds</w>
o ver
m ber</w>
th re
se ven</w>
in es</w>
st ance</w>
st a
fa ther</w>
cul ture</w>
j our
to m</w>
phy s
lli ons</w>
fi sh</w>
thous ands</w>
pl ay
l u
archi te
an ima
ar ly</w>
sur pri
mi l
e ld</w>
ci r
rel ation
b al
wh ate
whate ver</w>
pat ter
ty p
rec or
power ful</w>
1 5</w>
s is</w>
re la
yor k</w>
popul ation</w>
p ot
enti al</w>
ap pro
ad v
par ts</w>
f ar
en ted</w>
beg inning</w>
see ing</w>
an ci
bre a
beh ind</w>
pro vi
m ing</w>
y our
your self</w>
lea ve</w>
gi ven</w>
e yes</w>
d ly</w>
chang ed</w>
cer tain</w>
si bi
gr ow</w>
ar gu
tiv ity</w>
ti ce</w>
p hi
ke y</w>
sp end</w>
ima ge</w>
scal e</w>
di ed</w>
t ou
ma l</w>
be d</w>
e mo
par ents</w>
comp an
audi ence</w>
te le
n a
c ost</w>
ter ms</w>
sp i
o ks</w>
ab solu
v el
si ze</w>
pr ac
p ur
f ree</w>
sp ir
eas y</w>
th y</w>
is m</w>
fin i
can not</w>
s our
inter ested</w>
in clu
wal k</w>
mo ve
gre en</w>
medi a</w>
ma j
econom ic</w>
an ts</w>
ro b
ex tre
cur r
comm on</w>
amoun t</w>
cen ter</w>
g ing</w>
e m</w>
bu y</w>
te am</w>
go o
for ce</w>
diffic ult</w>
at s</w>
reli gi
k ers</w>
beg an</w>
at ure</w>
st age</w>
se qu
lo cal</w>
e vi
de ath</w>
in stitu
fu ll</w>
f li
ver age</w>
ch ed</w>
h y
an ding</w>
ri s
ct or</w>
cl as
u s
inv ol
c ity</w>
t ot
ra di
h ands</w>
m er</w>
k er</w>
h on
c y
bo oks</w>
pr op
gi n</w>
g one</w>
en cy</w>
simp ly</w>
s ite</w>
ne ur
lon ger</w>
con ver
r ai
pres ent</w>
m ed</w>
e ts</w>
p aper</w>
nee ded</w>
tr ac
su al</w>
sp ent</w>
res our
realiz ed</w>
qu ick
fri end</w>
incredi ble</w>
ei ther</w>
sur vi
ci ties</w>
wee k</w>
su dd
know le
de li
col lec
de al</w>
bl ack</w>
tri ed</w>
p sy
hum ans</w>
val ue</w>
c op
e qu
ci vi
iz e</w>
d en</w>
ase s</w>
m p</w>
c ks</w>
grow th</w>
quick ly</w>
for ward</w>
e m
u ses</w>
tra di
me ss
ca te</w>
hel p
sur face</w>
om s</w>
for tun
de scri
con di
sit u
me an
d ers</w>
comple x</w>
at ten
tr an
sit ting</w>
fe et</w>
compan ies</w>
s .</w>
e f</w>
fi eld</w>
we st</w>
wat ch</w>
w ouldn</w>
re vol
l ost</w>
d na</w>
ste p</w>
gir l</w>
at or</w>
par t
logi cal</w>
bl ue</w>
knowle dge</w>
cle ar</w>
c le</w>
bor n</w>
e t
ti s
struc ture</w>
p ay</w>
ne i
in ve
g ar
mi les</w>
a x
c ted</w>
po or</w>
b ased</w>
4 0</w>
m ine</w>
d ro
b loo
wee ks</w>
vi ol
te mp
sou th</w>
anima l</w>
p a
on d</w>
m os
li sh</w>
fu n</w>
fe lt</w>
econom y</w>
cen tr
e at</w>
wh ite</w>
technologi es</w>
poli tical</w>
ordin ary</w>
im pro
behavi or</w>
t on
real ity</w>
grow ing</w>
opport unity</w>
me t</w>
chang es</w>
br ought</w>
mb ers</w>
comp as
ou gh
li ke
gi ving</w>
stre et</w>
se a</w>
fol low
r ow</w>
mor ning</w>
any one</w>
te lling</w>
pos ed</w>
e mer
wr ote</w>
re p
h op
f ly</w>
n ers</w>
com pe
e d
pati ents</w>
ne y</w>
m it</w>
the ory</w>
su st
con v
h old</w>
develop ed</w>
vi ll
person al</w>
fl u
f ur
u res</w>
str u
o x
mo der
imag es</w>
are as</w>
progr am</w>
feel ing</w>
de ca
tic ally</w>
regi ster</w>
n ice</w>
in ed</w>
gleif-L1:hasLegal Name</w>
per i
gi ves</w>
f ast</w>
ca mer
wr ite</w>
the ma
ma thema
lab or
h osp
underst anding</w>
u. s.</w>
scienti sts</w>
ori g
di e</w>
con sci
char ac
all ow</w>
u ght</w>
s cre
am ed</w>
te xt</w>
s mar
pre dic
su n</w>
f lo
atten tion</w>
tr ain
tur al</w>
liter ally</w>
hu man
d am
cli mate</w>
see ms</w>
op s</w>
he ad
disco vered</w>
to ols</w>
enti ally</w>
cu t</w>
th an
spe ak</w>
nu mbers</w>
fil m</w>
cer tain
mo vi
materi al</w>
ex c
es pe
c us</w>
realiz e</w>
pro duce</w>
c ars</w>
a ter</w>
ti vely</w>
si l
sh ing</w>
en ge</w>
chall enge</w>
br o
a verage</w>
ri ed</w>
ma in</w>
ar ing</w>
absolu tely</w>
pati ent</w>
iz ed</w>
fre e
f ine</w>
sh ape</w>
le g
spe a
hundre ds</w>
run ning</w>
qu e</w>
per form
individu al</w>
bot tom</w>
ac cess</w>
al one</w>
resu lt</w>
nor mal</w>
mi llions</w>
develop ing</w>
phy sical</w>
no body</w>
pl aying</w>
o s</w>
move ment</w>
in ation</w>
gir ls</w>
ci ally</w>
str an
d en
b ar
z er
for ms</w>
cre ating</w>
ch es</w>
a vi
rec ently</w>
fa v
eng lish</w>
de ep</w>
au th
re le
moder n</w>
ke t</w>
av ail
var i
sibi lity</w>
p ul
compas sion</w>
reco gn
we b</w>
n uc
f oun
an al
show ed</w>
demo cr
c ing</w>
bu n
wi sh</w>
sust ain
produc t</w>
for d</w>
com b
y e</w>
sol ution</w>
qu ality</w>
la b</w>
ki d</w>
ine se</w>
chang ing</w>
ad e</w>
lli g
know s</w>
inte llig
in ess</w>
develop ment</w>
relation ship</w>
r ate</w>
pr om
maj or</w>
fo cus</w>
any body</w>
ter ri
la w</w>
tin y</w>
see m</w>
obvi ously</w>
ma p</w>
ef fec
d ings</w>
bac k
mo ved</w>
innov ation</w>
indu stry</w>
comp li
ben ef
ar en</w>
nuc le
fer ence</w>
tal ked</w>
like ly</w>
desig ned</w>
dar k</w>
che mi
ch inese</w>
so on</w>
me t
se ver
se cur
incredi bly</w>
co ol</w>
be gin</w>
as tr
6 0</w>
1 2</w>
u se
sa ve</w>
revol ution</w>
n y</w>
medi cal</w>
espe cially</w>
eas i
c ess
bloo d</w>
nei gh
issu e</w>
ca tions</w>
w all</w>
supp ort</w>
st and</w>
m oun
ag ed</w>
ac hi
ul arly</w>
tre at
re g
nor th</w>
ha ven</w>
experi ment</w>
evol ution</w>
di ver
bo ard</w>
avail able</w>
g n</w>
univer sity</w>
secur ity</w>
on line</w>
l ap
d ou
connec ted</w>
c es
be comes</w>
re f
happ iness</w>
ef fect</w>
y ond</w>
sol ve</w>
be yond</w>
per fect</w>
li z
as h</w>
t end</w>
n on
li ved</w>
gen e
fun dam
expl ain</w>
19 9
wr iting</w>
re si
ple ase</w>
ma in
big ger</w>
ab o
t an
sour ce</w>
materi als</w>
ing ly</w>
g ames</w>
nec ess
gu ess</w>
ff ici
en ly</w>
reas ons</w>
situ ation</w>
resour ces</w>
gr and
gener ation</w>
ex tra
ag ing</w>
adv an
eur ope</w>
as i
s al
me dic
i se</w>
imp act</w>
f all</w>
compu ters</w>
pu tting</w>
g en</w>
dev ice</w>
s qu
off ice</w>
grou ps</w>
fe ar</w>
dri ve</w>
te lls</w>
net work</w>
l ate</w>
exper im
dig ital</w>
d y
ch r
2 5</w>
ru les</w>
pro g
h ol
d a</w>
wi n</w>
scho ols</w>
re qui
ou d</w>
mo le
mole cu
me et</w>
f an
es ti
te m
mis sion</w>
ki ll</w>
ho od</w>
g t</w>
di men
chall eng
te ach</w>
e ast</w>
de ad</w>
cl ass</w>
bab y</w>
tech ni
sh e
lin es</w>
il li
f ully</w>
t ors</w>
pic tures</w>
i cal</w>
car e
car b
bo x</w>
tow ards</w>
te x
speci al</w>
sever al</w>
scienti fic</w>
vo ice</w>
s le
read ing</w>
en ded</w>
chan ce</w>
z y</w>
invol ved</w>
gener al</w>
g ed</w>
de gre
con cer
archite c
ve lo
so f
si mil
simil ar</w>
re ly</w>
issu es</w>
de pen
partic ularly</w>
teach ers</w>
sudd enly</w>
su ally</w>
low er</w>
k y</w>
inde ed</w>
col or</w>
wr it
re pres
pl ant</w>
jo h
if ic
sol ar</w>
prin ci
on to</w>
s un
s af
pro jects</w>
or ies</w>
er ed</w>
bre ak</w>
tici p
t own</w>
t ary</w>
s ounds</w>
ris k</w>
plan ts</w>
ex pen
an i
pl as
m a</w>
le t
f am
evi dence</w>
bas ic</w>
as king</w>
u al</w>
r ing</w>
ex ci
wor th</w>
su p
psy cho
li ties</w>
hundre d</w>
certain ly</w>
in tro
w ing</w>
ste n</w>
st and
li sten</w>
l ts</w>
tru th</w>
s we
rob ot</w>
mess age</w>
il ls</w>
bo y</w>
ac tivity</w>
vill age</w>
ter r
tal ks</w>
ob ject</w>
e st
app li
any way</w>
wan ts</w>
in k</w>
e g
cho ice</w>
uc k</w>
tri bu
conver s
con ne
ca mp
spe ed</w>
b a
w ind</w>
ter m</w>
str ong</w>
m ou
ll ow</w>
d ance</w>
ar ed</w>
ac tive</w>
st ay</w>
op en
mor al</w>
li st
if e</w>
examp les</w>
do or</w>
colle ge</w>
co de</w>
ate st</w>
star ts</w>
oll ow</w>
h it</w>
e th
e -
de t
d ow
n ine</w>
con struc
suc cess
show ing</w>
s ted</w>
pr oper
posi tive</w>
h y</w>
sy n
se cre
in vi
fur ther</w>
exc iting</w>
every where</w>
e ye</w>
e qui
tw are</w>
sp read</w>
sof tware</w>
smar t</w>
sk in</w>
re ach</w>
pri v
no tice</w>
li st</w>
imp os
h ow
beli ev
en ding</w>
bu l
su ff
p ac
en ter
velo p</w>
tot ally</w>
sh if
jour ney</w>
intere st</w>
ic ity</w>
ev en
de velop</w>
wal king</w>
pot ential</w>
meas ure</w>
di sc
carb on</w>
b an</w>
ac her</w>
wa it</w>
t le</w>
sion al</w>
s ent</w>
or ity</w>
opp ed</w>
nucle ar</w>
mal e</w>
extra ordinary</w>
democr acy</w>
big gest</w>
1 1</w>
sug ge
st an</w>
s it</w>
re mar
pres sion</w>
peri od</w>
h our</w>
g ot
f ollow</w>
con fli
sy m
mon th</w>
me ly</w>
b all</w>
ad d</w>
ro ad</w>
g as</w>
am ong</w>
s end</w>
me chan
in st
g es</w>
de st
de ser
ver s</w>
stud ent</w>
patter n</w>
goo gle</w>
ex tr
er ci
pic k</w>
even tually</w>
dan ger
pre si
m ass</w>
gre w</w>
cal cul
ti z
sm al
pl an</w>
orig in
n amed</w>
min i
in ten
hosp ital</w>
fan tas
ear li
e ffici
de fini
contin u
buil dings</w>
ver ty</w>
po verty</w>
per spec
pe ace</w>
in spi
extre mely</w>
ex cept</w>
avi d</w>
te acher</w>
st ore</w>
medic ine</w>
jo bs</w>
j ap
inter national</w>
for t</w>
di st
ca use</w>
appro ach</w>
vi sual</w>
suc cess</w>
poin ts</w>
hi v</w>
ess entially</w>
com par
at ures</w>
we b
typ e</w>
pe ct</w>
organiz ation</w>
li fe
le ad</w>
u sually</w>
produc ts</w>
plan e</w>
ob jects</w>
fo cu
di d</w>
contin ue</w>
8 0</w>
wat ching</w>
t ar
sti c
ma g
gal ax
e ly</w>
camer a</w>
y p
tre es</w>
s wi
resu lts</w>
ma gi
ter n
fortun ately</w>
d avid</w>
ar m</w>
t om
sti c</w>
ol der</w>
gh ter</w>
ct ors</w>
wor l
some where</w>
r en
li ar</w>
lar gest</w>
grad u
electr icity</w>
ef ully</w>
ric ul
p an
fe cts</w>
con su
br ains</w>
wh o</w>
wh en</w>
star t</w>
sign ific
sep ar
quar ter</w>
ph en
phen om
phenom en
nu mber</w>
la un
l un
im medi
he adquarter
headquarter s</w>
ha ve</w>
h an
gleif-base:has Entity
gleif-base:hasEntity Status</w>
gleif-base:has C
gleif-base:hasC ity</w>
enti ty</w>
ver sion</w>
ser ies</w>
movi e</w>
m ous</w>
fi re</w>
col labor
c ru
stan ding</w>
some how</w>
min ds</w>
l ose</w>
f ai
en jo
c lo
b ers</w>
shi ps</w>
remar k
di ag
o ds</w>
is h</w>
expe ct</w>
do ctor</w>
2 00</w>
ter ia</w>
te d
stu dies</w>
se x</w>
saf e</w>
p age</w>
mul ti
indu stri
impos sible</w>
c lear
anal y
ac coun
thr ough
minu te</w>
lar ger</w>
high er</w>
cre ative</w>
sur ger
sh own</w>
ne w
lead ers</w>
expen sive</w>
enti on
cra zy</w>
thous and</w>
sor ts</w>
ser ious</w>
allow ed</w>
ste m</w>
sel f
self -
mo m</w>
ma tic</w>
h om
tou ch</w>
su s</w>
pie ces</w>
osp here</w>
inclu ding</w>
in flu
il lu
fac es</w>
abo ve</w>
w ife</w>
ther ef
theref ore</w>
t ch</w>
o od</w>
mode ls</w>
kil led</w>
fav or
beau ty</w>
5 00</w>
wi de</w>
ul ti
fin ding</w>
ar -
tem per
t ree</w>
prof es
con sum
train ing</w>
tradi tional</w>
se ll</w>
ri can</w>
mean ing</w>
individu als</w>
d om
condi tions</w>
c in
architec ture</w>
af rican</w>
v ac
tru st</w>
sup posed</w>
sc en
posi tion</w>
mo bi
go al</w>
exci ted</w>
d on
bac teria</w>
tru ly</w>
perspec tive</w>
compli cated</w>
w ei
r ich</w>
produc tion</w>
mu se
l a</w>
hi m
dru gs</w>
cir cu
viol ence</w>
to ol</w>
ta ught</w>
st ars</w>
fami lies</w>
conne ct</w>
wo od</w>
su e</w>
p ol
dru g</w>
cri sis</w>
ce le
writ ten</w>
war ds</w>
v ity</w>
up on</w>
li tary</w>
heal thy</w>
favor ite</w>
fantas tic</w>
en or
el s</w>
de te
as se
treat ment</w>
scre en</w>
ro le</w>
fas ter</w>
fam ous</w>
f al
dre am</w>
b es</w>
ari ly</w>
t -
ri se</w>
regi on</w>
r ay</w>
ok en</w>
le y</w>
le n</w>
in come</w>
gh tly</w>
fi gu
communi ties</w>
bio logy</w>
we ster
re ci
pr os
ma th</w>
incre as
him self</w>
f ing
conv in
ci tiz
ali ve</w>
a ge
neur ons</w>
man u
wor se</w>
st ati
par ticip
le s
l and
form ed</w>
through out</w>
respon se</w>
me ant</w>
m r
free dom</w>
stri bu
sk ills</w>
s an
rec ei
mi r
la u
di stribu
de p
al though</w>
success ful</w>
ran ge</w>
human ity</w>
fundam ental</w>
fi ght</w>
d au
cont ent</w>
bun ch</w>
zer o</w>
sh ot</w>
pr ice</w>
p ain</w>
ni a</w>
l uc
gen es</w>
ad s</w>
1 8</w>
ke pt</w>
inv ented</w>
h ot</w>
fo ot
f le
bo dies</w>
serv ice</w>
s ke
p al
m b</w>
earli er</w>
br a
stran ge</w>
poli cy</w>
ici al</w>
got ten</w>
f low
emp lo
colle ag
clear ly</w>
centr al</w>
be ings</w>
at ors</w>
squ are</w>
smal ler</w>
recogn ize</w>
mi litary</w>
con text</w>
con cept</w>
an ti
af gh
ye ar-
vel s</w>
sh ap
secon ds</w>
phys ics</w>
patter ns</w>
gh ting</w>
ca ses</w>
an tly</w>
ach ed</w>
se s
r or</w>
prog ress</w>
ing ing</w>
fami liar</w>
cho ose</w>
mach ines</w>
m it
m ent
g ni
ch ri
won der</w>
wi se</w>
wester n</w>
tr ou
than ks</w>
sh a
cos ts</w>
solu tions</w>
ri ghts</w>
p tion</w>
de ter
cep tion</w>
americ ans</w>
allow s</w>
a p</w>
was te</w>
val ues</w>
tre at</w>
str ai
ri d</w>
recor d</w>
lo ved</w>
list ening</w>
l led</w>
he y</w>
cre ati
any where</w>
ac tual</w>
y ed</w>
str ate
sk y</w>
s low</w>
presi dent</w>
gre ater</w>
consi der</w>
con tribu
c k
b and</w>
r ap
plas tic</w>
mas sive</w>
dri ving</w>
d ad</w>
re ct</w>
provi de</w>
ox y
on ic</w>
jour n
e se</w>
ar tic
wa iting</w>
t or
re duc
muse um</w>
in fr
hi c</w>
fl ow</w>
effec tive</w>
danger ous</w>
bri dge</w>
br u
ac tions</w>
was h
s low
religi on</w>
magi c</w>
m ers</w>
h ab
deci sions</w>
de f
year- old</w>
si ght</w>
prote ct</w>
pre ci
n one</w>
in se
how ever</w>
compe ti
cele br
wh ose</w>
wh er
wal ked</w>
remark able</w>
leg al</w>
l ay
fas cin
dra w</w>
cri tical</w>
con ference</w>
tra vel</w>
ro bot
robot s</w>
phi los
philos op
is ms</w>
intellig ence</w>
exp lo
diver sity</w>
convers ation</w>
aw are</w>
arti st</w>
any more</w>
teach ing</w>
surger y</w>
photograp h
mon str
le gs</w>
gr a
de b
c ei
ac ci
0 0,000</w>
ther n</w>
ru le</w>
poli tics</w>
joh n</w>
in fec
foun d
f fe
curr ent</w>
civi liz
be coming</w>
ag ricul
19 8
pro ces
ini ti
fore st</w>
fi ed</w>
connec tion</w>
as soci
v al</w>
sp ac
s wit
exi st</w>
direc tion</w>
cle an</w>
cl in
ton i
sustain able</w>
sub ject</w>
pu ll</w>
mi sta
immedi ately</w>
fu el</w>
con tr
c ked</w>
b om
af ter
underst ood</w>
t v</w>
sp or
par k</w>
incre ase</w>
gre atest</w>
fin anci
engine ering</w>
as su
ar ri
web site</w>
s ong</w>
o id</w>
hi stor
gene tic</w>
enor mous</w>
tr op
sen s
ous ness</w>
o re
m ot
land sc
flo or</w>
fl ying</w>
en cour
deca de</w>
de monstr
vir us</w>
sli de</w>
sequ ence</w>
prac tice</w>
p ose</w>
n ur
li ber
ju sti
i al</w>
fo ot</w>
environ mental</w>
e ting</w>
cul tural</w>
ter y</w>
st y
creati vity</w>
b ank</w>
air s</w>
ve h
veh ic
st ers</w>
re pr
repr en
rai se</w>
mo tiv
marke ts</w>
fun ction</w>
f ru
ent repren
do cu
c ket</w>
b at
a de
w er
wer en</w>
w eight</w>
tele vision</w>
si a</w>
phys ici
photograp h</w>
mar s</w>
for get</w>
follow ing</w>
comple te</w>
co ld</w>
var ious</w>
tu m
survi ve</w>
re por
for th</w>
for ces</w>
dis appe
c row
ag ree</w>
ad ap
ab les</w>
un fortunately</w>
tr ain</w>
temper ature</w>
si mul
serv ices</w>
produc ed</w>
p ress</w>
p oll
net works</w>
de sp
use ful</w>
uni que</w>
shar ed</w>
priv ate</w>
play ed</w>
perform ance</w>
l ands</w>
h and
er y</w>
do g</w>
di vi
d ama
prin t</w>
os i
ne ar</w>
gl ass</w>
expl or
do ctors</w>
confli ct</w>
ch air</w>
cap ac
al ing</w>
ta ins</w>
sum mer</w>
re cent</w>
op ti
op e
n ar
mp tion</w>
me eting</w>
iz ation</w>
inde pen
in stru
f os
eng th</w>
co ver</w>
br inging</w>
a head</w>
tre men
tremen d
st ar</w>
spea king</w>
spe e
poli ce</w>
pas sion</w>
help ed</w>
h ole</w>
fun c
fe ed</w>
comm it
co o
ac ti
5 ,000</w>
tr ade</w>
socie ties</w>
p ath</w>
mu sc
la ws</w>
is la
fun ny</w>
fin al</w>
bab ies</w>
b os
x i
v ic
typ es</w>
si bly</w>
r an</w>
pos sibly</w>
origin al</w>
mos tly</w>
inte gr
institu tions</w>
evol ved</w>
direc tly</w>
ma tically</w>
le vels</w>
in c
if or
bo ys</w>
as h
ar ts</w>
we ap
t a</w>
shar ing</w>
ple as
lon don</w>
li ghts</w>
infr astr
infrastr uc
i an</w>
experim ents</w>
disco ver</w>
consci ousness</w>
tr ack</w>
ph ones</w>
inspi red</w>
gen ome</w>
g ent
ef fects</w>
chemi cal</w>
ther ap
sor ry</w>
sig n</w>
sear ch</w>
prof ess
mo on</w>
mic ros
go l
gen e</w>
financi al</w>
care er</w>
be low</w>
we a
speci fic</w>
se x
no tic
is land</w>
indi an</w>
dr .</w>
ai ds</w>
9 0</w>
t op
he at</w>
consi der
con clu
terri ble</w>
t al</w>
sur r
s mo
pre v
o -
govern ments</w>
challeng es</w>
c ure</w>
we al
ti tu
stru g
obvi ous</w>
n os
l ad
in spir
expl ore</w>
ep ing</w>
emo tional</w>
e ma
dest ro
bir ds</w>
ap h
ani stan</w>
afgh anistan</w>
win d
scienti st</w>
s at</w>
it h</w>
inve st
disc us
deci de</w>
cap ital</w>
arti sts</w>
anci ent</w>
age ment</w>
7 0</w>
wor kers</w>
rela ted</w>
h ur
en ced</w>
deci sion</w>
comp on
ci es</w>
br illi
bi ll</w>
b ought</w>
wi lling</w>
tw ice</w>
t ask</w>
in stance</w>
ev ent</w>
con duc
clas s
ca uses</w>
z z
x ity</w>
vie w
tur ning</w>
tion ary</w>
stan tly</w>
sle ep</w>
qu e
mobi le</w>
me th
ga z
focu sed</w>
din os
comple xity</w>
wor ry</w>
strai ght</w>
sti ck</w>
infrastruc ture</w>
communi cation</w>
co ffe
clos er</w>
car ry</w>
bio logical</w>
ai ls</w>
tu be</w>
sp ending</w>
sli ghtly</w>
o d
la w
dow n
de si
de m
chr is</w>
charac ter</w>
capac ity</w>
camp ai
bir th</w>
worl d
surpri sing</w>
pu sh</w>
neigh bor
molecu les</w>
is ra
intro duc
en tation</w>
dise ases</w>
deca des</w>
d ying</w>
c ting</w>
tri al</w>
stre am</w>
s me
r op
pur pose</w>
pre par
mi le</w>
manu fac
j a
il l
f air
dev ices</w>
1 6</w>
secre t</w>
in t
er a</w>
bu d
v ul
vul ner
the tic</w>
sh el
s y</w>
qu ick</w>
pop ular</w>
mem ory</w>
ge o
ex ten
u g
trou ble</w>
st om
signific ant</w>
extr a</w>
di a</w>
com for
bal ance</w>
al ized</w>
ur ban</w>
tremend ous</w>
pres sure</w>
ph o
f it</w>
desig ners</w>
dau ghter</w>
coffe e</w>
cel l
cal ls</w>
tri cal</w>
supp ly</w>
resear ch
mem bers</w>
k en
ifor nia</w>
i gn</w>
fas hi
f ail
e ating</w>
degre es</w>
citiz ens</w>
cal ifornia</w>
b on
answ ers</w>
ac ting</w>
wor st</w>
u sual</w>
s amp
ru s
me ters</w>
m osphere</w>
i ra
grap hic</w>
fac t
e k</w>
at mosphere</w>
ap art</w>
ag re
we l
ro oms</w>
radi o</w>
pas sed</w>
par al
p ass</w>
p aid</w>
industri al</w>
grad e</w>
et c</w>
col lap
che ck</w>
acti vi
s al</w>
princi p
no tion</w>
ne s
n ation</w>
ma tely</w>
justi ce</w>
differ ences</w>
d ol
cre ates</w>
communi cate</w>
br oken</w>
am p</w>
u ne
stic s</w>
publi shed</w>
moun tain</w>
me x
ma gaz
impro ve</w>
he aring</w>
am a</w>
ain ed</w>
stan ces</w>
st ation</w>
ro ck</w>
ric hard</w>
notic ed</w>
met aph
e cos
ecos y
char ge</w>
bl ind</w>
1 0,000</w>
see med</w>
s an</w>
phenomen on</w>
oxy gen</w>
logi st</w>
found ation</w>
econom i
af fec
sy mp
se lec
respon sibility</w>
re pe
r om
pp ed</w>
hu s
help ing</w>
en ess</w>
e dge</w>
di tion</w>
de s
colleag ues</w>
tran si
stud ying</w>
oc cu
n ations</w>
feel s</w>
far mers</w>
easi ly</w>
b its</w>
ad ul
ac cep
ti sh</w>
supp or
sty le</w>
sc ul
s and</w>
r ace</w>
progr ams</w>
plan ets</w>
ne arly</w>
en ting</w>
e ding</w>
de fin
de e
cor ner</w>
bas is</w>
achi eve</w>
1 ,000</w>
wind ow</w>
tis sue</w>
stor s</w>
partic les</w>
par ty</w>
organiz ations</w>
cap it
3 00</w>
tot al</w>
te ch</w>
stand ard</w>
si des</w>
shif t</w>
s ent
pain ting</w>
mar y</w>
li e</w>
landsc ape</w>
high -
h ome
h air</w>
dro p</w>
advan t
z e
re turn</w>
re duce</w>
organ isms</w>
imag ination</w>
el ds</w>
dom in
co gni
au l</w>
wi s
sta ur
re staur
ori th
ni ger
neigh b
necess arily</w>
know ing</w>
high ly</w>
gi ant</w>
g orith
electr ic</w>
d an</w>
cr af
cl ai
al gorith
a ur
19 7
tu i
stre ets</w>
st opped</w>
religi ous</w>
pos sibility</w>
per fec
o es</w>
necess ary</w>
my ster
in tui
fi x</w>
f light</w>
f air</w>
en d
cor por
condi tion</w>
cho ices</w>
at temp
ac ts</w>
uni ties</w>
st one</w>
ser ve</w>
relation ships</w>
pr ot
opport unities</w>
ira q</w>
inter act</w>
civi l</w>
achi ev
te en
struc tures</w>
sol di
s ac
pri son</w>
lo ad</w>
lead s</w>
ju d
fini shed</w>
figu red</w>
differ ently</w>
desp ite</w>
ch ur
benef it</w>
y ou
ver ing</w>
un e</w>
ulti mately</w>
ti ves</w>
r aid</w>
profess or</w>
prof it</w>
organ ic</w>
mis sing</w>
ga tive</w>
eng ine</w>
doll ar</w>
br ings</w>
argu ment</w>
si tes</w>
sa fe
pri ze</w>
mom ents</w>
mo ves</w>
ma m
luc ky</w>
lon g
li br
inte l
i er</w>
i de</w>
g ers</w>
f lies</w>
ef fort</w>
defini tion</w>
bir d</w>
al tern
ac ade
vis it</w>
str on
sequ ences</w>
o ther
mr .</w>
mathema tics</w>
l ying</w>
jo in</w>
f our
desig ner</w>
de cl
cor ru
con serv
bu b
at ory</w>
ye llow</w>
ser i
re ve
non -
les son</w>
lead ing</w>
fore ver</w>
fore ign</w>
emo tions</w>
e ty</w>
comfor table</w>
benef its</w>
b oun
agricul ture</w>
a i</w>
2 ,000</w>
z en</w>
we ll
w ri
ti n</w>
str ic
s ch
res pect</w>
pu zz
no ise</w>
new sp
hel ps</w>
heal th
fair ly</w>
brilli ant</w>
att ack</w>
an n
z ed</w>
s op
ot yp
mag ne
logi sts</w>
g if
extre me</w>
entrepren eur
dou b
diag nos
con fi
comm erci
bro ad
ber t</w>
1 4</w>
wis dom</w>
vol un
tici ans</w>
suff ering</w>
slow ly</w>
sion ate</w>
pu ts</w>
pre vi
pen gu
mar k</w>
h i</w>
fre qu
fos si
ent ally</w>
eng age</w>
e li
d ents</w>
co ast</w>
as ia</w>
af raid</w>
shar es</w>
par ent</w>
op pos
nu tri
mu sli
mat ters</w>
le ts</w>
jap an</w>
ge or
fe male</w>
engine ers</w>
cre atures</w>
c ore</w>
bi llions</w>
au to
app ly</w>
adul ts</w>
thr ow</w>
tal ity</w>
ta tions</w>
scul p
po e
pl at
n ote</w>
gh t
fac e
face book</w>
ele ments</w>
effici ent</w>
e ment</w>
de ep
cy cle</w>
c king</w>
brea k
an a</w>
af ford</w>
ac cur
y a</w>
ter ed</w>
t ail</w>
st ant</w>
ri ver</w>
ra in
progr am
long -
l y
gu e</w>
fr en
fren ch</w>
fascin ating</w>
edu ca
disco very</w>
dis as
competi tion</w>
bre ad</w>
beg ins</w>
am i</w>
ac cor
vir tual</w>
v ast</w>
tur ing</w>
sym me
le ss
influ ence</w>
hop efully</w>
experi ences</w>
easi er</w>
e u
di stance</w>
br an
be es</w>
ac k
wal ls</w>
val ent</w>
ty pi
typi cal</w>
stati stics</w>
se ctor</w>
sa ving</w>
s ick</w>
respon d</w>
rep ort</w>
pro found</w>
ne l</w>
mo thers</w>
los s</w>
identi ty</w>
grap h</w>
fi ghting</w>
fashi on</w>
chil d
che ap</w>
cap able</w>
19 6
wi ld</w>
wh al
tr af
traf fic</w>
sur ge
lea ving</w>
cu stom
cri me</w>
consci ous</w>
ca ught</w>
bri tish</w>
au str
app ed</w>
trans l
respon sible</w>
ne gative</w>
ir an</w>
i or</w>
fi elds</w>
f ra
f er</w>
enjo y</w>
em brac
br other</w>
bo at</w>
ad op
a be
val u
surr oun
spee ch</w>
sh ouldn</w>
rep li
r ying</w>
pain t</w>
other wise</w>
opp ing</w>
off er</w>
mou se</w>
meas u
magaz ine</w>
invest ment</w>
import antly</w>
he av
gre en
fr an
deser t</w>
ch ick
car to
bre ast</w>
b att
al ization</w>
res sed</w>
ref lec
re ver
rai sed</w>
quot e</w>
qui d</w>
o logy</w>
me at</w>
lo g
inve st</w>
inse cts</w>
ex tin
dre ams</w>
descri be</w>
col ors</w>
campai gn</w>
b one</w>
a di
well -
sudd en</w>
stu died</w>
so ld</w>
princip les</w>
nor m
norm ally</w>
ing ton</w>
hol ding</w>
galax y</w>
fe llow</w>
de a
ach es</w>
wh i
t an</w>
sp o
si ster</w>
seri ously</w>
ot ing</w>
oc cur
molecu le</w>
mex ic
invi sible</w>
fi ll</w>
f ul
every day</w>
engine er</w>
ef s</w>
econom ics</w>
dama ge</w>
att ac
trans form</w>
thre e-
su it</w>
sibi lities</w>
r d</w>
oppos ite</w>
oper ating</w>
langu ages</w>
intel lec
he ld</w>
gu n</w>
gent le
enti rely</w>
en ter</w>
demo cra
degre e</w>
d ai
am bi
ach ing</w>
spir it</w>
on y</w>
mi gr
l ack</w>
j an
hus band</w>
fl u</w>
fil led</w>
ex hi
ev ents</w>
es ses</w>
de pression</w>
craf t</w>
con centr
civiliz ation</w>
beli ef</w>
air plane</w>
vac c
ste ps</w>
prote in</w>
princi ple</w>
pho to</w>
mi ted</w>
ma tes</w>
li mited</w>
kil ome
ge ly</w>
ep ide
desi re</w>
deli ver</w>
dd en</w>
concer ned</w>
ca tch</w>
be at</w>
artic le</w>
arti f
argu e</w>
1 3</w>
ye ster
yester day</w>
x ed</w>
w ow</w>
tow ard</w>
temp or
profes sional</w>
plac ed</w>
lin k</w>
lab or</w>
go s</w>
desig ning</w>
deep ly</w>
believ ed</w>
back ground</w>
app reci
advant age</w>
2 4</w>
wh en
when ever</w>
we ar</w>
war ming</w>
therap y</w>
st uck</w>
res ol
r ot
predic t</w>
oce ans</w>
na mic</w>
man aged</w>
m ention
institu te</w>
increas ingly</w>
h ad
follow ed</w>
fai led</w>
eur ope
dy namic</w>
dimen sional</w>
commerci al</w>
co 2</w>
child hood</w>
c les</w>
blo ck</w>
wor k
wash ington</w>
ver sus</w>
tran spor
tom or
tomor row</w>
th row
t ent</w>
surpri se</w>
spec tr
p ages</w>
h ate</w>
gal l
g ate</w>
evi l</w>
de st</w>
d ry</w>
b ase</w>
ar ms</w>
ad a</w>
x es</w>
wh om</w>
weal th</w>
wa ve</w>
u tionary</w>
thin ks</w>
the ater</w>
separ ate</w>
s ate
sate lli
re ma
perfec tly</w>
open ed</w>
n as
hor ri
fr ag
elec trical</w>
cop y</w>
consu mption</w>
con stantly</w>
cir cle</w>
char les</w>
br it
al ia</w>
accor ding</w>
we aring</w>
te x</w>
r ough
qu es</w>
prev ent</w>
p aul</w>
op ini
op ening</w>
n it
is ter</w>
gener ate</w>
far m</w>
fail ure</w>
emp ow
c as
be l</w>
app le</w>
a thy</w>
vi ru
viru ses</w>
un less</w>
survi val</w>
photo s</w>
p ounds</w>
p it
mexic o</w>
j i
har der</w>
four th</w>
fact ory</w>
dimen sions</w>
de fine</w>
comp are</w>
ari an</w>
4 00</w>
wi l
sp ring</w>
metaph or</w>
mat ch</w>
li n</w>
ju mp</w>
gr av
g an
e th</w>
de part
de l
curr ently</w>
class room</w>
astr on
vo ices</w>
univer sal</w>
stu di
st ac
spac es</w>
sh es</w>
o be
mou th</w>
ke ts</w>
ke eping</w>
isra el</w>
intellig ent</w>
indepen dent</w>
gr y</w>
galax ies</w>
g ri
exper ts</w>
exi st
emplo ye
deter min
chur ch</w>
c ard</w>
br and</w>
al ism</w>
af fect</w>
ad ver
wor ried</w>
wei rd</w>
volun te
vie ws</w>
ve y</w>
tum or</w>
train ed</w>
t ough</w>
struc tion</w>
sp on
rele v
r ural</w>
prop os
pres sed</w>
ot h</w>
mon it
maj ority</w>
lead er
leader ship</w>
lea ves</w>
inc enti
in ing</w>
head s</w>
fing er</w>
f la
dra wing</w>
cre ation</w>
coun t</w>
cogni tive</w>
ch imp
and a</w>
vi su
ven tion</w>
tre ated</w>
tele sc
supp ose</w>
so il</w>
sign als</w>
sign al</w>
shap es</w>
s la
ran dom</w>
prot otyp
prac tic
oc c
li c
fac i
exi sts</w>
equi valent</w>
din ner</w>
deb ate</w>
corru ption</w>
compar ed</w>
ca used</w>
1 .
x -
u t</w>
u m
tu m</w>
sp ort</w>
sh ou
nar ra
li c</w>
it ation</w>
it able</w>
inste in</w>
in ci
hi dden</w>
has n</w>
gradu ate</w>
gh ten
e instein</w>
cor tex</w>
busin esses</w>
artif icial</w>
app ing</w>
z o
wher e
vehic le</w>
val ley</w>
thre at</w>
sp here</w>
sho es</w>
res er
re present</w>
plan ning</w>
neighbor hood</w>
musc le</w>
mic als</w>
lay er</w>
invi ted</w>
he ll</w>
ema il</w>
contin ent</w>
che micals</w>
ar a
ap ers</w>
ag en
weap ons</w>
strate gy</w>
re m
p aying</w>
mor tality</w>
mention ed</w>
me ter</w>
mal ar
malar ia</w>
lun ch</w>
let ter</w>
lad y</w>
jap an
japan ese</w>
ho les</w>
fac ts</w>
ex pression</w>
du e</w>
descri bed</w>
construc tion</w>
co vered</w>
be ar</w>
wea ther</w>
vic ti
tu red</w>
to i
suc ce
sp ot</w>
ro bo
pr oud</w>
pl us</w>
inter pre
ic tion</w>
high est</w>
gener ations</w>
feel ings</w>
dinos aur
dinosaur s</w>
collec tive</w>
ca mp</w>
am ing</w>
world wide</w>
wa ke</w>
viol ent</w>
st ate
se ly</w>
sa v
rop ri
mo tion</w>
mis sions</w>
je c
inv esti
inter action</w>
ex plan
e co
di rect</w>
cl oud</w>
brit ain</w>
app ropri
a war
5 0,000</w>
20 th</w>
sti mul
se at</w>
n ames</w>
multi ple</w>
mar ri
laun ched</w>
ke ys</w>
for ced</w>
emer ging</w>
dou ble</w>
distribu tion</w>
bra z
ali st</w>
ag s</w>
ag ers</w>
un k</w>
ro ll</w>
per cei
organiz ed</w>
mic ha
micha el</w>
mi d
men ted</w>
los ing</w>
k ore
hy dro
eng land</w>
can ada</w>
are ly</w>
ar r
appe ar</w>
an ge
1 7</w>
techni cal</w>
s m</w>
min ister</w>
libr ary</w>
le st</w>
kil ling</w>
inter face</w>
ho te
gar den</w>
g or
fe ll</w>
f at</w>
ex erci
dr ink</w>
det ails</w>
cor al</w>
con sequences</w>
colle ct</w>
ac tor</w>
v es
tri als</w>
th u
te eth</w>
surpri sed</w>
sme ll</w>
s l
rough ly</w>
resour ce</w>
rem ote</w>
r ates</w>
produc ing</w>
pa th
p ment</w>
p il
opti mi
nor thern</w>
movi es</w>
let ters</w>
law y
intellec tual</w>
im m
hon est</w>
hom es</w>
heav y</w>
grand mother</w>
gr as
gr and</w>
europe an</w>
equi pment</w>
equ al</w>
emo tion</w>
det ail</w>
depart ment</w>
con cep
clos ed</w>
ch ain</w>
b ase
aw ful</w>
av oid</w>
associ ated</w>
ar my</w>
tri p</w>
studi o</w>
sop hi
pleas ure</w>
n ic
lo cation</w>
k it
jo y</w>
is tic</w>
grap h
fru str
form ing</w>
ele ph
democra tic</w>
cont act</w>
co al</w>
an o</w>
1 00,000</w>
wa ves</w>
ve ge
trans formation</w>
sho p</w>
sc an
reg ul
occ asi
ob ses
ob serv
less ons</w>
ini cal</w>
go ld</w>
fe ed
feed back</w>
en e
disas ter</w>
cl inical</w>
ch en</w>
cel er
br own</w>
acci dent</w>
ac celer
war m</w>
us ers</w>
the sis</w>
sym bo
spectr um</w>
s ad</w>
reg ular</w>
qu a
play er</w>
pe t</w>
niger ia</w>
lead er</w>
le g</w>
le ct</w>
j ames</w>
import ance</w>
illu str
i g
had n</w>
h all</w>
geor ge</w>
ga ther
def en
de aling</w>
d ness</w>
cul tures</w>
cri min
chemi stry</w>
absolu te</w>
ab str
4 5</w>
where as</w>
w ine</w>
under ne
underne ath</w>
thou ghts</w>
ten s</w>
sto od</w>
soldi ers</w>
sh all</w>
s ici
research ers</w>
proper ty</w>
pos sibilities</w>
part ner</w>
mu sici
mo lec
molec ular</w>
kilome ters</w>
ken ya</w>
fin ish</w>
effec tively</w>
ch ap
c ope</w>
bri ght</w>
austr alia</w>
ar m
accoun t</w>
v ous</w>
ter n</w>
sug gest</w>
su m</w>
spec if
specif ically</w>
sol ved</w>
simp li
r ac
pas s
or ders</w>
ner vous</w>
nat ur
mar ried</w>
ke e
it ual</w>
hou ses</w>
he li
fossi l</w>
emp ty</w>
chick en</w>
bud get</w>
b les</w>
at ur
arri ved</w>
ad ly</w>
3 d</w>
wi ki
transi tion</w>
sug ar</w>
shar ks</w>
sen si
sa ved</w>
ro ots</w>
rec y
radi cal</w>
pro ce
prac tical</w>
po le</w>
pa ki
ne go
nego ti
moun tains</w>
met al</w>
lo s</w>
hon or</w>
fo ld</w>
ess ential</w>
dra w
dai ly</w>
cur ious</w>
car ds</w>
be ach</w>
all ing</w>
affec ted</w>
ad dition</w>
a th
3 5</w>
1 50</w>
w er</w>
vari ety</w>
valu able</w>
tr illi
tr ies</w>
titu de</w>
th om
thom as</w>
sugge sts</w>
stu pi
ste el</w>
se tting</w>
pl ate</w>
pic ked</w>
org ans</w>
mathema tical</w>
man agement</w>
magne tic</w>
long- term</w>
ki d
k ly</w>
k .</w>
ic ks</w>
hor se</w>
her o</w>
grow n</w>
gl am
fi f
fe wer</w>
f ail</w>
exp ress</w>
d p</w>
consider ed</w>
connec tions</w>
clo ck</w>
bre ath</w>
advan ced</w>
ad ult</w>
uni on</w>
tw o-
thr op
techni ques</w>
spo ke</w>
so li
rela tively</w>
re fu
re action</w>
prote ction</w>
pro ve</w>
pre gn
pe cted</w>
p e</w>
go als</w>
gif t</w>
g ain</w>
fun d</w>
fol ks</w>
di r
di et</w>
charac ters</w>
cal ling</w>
c ros
archite ct</w>
ann oun
v ote</w>
ty pic
typic ally</w>
th ri
st un
sour ces</w>
sophi sti
sil k</w>
requi re</w>
r ain</w>
produc tive</w>
pres er
pp er</w>
plat form</w>
photograph s</w>
newsp aper</w>
mi x</w>
mi ss</w>
meth od</w>
mean ing
mar ine</w>
inv en
inven tion</w>
in fin
imp li
hosp it
fr ame</w>
est ab
employe es</w>
d ots</w>
convin ce</w>
bu ying</w>
b ar</w>
altern ative</w>
tar get</w>
scen e</w>
relev ant</w>
pri me</w>
play ers</w>
low -
it u
grav ity</w>
fl at</w>
expl ains</w>
experi enced</w>
exist ence</w>
evol utionary</w>
epide mic</w>
enti ons</w>
en coun
dem and</w>
ci l</w>
analy sis</w>
w ars</w>
tradi tion</w>
swi m</w>
se as
restaur ant</w>
previ ous</w>
prepar ed</w>
pl u
per ception</w>
nas a</w>
n ose</w>
life time</w>
i dentif
identif y</w>
enter tain
dar win</w>
d le</w>
b ing</w>
awar eness</w>
ad ed</w>
abi lities</w>
win ter</w>
vulner able</w>
vide os</w>
u t
to x
sent ence</w>
sc r
safe ty</w>
res sive</w>
repres ents</w>
re ward</w>
radi ation</w>
pri mary</w>
per cent
m ur
kit chen</w>
increas ing</w>
in ner</w>
h am
h a</w>
grap hy</w>
effici ency</w>
ecosy stem</w>
ear th
circu m
bu sh</w>
br others</w>
bat tery</w>
ban g</w>
ali ties</w>
ain ing</w>
z one</w>
wit ter</w>
vol u
te sting</w>
t witter</w>
shou l
sel ling</w>
se ction</w>
sc o</w>
ro ads</w>
ris ks</w>
res h</w>
r ound</w>
proper ties</w>
prom ise</w>
person ally</w>
om y</w>
mot or</w>
marke ting</w>
la dies</w>
introduc ed</w>
ill ness</w>
hab it
h ei
gr an
fi shing</w>
fac tor</w>
f resh</w>
environ ments</w>
ention al</w>
defini tely</w>
dee per</w>
col um
cap e</w>
ac cept</w>
1 ,
y wood</w>
un like</w>
tan e
swit ch</w>
strug gle</w>
res sion</w>
prote ins</w>
proces ses</w>
pri vi
pat ent</w>
org an</w>
men tion</w>
instru ment</w>
ex change</w>
elec tro
e mb
convin ced</w>
confi dence</w>
chri st
bu tt
behavi ors</w>
ax is</w>
an gle</w>
ad o
200 8</w>
wonder ing</w>
wiki pe
wikipe dia</w>
var d</w>
tr ick</w>
the me</w>
tern al</w>
stupi d</w>
str ength</w>
sen ses</w>
sen ding</w>
s pl
ro of</w>
requi res</w>
re place</w>
r are</w>
poli ticians</w>
plan es</w>
or al</w>
natur ally</w>
mista ke</w>
min d
marri age</w>
m aps</w>
li ked</w>
lap top</w>
it i</w>
har vard</w>
ger many</w>
gener ally</w>
ga p</w>
fac ing</w>
eas tern</w>
e missions</w>
e cu
direc tor</w>
coo king</w>
bu s</w>
batt le</w>
ate n</w>
win dow
window s</w>
wat ched</w>
un usual</w>
s atur
recei ved</w>
r ational</w>
qu it
psycho logy</w>
pl ays</w>
pengu ins</w>
par a
para dig
pac i
paci fic</w>
os ci
neur osci
mi n</w>
ju mp
inter n
goo ds</w>
expe cted</w>
cr ash</w>
compon ents</w>
ch a
bot tle</w>
au d
appli ed</w>
a bu
2 1
vi sible</w>
u. k.</w>
sh ort
sex ual</w>
sci pl
reas on
pul led</w>
li quid</w>
h its</w>
fra me
do gs</w>
di scipl
defin ed</w>
con g
chimp an
chimpan ze
charac ter
cen ters</w>
car efully</w>
ap art
ance stors</w>
ag er</w>
- year-old</w>
trilli on</w>
tra ge
strate gi
st able</w>
shar k</w>
run s</w>
re di
poe try</w>
percent age</w>
pas sionate</w>
or an
no vel</w>
no on</w>
mu m</w>
mon y</w>
ment ary</w>
l ay</w>
ing redi
discus sion</w>
d it</w>
cre dit</w>
collabor ation</w>
cli ck</w>
car rying</w>
ca te
bro ke</w>
blo cks</w>
ati ves</w>
appropri ate</w>
ad mini
wi re</w>
ti le</w>
ste ve</w>
sh ir
ro bert</w>
re ven
os ity</w>
o i
no tes</w>
mu sical</w>
mista kes</w>
mir ror</w>
mal es</w>
labor atory</w>
k ne
is on</w>
inv ent</w>
hospit als</w>
health care</w>
g ation</w>
fr anci
franci sco</w>
fa ith</w>
emp athy</w>
dri ver</w>
dre w</w>
consum er</w>
compu ting</w>
collap se</w>
cl ou
bur ning</w>
brea king</w>
braz il</w>
b low
9 9</w>
1 8
v ag
une x
un it</w>
ul f</w>
tempor ary</w>
te sts</w>
situ ations</w>
satelli te</w>
poll ution</w>
neighb ors</w>
n am
man i
mani pul
logi c</w>
intro duce</w>
in king</w>
hor iz
hop ing</w>
g ulf</w>
g ay</w>
exerci se</w>
esti mate</w>
dri ven</w>
dis play</w>
depen ds</w>
contro lled</w>
com fort</w>
chri sti
bub ble</w>
at trac
anal o
wri ter</w>
three- dimensional</w>
t les</w>
swi m
sou thern</w>
sh ad
rob es</w>
pi ano</w>
ph an
pe ak</w>
opini on</w>
mil k</w>
mic robes</w>
medi um</w>
man age</w>
m as</w>
intere sts</w>
in ti
in ev
hote l</w>
explor ation</w>
explan ation</w>
encour age</w>
dr opped</w>
de struction</w>
clos ely</w>
cap ture</w>
b ay</w>
you tube</w>
wh el
ve ment</w>
v an</w>
sto ck</w>
sophisti cated</w>
sol ving</w>
ri de</w>
re min
qu est</w>
p ack</w>
ow s</w>
over whel
ma gn
isla m</w>
inspir ation</w>
in sight</w>
gen cy</w>
g rid</w>
exp an
entrepreneur s</w>
ele ment</w>
crow d</w>
con tain
at lan
an cy</w>
adver ti
ad ded</w>
3 ,000</w>
vel ing</w>
ulti mate</w>
tra veling</w>
t ons</w>
sing ing</w>
si mi
s mile</w>
re ached</w>
qui et</w>
pres entation</w>
pp ing</w>
meaning ful</w>
j os
inclu de</w>
form er</w>
fore sts</w>
flow ers</w>
fi sh
er ror</w>
er al</w>
eg gs</w>
clai m</w>
at oms</w>
ara b</w>
activi ties</w>
7 5</w>
2 000</w>
z ing</w>
v ei
tre ating</w>
transpor tation</w>
tas te</w>
sun light</w>
si r</w>
ri dic
resi li
recor ded</w>
qu an
quan tum</w>
pres ence</w>
move ments</w>
le gi
l as
innov ative</w>
hi g
h am</w>
h ac
frame work</w>
fac tors</w>
en ty</w>
electr onic</w>
cu tting</w>
cre te</w>
comb ination</w>
bl ing</w>
bal lo
b ic
au ton
as pect</w>
as ks</w>
ap es</w>
am on
19 5
wher ever</w>
wal ks</w>
view ed</w>
top ic</w>
technologi cal</w>
st ress</w>
sh ame</w>
religi ons</w>
rel ate</w>
re less</w>
r ou
pre dat
pl ans</w>
o gen
hur t</w>
hol ds</w>
gen i
f alling</w>
ex pres
educa tional</w>
dra matic</w>
conclu sion</w>
collec tion</w>
cate g
camer as</w>
c ow</w>
ay ed</w>
an der
amoun ts</w>
wi red</w>
use r</w>
u. n
u.n .</w>
toni ght</w>
th day</w>
te ams</w>
t ables</w>
stron ger</w>
samp le</w>
rele ase</w>
rela tive</w>
prote cted</w>
pain t
occur red</w>
ob ser
ner ship</w>
mu sh
manufac turing</w>
li ver</w>
li cen
is ol
in t</w>
i p
hydro gen</w>
hy po
fundam entally</w>
en cing</w>
economi sts</w>
circum stances</w>
ca m
bir thday</w>
algorith ms</w>
admini str
200 7</w>
vacc ine</w>
the s</w>
surge on</w>
sur vey</w>
str ing</w>
sig ned</w>
se ts</w>
se es</w>
sc ot
pro je
pol len</w>
ox ide</w>
out come</w>
open -
oll ywood</w>
jo ke</w>
institu tion</w>
incre ased</w>
her oes</w>
gr ain</w>
glo be</w>
fortun ate</w>
fi le</w>
fa ke</w>
expl osi
e ars</w>
dy nam
dri ves</w>
dd ed</w>
comb ine</w>
co ordin
bi n</w>
bi a</w>
attemp t</w>
asse mb
archite cts</w>
after noon</w>
abstr act</w>
techni que</w>
t ape</w>
swim ming</w>
spl it</w>
se tt
sa tis
res cu
ren e
rene w
re mind</w>
rap i
rapi dly</w>
pe cts</w>
part ners</w>
ol y
lo ck</w>
infec ted</w>
in jur
i ties</w>
gol den</w>
gentle men</w>
g dp</w>
fi cation</w>
fal ls</w>
exper t</w>
exp and</w>
dete ct</w>
decl ine</w>
cor rect</w>
col li
bos ton</w>
behavi oral</w>
b le
accur ate</w>
6 00</w>
vi a</w>
trac king</w>
tis m</w>
sha ke</w>
ro cket</w>
po p</w>
po o
paradig m</w>
par king</w>
paki stan</w>
on ed</w>
mo di
measu red</w>
liter ature</w>
li m
in si
h en
g ling</w>
g ence</w>
ex act</w>
er ic</w>
en ed</w>
dis h</w>
de vi
cur ve</w>
cre ature</w>
continu ed</w>
con fu
comb ined</w>
clou ds</w>
ca ting</w>
b ones</w>
as toni
ap par
adv ice</w>
wonder ed</w>
well- being</w>
w ai
vi br
under water</w>
t at
sustain ability</w>
sig ns</w>
sho ot</w>
regi ons</w>
re main</w>
re gre
por tra
philosop hy</w>
ph r
per form</w>
paral le
mir ac
me d
lau gh
intern al</w>
fe eding</w>
fe atures</w>
exi sting</w>
exhi bi
ev ening</w>
deter mine</w>
d un
cur i
cour t</w>
corpor ate</w>
cong ress</w>
be t</w>
b age</w>
auth ority</w>
as ter
ar ab
youn ger</w>
st af
staf f</w>
recor ds</w>
poli o</w>
phys ically</w>
particip ate</w>
op tions</w>
op tion</w>
mon keys</w>
m on</w>
laun ch</w>
kee ps</w>
k no
instru ments</w>
i on</w>
h os
gu ar
g ment</w>
fun ding</w>
fin ance</w>
ex ecu
eng aged</w>
d ary</w>
cul ar</w>
cu mul
conv entional</w>
consi st
connec ting</w>
challeng ing</w>
cer e
c at</w>
b ow</w>
appli cations</w>
y l
worl ds</w>
un clear</w>
trans formed</w>
tou ched</w>
thre at
swe et</w>
stor y
son gs</w>
selec tion</w>
scri pt</w>
s tion</w>
rever se</w>
re ference</w>
que en</w>
pri son
po em</w>
po cket</w>
paral y
pac k
ma kers</w>
lin ked</w>
lar gely</w>
is lands</w>
i ly</w>
horri ble</w>
ha iti</w>
gar d
fle w</w>
fing ers</w>
f ying</w>
embrac e</w>
emb arr
embarr as
defen se</w>
dea ths</w>
de di
dan cing</w>
comp os
cli p</w>
cli mb</w>
chi ca
chica go</w>
c ro
c ers</w>
blo g</w>
ac qui
21 st</w>
vill ages</w>
ven ture</w>
unex pected</w>
te mber</w>
t ol
sub jects</w>
spe ct
simpli city</w>
sep tember</w>
s w
rema ins</w>
ra w</w>
prin ting</w>
pr oto
perform ing</w>
o tic</w>
myster y</w>
mic ro
mess ages</w>
mechan ical</w>
l atest</w>
joh n
har d
fu els</w>
expe c
entertain ment</w>
eli min
elec tion</w>
desig ns</w>
con crete</w>
compon ent</w>
clas sic</w>
bic y
at tr
ad mit</w>
20 10</w>
y pt</w>
wi reless</w>
victi ms</w>
un known</w>
u pper</w>
tom o
te sted</w>
te a</w>
st ands</w>
sou l</w>
some what</w>
read s</w>
re ti
p ort</w>
p ay
on e-
ob ama</w>
narra tive</w>
mas ter</w>
li ghting</w>
k ness</w>
in her
i gn
fil ms</w>
figu res</w>
eg ypt</w>
dr ag
direc tions</w>
concep ts</w>
clo thes</w>
cho col
ca using</w>
c kets</w>
c ents</w>
bur n</w>
bu sy</w>
bom b</w>
b in
auth or</w>
au tomo
as si
wh o
th in</w>
sensi tive</w>
sculp ture</w>
s ons</w>
s kill</w>
s can</w>
pr ices</w>
pot entially</w>
per man
or che
orche str
nei ther</w>
mem ber
ma ker</w>
it arian</w>
i ed</w>
ger man</w>
fran kly</w>
f y</w>
expl ained</w>
ex cell
des per
de man
dan ger</w>
collec ted</w>
centur ies</w>
celebr ate</w>
bu cks</w>
b y
as ing</w>
af for
volu me</w>
ven i
ul ous</w>
tion ing</w>
telesc ope</w>
su sp
se v
scr at
sa har
rele ased</w>
recor ding</w>
r wan
r hy
ph ins</w>
n or</w>
it ting</w>
identi cal</w>
hou sing</w>
green house</w>
func tions</w>
emp i
earth qua
doub t</w>
dol phins</w>
convers ations</w>
bu dd
bor ing</w>
bo xes</w>
bar ri
ba g</w>
afric ans</w>
200 5</w>
y o</w>
vehic les</w>
v ation</w>
symme try</w>
sm all
sh ut</w>
resi stance</w>
per si
par is</w>
paint ings</w>
p has
phas e</w>
p apers</w>
p air</w>
occu r</w>
ne st</w>
musli m</w>
mis m</w>
ma d</w>
lo vely</w>
la ke</w>
l ength</w>
in tri
in put</w>
impli cations</w>
i phone</w>
i i</w>
he a
gr ay</w>
gh ters</w>
fle xi
ex pon
en able</w>
di abe
dep end</w>
conserv ation</w>
con stant</w>
char ity</w>
chap ter</w>
chan nel</w>
care ful</w>
blo g
ac tors</w>
we ak</w>
tici an</w>
ti tle</w>
terr ori
tech n
st ayed</w>
spi der</w>
soli d</w>
simi lar
rus sia</w>
ro ot</w>
requi red</w>
on e
obses sed</w>
ne u
m ble</w>
lun g</w>
hand le</w>
gener ated</w>
gen om
g ps</w>
explor ing</w>
equ ation</w>
e ful</w>
dis order</w>
consum ers</w>
commit ment</w>
clin ic</w>
cle ver</w>
clas ses</w>
ca ble</w>
bi ke</w>
app o
ac ces
ab led</w>
7 0s</w>
6 0s</w>
19 th</w>
z a</w>
y ment</w>
tr end</w>
ti ll</w>
su rely</w>
sc ared</w>
r and
puzz le</w>
p en</w>
oly mp
obe sity</w>
nit ure</w>
n an
meas uring</w>
me ss</w>
li mit
k ing
king dom</w>
j ac
inter view</w>
infin ite</w>
in d
hi ll</w>
geni us</w>
fur niture</w>
fr ance</w>
distribu ted</w>
dist in
dis orders</w>
di v
di al
com pl
co ok</w>
ch ose</w>
certain ty</w>
auto matically</w>
allow ing</w>
2 1</w>
zo om</w>
whi st
ug anda</w>
t ops</w>
t oms</w>
t all</w>
symp toms</w>
sc ore</w>
r ad
r ab
r a</w>
qu anti
pregn ant</w>
power ed</w>
pi le</w>
ori ties</w>
optimi stic</w>
op posed</w>
mechan ism</w>
mar ch</w>
jo ined</w>
j er
is ted</w>
inspir ing</w>
in su
imp le
ici de</w>
grow s</w>
fac ial</w>
extin ct</w>
ex isted</w>
estab li
es ome</w>
em be
embe dded</w>
economi st</w>
e ar</w>
dra matically</w>
cle an
cl ay</w>
christ mas</w>
c tic</w>
br on
aw esome</w>
ag ency</w>
ac tiv
ves sel
vessel s</w>
tr icks</w>
te e</w>
state ment</w>
shap ed</w>
rus si
ri sing</w>
reco very</w>
re move</w>
ra m</w>
r ors</w>
provi ding</w>
produc tivity</w>
pow ers</w>
pi r
physici st</w>
per su
pe ter</w>
organ ism</w>
no where</w>
mon key</w>
mam m
inter active</w>
hun ger</w>
her self</w>
happ ier</w>
fal se</w>
divi ded</w>
de cre
chocol ate</w>
car ried</w>
c ast</w>
bl u
au tism</w>
ase r</w>
argu ments</w>
ad am</w>
ac ted</w>
u min
t our</w>
t ate</w>
surroun ded</w>
stand ards</w>
s now</w>
rom an
roman tic</w>
rel ation</w>
proces sing</w>
poo rest</w>
p ure</w>
p ost</w>
or bit</w>
on y
o ted</w>
micros cope</w>
loo p</w>
lau gh</w>
ju dge</w>
jec tive</w>
incre ases</w>
ide al</w>
i te
har ve
graph ics</w>
fac ed</w>
f an</w>
econom ies</w>
do ors</w>
dir ty</w>
depen ding</w>
dep lo
con go</w>
communi cations</w>
bu st</w>
brea the</w>
ap pl
ali an</w>
al ph
ab sor
whal es</w>
trans late</w>
tex as</w>
syn thetic</w>
swe den</w>
struc k</w>
sil ence</w>
sev ere</w>
se r</w>
samp les</w>
s mi
s che
s and
re ment</w>
r ice</w>
psycho logical</w>
ph arm
pain ful</w>
out comes</w>
osi tion</w>
orig ami</w>
me et
meet ings</w>
ll o</w>
life style</w>
li an</w>
le tting</w>
l ler</w>
inten se</w>
incenti ves</w>
imm une</w>
he llo</w>
h eight</w>
gr ass</w>
fr ank</w>
ene my</w>
divi de</w>
d h</w>
con veni
can di
bac teri
asi de</w>
appreci ate</w>
affor d
- up</w>
y ra
yra mi
wan ting</w>
vir tually</w>
u. s</w>
tri g
th al</w>
tele phone</w>
st ingly</w>
so ft</w>
so -
so- called</w>
smo ke</w>
sli des</w>
she ep</w>
se cure</w>
sav ings</w>
s na
resol ution</w>
rel ations</w>
re member
ra p</w>
proper ly</w>
partic le</w>
p yrami
main ly</w>
journ alist</w>
isla mic</w>
inv ent
intere stingly</w>
inspi re</w>
ing u
i op
habit at</w>
gu st</w>
gen der</w>
fro zen</w>
f are</w>
eth iop
enter ed</w>
ed it
e c
dynam ics</w>
disappe ared</w>
destro yed</w>
der ek</w>
den sity</w>
cor n</w>
com e
chi p</w>
butt on</w>
bro ad</w>
bar re
ali sts</w>
agre ed</w>
after wards</w>
200 9</w>
20 ,000</w>
wh at
w are</w>
vulner ability</w>
ti ous</w>
tas ks</w>
spir itual</w>
si vely</w>
si de
ses sion</w>
rhy th
pu shing</w>
preci sely</w>
phi li
p ort
oran ge</w>
off ers</w>
off ered</w>
n ame
musc les</w>
mi ser
log ically</w>
la tin</w>
la ted</w>
kore a</w>
in struc
il legal</w>
i um</w>
hi de</w>
hea ven</w>
gran ted</w>
func tional</w>
fri ghten
flo ating</w>
ex tent</w>
equ ally</w>
dr inking</w>
do zen</w>
dev as
circu it</w>
c up</w>
c .</w>
bri ef</w>
bi ble</w>
auth enti
att ached</w>
assu me</w>
adverti sing</w>
- time</w>
y i
wi lli
whal e</w>
tr uck</w>
toi let</w>
ti e</w>
tane ously</w>
t ar</w>
stric t</w>
st ro
spect ac
spe ct</w>
sho oting</w>
rwan da</w>
ru b
ro cks</w>
re t
psy chi
psychi at
pres ented</w>
pres cri
practic es</w>
pl enty</w>
phr ase</w>
photograp hy</w>
phi n</w>
p un
om os
ob stac
n ai
motiv ation</w>
mb ing</w>
l ou
intui tive</w>
in sur
illu sion</w>
i sed</w>
hou se
har dly</w>
gra b</w>
gle s</w>
foot age</w>
fe ature</w>
exhibi tion</w>
electr on
disappe ar</w>
des k</w>
coun cil</w>
contro ver
co ck
chr omos
ballo on</w>
back wards</w>
attac ks</w>
appli cation</w>
appe ars</w>
an gry</w>
acade mic</w>
200 4</w>
x- ray</w>
x ing</w>
trage dy</w>
throw n</w>
ta g</w>
t- hand</w>
t wi
symbo l</w>
suff er</w>
sp oken</w>
shoul der</w>
she et</w>
s ar
ref lect</w>
reduc tion</w>
provi ded</w>
prob ability</w>
pre fer</w>
popul ations</w>
pl om
pe st</w>
over all</w>
od d</w>
occasi on
n e</w>
musli ms</w>
multi p
mr i</w>
main tain</w>
m c
lo cked</w>
lif t</w>
j el
govern ance</w>
f loo
en h
earthqua ke</w>
draw n</w>
di plom
di oxide</w>
den se</w>
de ce
curi osity</w>
contro lling</w>
cha os</w>
ch art</w>
brea thing</w>
brea ks</w>
be ll</w>
b f</w>
appe ared</w>
agen da</w>
ac cumul
4 ,000</w>
whe el</w>
wel come</w>
v an
tox ic</w>
tow er</w>
tol er
ti an</w>
ta x</w>
succe ed</w>
stan ford</w>
sp reading</w>
si ties</w>
si lic
silic on</w>
sc ary</w>
robo tic</w>
repres ented</w>
re plac
re aching</w>
psy ch
provi des</w>
prototyp e</w>
prop or
privi le
privile ge</w>
paralle l</w>
ol dest</w>
off icial</w>
no bel</w>
lin ks</w>
leg acy</w>
ir on</w>
fe der
feder al</w>
fascin ated</w>
et ary</w>
eleph ant</w>
dist ant</w>
diabe tes</w>
contr ast</w>
con tains</w>
con sequence</w>
col on
bl ow</w>
beha ve</w>
be er</w>
astron om
adap t</w>
y right</w>
whe el
un its</w>
u ary</w>
trans par
transpar ency</w>
trans forma
the less</w>
tal ent</w>
sp ots</w>
sk y
se as</w>
rep air</w>
rand om
person ality</w>
pass eng
pal est
ox ford</w>
over come</w>
neur on</w>
ne ts</w>
ment ally</w>
man h
manh att
manhatt an</w>
lim its</w>
licen se</w>
la be
l ens</w>
kne e</w>
jan uary</w>
iz ing</w>
innov ations</w>
imag ined</w>
i st</w>
hig gs</w>
grand father</w>
gol f</w>
glob alization</w>
gh ana</w>
g ates</w>
fortun e</w>
form ul
fli p</w>
fif th</w>
emer gency</w>
du st</w>
destro y</w>
dat ab
d ay
d ates</w>
custom ers</w>
cop yright</w>
construc t</w>
com mon
capit alism</w>
calcul ate</w>
bicy cle</w>
apart ment</w>
an ticip
ad ding</w>
y ours</w>
wi de
vi et</w>
un believ
ug ly</w>
u ti
ti ed</w>
su icide</w>
so viet</w>
secon dly</w>
seas on</w>
se ats</w>
sc ar
s w</w>
ridic ulous</w>
recogn ized</w>
re pu
repu tation</w>
photograp her</w>
op ens</w>
o ft</w>
mis sed</w>
min ing</w>
micros oft</w>
mem ories</w>
mar tin</w>
it ory</w>
industri es</w>
inclu des</w>
in al</w>
hy per
hum or</w>
histor ical</w>
he arts</w>
h ren
gu il
ge ome
fi xed</w>
fi ber</w>
fer ti
far mer</w>
f lower</w>
extr act</w>
ex am
descri bes</w>
demonstr ate</w>
d ency</w>
cour age</w>
confli cts</w>
clu b</w>
ch amp
bu t
beli efs</w>
automo bi
as pects</w>
appar ently</w>
acces sible</w>
ac i
zer o-
z es</w>
y ard</w>
volunte ers</w>
tran sport</w>
tas trop
t ank</w>
sti cks</w>
sear ching</w>
sch ol
ri es</w>
re comm
rai sing</w>
pos es</w>
po et</w>
pas sing</w>
oun ded</w>
off ic
mor ality</w>
lec ture</w>
le sc
lan ded</w>
ke y
k a</w>
invol ves</w>
in ations</w>
gu ide</w>
gn ity</w>
ga ther</w>
fo ods</w>
er adi
dro ve</w>
di gnity</w>
di g</w>
dar kness</w>
dar ies</w>
d aw
cr ying</w>
cr y</w>
con stitu
chimpanze es</w>
che aper</w>
ch ase</w>
ca tastrop
ca me
boun daries</w>
bl in
be e</w>
as ses</w>
al y</w>
ado lesc
achiev ed</w>
a bun
200 3</w>
ve led</w>
v ital</w>
ul ty</w>
tri bes</w>
tra veled</w>
tr ends</w>
ti les</w>
thir ds</w>
the ore
tex t
tal s</w>
t ack
sur faces</w>
su per</w>
spea kers</w>
sho ck</w>
se where</w>
reco gni
recogni tion</w>
re moved</w>
pi one
pe ac
p an</w>
orchestr a</w>
or ing</w>
na vi
musici ans</w>
monit or</w>
mamm als</w>
m ol
lo red</w>
j ail</w>
integr ated</w>
i b
hon est
har m</w>
fin ds</w>
faci lity</w>
expl aining</w>
elec tions</w>
ele v
el sewhere</w>
d a
cr ac
cor rec
contribu te</w>
contin ues</w>
collec ting</w>
che st</w>
br ow
bor ders</w>
bo ld</w>
blu e
astoni shing</w>
as sign
acci dents</w>
9 5</w>
1 9</w>
- scale</w>
z z</w>
ver ies</w>
tr ag
to -
ste ms</w>
spea ker</w>
shir t</w>
se t
se ed</w>
satur n</w>
sand w
s ki
ru sh</w>
reduc ed</w>
qu alities</w>
pos ter</w>
pi g</w>
pharm ac
perman ent</w>
os s</w>
ori gin</w>
neighb or</w>
ne ural</w>
lay ers</w>
ingredi ents</w>
ign ore</w>
han g</w>
gre e
gr ab
goo d
g st</w>
exc use</w>
evol ve</w>
ethiop ia</w>
es cape</w>
eng aging</w>
electron ics</w>
ele g
ecosy stems</w>
disco veries</w>
diag ram</w>
der ing</w>
dedi cated</w>
de pressed</w>
cu te</w>
crimin als</w>
consu me</w>
colleag ue</w>
co res</w>
co ca
cl ing</w>
c enti
be n</w>
be et
base ball</w>
atlan tic</w>
assemb ly</w>
architec tural</w>
ange les</w>
an tar
amon gst</w>
ali en</w>
a thei
y n
wit ness</w>
vol can
vie t
vag ina</w>
tra je
traje ct
tic a</w>
sto res</w>
st ations</w>
spectac ular</w>
small po
smallpo x</w>
sil ent</w>
shad ow</w>
sh ment</w>
separ ated</w>
scrat ch</w>
s quar
s n
recei ve</w>
real m</w>
re turned</w>
re d
r ats</w>
pyrami d</w>
pul ling</w>
produc es</w>
pol ar</w>
pil ot</w>
phi lan
philan throp
out put</w>
os en</w>
nur ses</w>
na ked</w>
man if
li kes</w>
l aser</w>
j ack</w>
initi al</w>
impro vement</w>
i ses</w>
hi re</w>
gu i
foot print</w>
fir m</w>
fil m
exten ded</w>
encoun ter</w>
emer ged</w>
edu cated</w>
dial o
commit ted</w>
col ony</w>
co operation</w>
ch osen</w>
ca ts</w>
c ash</w>
be lon
al ed</w>
air port</w>
air craft</w>
afford able</w>
9 0s</w>
200 6</w>
z hei
zhei mer</w>
wheel chair</w>
under lying</w>
un likely</w>
terr or
terror ism</w>
tal i
spor ts</w>
s au
resili ence</w>
refu ge
re act</w>
pro of</w>
predic tions</w>
predic table</w>
pre ce
poli cies</w>
po ol</w>
p es</w>
open ness</w>
o oh</w>
li mb</w>
le ton</w>
inv ite</w>
inten ded</w>
how ard</w>
hi cal</w>
han ging</w>
g y
focu sing</w>
fish er
fil ter</w>
fer ences</w>
excell ent</w>
ef ly</w>
contro ls</w>
conclu de</w>
concer n</w>
capit a</w>
cam bridge</w>
bri efly</w>
bi as</w>
b al</w>
as sum
arti stic</w>
ar ctic</w>
al zheimer</w>
200 1</w>
2 7</w>
2 50</w>
2 2</w>
vir tu
univer sities</w>
under ground</w>
treat ments</w>
th o
th ick</w>
sy l
su bur
strategi es</w>
stran gers</w>
research er</w>
rescu e</w>
repres en
r arely</w>
publi c
prop er</w>
profes sion
p ace</w>
ori da</w>
observ ation</w>
neurosci ence</w>
ne ls</w>
mo d
mi lli
mi ll
mill en
lawy ers</w>
je wish</w>
j une</w>
it er
il s</w>
guar an
glob ally</w>
gan g</w>
fron tal</w>
for ts</w>
fl orida</w>
fer red</w>
fe ars</w>
fav or</w>
fa bul
fabul ous</w>
f ed</w>
es the
eng agement</w>
emer ge</w>
ef forts</w>
dri ll</w>
diver se</w>
dinos au
dinosau r</w>
determin ed</w>
construc ted</w>
cli ents</w>
b ars</w>
announ ced</w>
al ize</w>
8 0s</w>
2 3</w>
wor ker</w>
wi d
w ings</w>
vo ca
un s</w>
uc ks</w>
u ss</w>
tr ucks</w>
ti red</w>
t ching</w>
surpri sing
surprising ly</w>
ste ven</w>
spac e
sen ior</w>
see ds</w>
sal es</w>
rou te</w>
repor ts</w>
re view</w>
ra ti
pu mp</w>
prote cting</w>
photograph ed</w>
pal m</w>
ou ter</w>
origin ally</w>
organiz e</w>
oper a</w>
occu p
o logical</w>
nutri tion</w>
mi es</w>
ma ted</w>
li mit</w>
le te</w>
journ al</w>
ir ani
inter actions</w>
inter acting</w>
instruc tions</w>
in ches</w>
i e</w>
hard ware</w>
h ollywood</w>
geo graphic</w>
g ro
frequ ency</w>
forma l</w>
foot ball</w>
ex posed</w>
eth ical</w>
disc uss</w>
deb t</w>
de mic</w>
de ar</w>
dau ghters</w>
cr ash
contr act</w>
clas sical</w>
ch y</w>
c o</w>
b o</w>
ar chy</w>
an ony
amaz on</w>
agricul tural</w>
6 5</w>
3 0s</w>
ver tical</w>
vari ation</w>
u ll</w>
tun a</w>
ter ies</w>
teen agers</w>
sub tle</w>
sub -
some day</w>
smo oth</w>
sle eping</w>
ske p
sk ull</w>
see k</w>
sac red</w>
ric her</w>
ri f
remin ded</w>
re ef</w>
r us</w>
psychiat ri
pre p
prep are</w>
pl ot</w>
par ties</w>
p ink</w>
ot a</w>
organiz ing</w>
opti mism</w>
oper ations</w>
op es</w>
on na</w>
ol ing</w>
nur se</w>
n ative</w>
meth ods</w>
m all</w>
liber al</w>
l oud</w>
k b</w>
insur ance</w>
injur y</w>
in f
hon ey</w>
histor ic</w>
h all
gu t</w>
gather ing</w>
g onna</w>
fru it</w>
fa ult</w>
fa br
fabr ic</w>
di an</w>
cri tici
con str
cli mbing</w>
cl ar
cir cles</w>
ci de</w>
chi ef</w>
che ese</w>
c tions</w>
bo om</w>
b arely</w>
b ags</w>
attr act</w>
appe ar
2 .
vac u
vacu um</w>
up set</w>
tum ors</w>
to k
tion ally</w>
te s
sugge sting</w>
sub way</w>
st ages</w>
sp inal</w>
sh ine</w>
sens ory</w>
ri gh
regre t</w>
re minds</w>
r ings</w>
prom ote</w>
predic ted</w>
plan ted</w>
pic king</w>
pharmac eu
pain ted</w>
or d</w>
mit ted</w>
mirac le</w>
men tation</w>
m m</w>
m ice</w>
l ting</w>
l aid</w>
is tics</w>
in y</w>
in no
hun gry</w>
fro g</w>
flow s</w>
fig uring</w>
fai ling</w>
ex pos
ess ence</w>
depen dent</w>
cros sing</w>
cr ops</w>
character istics</w>
carto on</w>
cap tured</w>
bu ried</w>
bron x</w>
bi om
auton om
aster oid</w>
artic les</w>
an ger</w>
an ces</w>
am ent</w>
al ty</w>
a c</w>
3 2</w>
yo r</w>
writ ers</w>
what so
whatso ever</w>
weap on</w>
view er</w>
vi si
visi ted</w>
vi n</w>
un certainty</w>
trans plant</w>
trans parent</w>
tradi tions</w>
tr au
tr ash</w>
ton y</w>
ta p</w>
t ches</w>
sy mb
symb ols</w>
su spect</w>
st airs</w>
sh r
sh it</w>
sens ors</w>
scri p
s lu
repe at</w>
reduc ing</w>
re cep
re build</w>
pur sue</w>
pu shed</w>
p in
occasion ally</w>
no ve
me mes</w>
ma yor</w>
ly fish</w>
le -
lawy er</w>
l ine
jel lyfish</w>
j un
it aly</w>
intri gu
inst all
initi ative</w>
imag ing</w>
i el</w>
hen ry</w>
gl ad</w>
gar bage</w>
g ore</w>
fun ded</w>
for gotten</w>
fa thers</w>
f iction</w>
f es
expec tations</w>
ed ges</w>
e ye
dol phin</w>
docu ment</w>
do main</w>
dep th</w>
d ress</w>
d ding</w>
cont ain</w>
con temporary</w>
cho os
cep tions</w>
bio logists</w>
ben e
be gun</w>
arri ve</w>
ar ies</w>
ar do</w>
anti bio
analy ze</w>
algorith m</w>
ai led</w>
agre ement</w>
adop ted</w>
administr ation</w>
ac u
ac compli
abu se</w>
z ens</w>
win ning</w>
vir al</w>
un cle</w>
trans fer</w>
to ber</w>
the ories</w>
te ars</w>
syn dro
syndro me</w>
success fully</w>
sub stance</w>
strug gling</w>
st ops</w>
ske leton</w>
ske let
simul ation</w>
sil ly</w>
si sters</w>
shel ter</w>
shel f</w>
she ll</w>
scen ari
scal es</w>
sal t</w>
s cores</w>
s ad
ro gen</w>
revol u
reven ue</w>
regi me</w>
re form</w>
pleas ant</w>
pi gs</w>
phan tom</w>
percei ve</w>
paraly zed</w>
ow ned</w>
oc tober</w>
ner ve</w>
mp s</w>
m ics</w>
le m
le e</w>
l ly</w>
kil ls</w>
harve st</w>
glam our</w>
gl asses</w>
g la
g ent</w>
foun ded</w>
fol ding</w>
flexi ble</w>
explosi on</w>
expe ct
expect ancy</w>
exp anding</w>
eth n
es tic</w>
ear n</w>
e ds</w>
domin ant</w>
dom estic</w>
do zens</w>
discipl ine</w>
di lem
cor respon
con trac
collabor ative</w>
ch airs</w>
car ing</w>
be d
b and
audi o</w>
at tribu
al ex
ain ts</w>
ain t</w>
19 60</w>
you th</w>
wi der</w>
w right</w>
vi o
v it
tur key</w>
traject ory</w>
trac ks</w>
to es</w>
ti p</w>
thre w</w>
surge ons</w>
st ure</w>
sp an
sou p</w>
sla very</w>
sh or
sh opping</w>
sex u
ser ved</w>
s its</w>
ri o</w>
restaur ants</w>
res on
repor ted</w>
realiz ing</w>
prof its</w>
por tion</w>
par tly</w>
ow ner</w>
or ous</w>
open- source</w>
lo ves</w>
lo aded</w>
li ve
le verage</w>
kil ler</w>
ji m</w>
intui tion</w>
insi ghts</w>
inev itable</w>
imag ery</w>
hom o</w>
h ost</w>
glam orous</w>
gar age</w>
g li
g in
fi lling</w>
ex ternal</w>
ex tend</w>
emp has
e e
dis appo
diagnos ed</w>
di ving</w>
deli vered</w>
compu tation</w>
co h
christi an</w>
ch am
cap ability</w>
ca ve</w>
blo gs</w>
as m</w>
ap p</w>
an e</w>
agen cies</w>
af fects</w>
adv ance</w>
accep ted</w>
z ar
zar re</w>
wee k
w ol
v as
unbeliev able</w>
tri be</w>
tr in
ti se</w>
than e</w>
ten sion</w>
t ag
sto red</w>
smar ter</w>
sm ith</w>
si x
sh ri
shri mp</w>
robo tics</w>
ro of
res sing</w>
repli cate</w>
propos ed</w>
pres sing</w>
poin ted</w>
pit ch</w>
per mission</w>
pe er</w>
pan els</w>
ow l</w>
ne ander
mo ore</w>
mo de</w>
met abo
mechan isms</w>
meas ures</w>
me thane</w>
marke t
ma xi
lif es
le thal</w>
la h</w>
k is
k h
je sus</w>
inse ct</w>
initi ally</w>
identifi ed</w>
home work</w>
her o
heli cop
head ed</w>
gras s
gr am</w>
gi ogen
fla g</w>
f its</w>
f at
exper tise</w>
dis ru
dimen sion</w>
dete ction</w>
descri ption</w>
curr ency</w>
cor d</w>
bi zarre</w>
b ats</w>
at titude</w>
an giogen
air planes</w>
ag g
ad ing</w>
tt e</w>
transl ation</w>
tr ains</w>
to ci
toci n</w>
tex ts</w>
terr or</w>
tali ban</w>
sugge sted</w>
sub- sahar
sub-sahar an</w>
stro ke</w>
st aying</w>
sp in</w>
shif ting</w>
sh ore</w>
sch iz
schiz op
schizop hren
san e</w>
sal e</w>
russi an</w>
reli able</w>
program ming</w>
preci se</w>
po ckets</w>
ph .
oxy tocin</w>
ot ton</w>
od ds</w>
mi ll</w>
mer ely</w>
m acy</w>
lea ther</w>
l uck</w>
l ot
jo e</w>
investi g
immedi ate</w>
ig nor
ic on</w>
ic ked</w>
h itting</w>
grand children</w>
gene tics</w>
fu r</w>
fin ed</w>
fe bru
febru ary</w>
expon ential</w>
expan sion</w>
eu r</w>
entrepren eur</w>
enter ing</w>
en sure</w>
eg yp
e ded</w>
dialo gue</w>
devi l</w>
de grad
d entally</w>
coun ty</w>
continu ing</w>
consist ent</w>
consci ously</w>
comp rom
civiliz ations</w>
c otton</w>
bru sh</w>
bl ack
bio diversity</w>
be ars</w>
asi ve</w>
answ ered</w>
ad es</w>
198 0s</w>
wo o
whe at</w>
vege tables</w>
v or</w>
u bi
ubi quit
ubiquit ous</w>
trag ic</w>
to y</w>
tis su
tissu es</w>
ti m</w>
terrori sts</w>
tan z
tan gi
tangi ble</w>
t sun
tsun ami</w>
signific antly</w>
sent ences</w>
reve al</w>
r ose</w>
pros per
profession als</w>
pri mi
primi tive</w>
pri mar
primar ily</w>
preser ve</w>
ph os
phos ph
phosph or
phosphor us</w>
pan demic</w>
ow ad
owad ays</w>
ordin arily</w>
o ven</w>
n owadays</w>
me al</w>
mam mo
m ingly</w>
lin col
lincol n</w>
key board</w>
isra el
interpre tation</w>
indi ca
impro ving</w>
hypo thesis</w>
high way</w>
gradu ally</w>
got ta</w>
g uns</w>
fr action</w>
fr ac
flu id</w>
faci lities</w>
experim ental</w>
elec ted</w>
ele mentary</w>
el der
elder ly</w>
ei gh
disco vering</w>
di ve</w>
di strict</w>
d les</w>
conne cts</w>
con fron
compas sionate</w>
chan nels</w>
ca ke</w>
c ric
break fast</w>
bot tles</w>
be sides</w>
ban ks</w>
bal ls</w>
al li
ad vo
19 4
zero- sum</w>
wei gh
wat ts</w>
wat ers</w>
wash ing</w>
war ning</w>
trans lated</w>
titu des</w>
thre sh
thresh old</w>
t ability</w>
syn the
sta tic</w>
se l</w>
ro bust</w>
ricul um</w>
remember ed</w>
re store</w>
re ments</w>
r on</w>
r b</w>
r ays</w>
pre tend</w>
plas tics</w>
phenomen a</w>
passeng er</w>
par ks</w>
p iz
piz za</w>
on ing</w>
om ic</w>
nar row</w>
mush room</w>
mi xed</w>
m apping</w>
li on</w>
john son</w>
je cted</w>
j on
itu de</w>
inve sting</w>
inv enting</w>
inter ior</w>
in stantly</w>
imp acts</w>
im men
ici an</w>
i est</w>
ho ods</w>
hi p</w>
hab it</w>
h at
geome try</w>
fu sion</w>
frag ile</w>
en danger
endanger ed</w>
empi re</w>
eco logical</w>
e x</w>
dic tionary</w>
deser ve</w>
dece mber</w>
dam n</w>
cur riculum</w>
cru ci
cruci al</w>
crimin al</w>
cos mo
concer t</w>
come dy</w>
co vering</w>
char ges</w>
bur gh</w>
buil ds</w>
bub bles</w>
bo b</w>
bl ame</w>
be long</w>
ba th
b end</w>
at omic</w>
ar med</w>
a uc
2 6</w>
199 0s</w>
197 0s</w>
wit nes
vie wing</w>
vi vi
ver s
ur y</w>
trop y</w>
to ys</w>
ten dency</w>
suppor ted</w>
stor m</w>
st ability</w>
sig nature</w>
sh ops</w>
sh an
shan gh
shangh ai</w>
sci ences</w>
sac rif
ro lling</w>
ri vers</w>
re efs</w>
puzz les</w>
pros tate</w>
prof oun
profoun dly</w>
proce d
proced ure</w>
prison ers</w>
pl ain</w>
ph ot
pengu in</w>
par li
parli ament</w>
opa mine</w>
on stage</w>
off ici
o cide</w>
nutri ents</w>
ne at</w>
my th</w>
mos quit
magi cal</w>
ma il</w>
li ze</w>
li hood</w>
le on
ja zz</w>
isol ated</w>
invent or</w>
inst in
imp ression</w>
im mer
i ted</w>
ho ly</w>
gre ek</w>
gor ge
gorge ous</w>
gh ted</w>
gentle man</w>
gene tically</w>
gen ocide</w>
g aps</w>
fri en
frien dly</w>
flow ing</w>
fi bers</w>
extin ction</w>
exten sion</w>
expe cting</w>
ex trac
en tropy</w>
eg g</w>
e aten</w>
docu ments</w>
di str
di c</w>
del hi</w>
daw n</w>
d opamine</w>
cos mic</w>
conduc ted</w>
comple ted</w>
com ment</w>
com ic</w>
co ke</w>
clo thing</w>
cei ling</w>
categ ory</w>
car ol
c ows</w>
bri an</w>
bo ards</w>
audi ences</w>
argu ing</w>
ar ray</w>
an gles</w>
an der</w>
ag ent</w>
8 00</w>
2 8</w>
1 0
wil d
wild life</w>
ve ter
tic ket</w>
ti ze</w>
terri bly</w>
tack le</w>
sum mit</w>
ste ph
steph en</w>
simul taneously</w>
sh ots</w>
se ven
sau ce</w>
sandw ich</w>
s or</w>
ri dge</w>
res pe
rema ined</w>
ref er</w>
reco ver</w>
re main
remain ing</w>
rap id</w>
r out
r ope</w>
prin ts</w>
preci ous</w>
posi tions</w>
portra it</w>
poin ting</w>
plu g</w>
particip ants</w>
oun d
or an</w>
op y</w>
occur s</w>
ob jective</w>
n gos</w>
musici an</w>
mp tions</w>
mot ors</w>
mathema ticians</w>
line ar</w>
k oran</w>
jump ed</w>
ji had</w>
inno cent</w>
infec tion</w>
ine quality</w>
in formed</w>
hun t</w>
horiz on</w>
home less</w>
ho li
frustr ated</w>
far ming</w>
es is</w>
dun g</w>
dri vers</w>
dist ur
demo graphic</w>
deli very</w>
datab ase</w>
d .</w>
cy ber
cr ack</w>
confi dent</w>
compe lling</w>
compar ison</w>
clos ing</w>
can opy</w>
can cers</w>
c tica</w>
b ye</w>
b it
attrac tive</w>
assu mptions</w>
assu mption</w>
appear ance</w>
antar ctica</w>
analo gy</w>
ama te
al d</w>
ag en</w>
acade my</w>
3 0,000</w>
20 11</w>
. c.</w>
yn man</w>
y al</w>
wo ods</w>
whe els</w>
vic t
un comfortable</w>
ti al</w>
suppor ting</w>
stor age</w>
ste pped</w>
st or</w>
st ones</w>
spi ll</w>
span ish</w>
six th</w>
similar ly</w>
sho cking</w>
shar p</w>
ser ving</w>
ri l</w>
represen ta
repres entation</w>
rati o</w>
qu it</w>
propor tion</w>
pres ents</w>
pre vention</w>
pre mi
pr ay
philosop her</w>
oc curr
ner ves</w>
ne l
nel son</w>
myster ious</w>
mic rop
me tr
luc ki
lucki ly</w>
lea p</w>
le f
laugh ing</w>
lab s</w>
jud gment</w>
inst ant</w>
ing en
help ful</w>
h ong</w>
h ers</w>
gather ed</w>
g ments</w>
g am
fun ds</w>
free ly</w>
fe ynman</w>
fas test</w>
ex clu
establi shed</w>
en z
eli te</w>
eleph ants</w>
ed a</w>
det ailed</w>
dea f</w>
d ated</w>
conver t</w>
contr ary</w>
contin ents</w>
conserv ative</w>
col or
citiz en</w>
chan ces</w>
ce o</w>
camp us</w>
bur den</w>
bra ham</w>
bio logist</w>
bi al</w>
b les
b at</w>
b a</w>
associ ation</w>
ar ran
appro aching</w>
ap ril</w>
a braham</w>
7 00</w>
wo ke</w>
win ds</w>
weal thy</w>
ver sions</w>
tu bes</w>
tra its</w>
ther e
teen age</w>
tar gets</w>
t ating</w>
swi ss</w>
sust ain</w>
sum mar
su ck</w>
stron g
strong ly</w>
stri ke</w>
ster e
st ine</w>
sp ain</w>
she ets</w>
rhyth m</w>
r ent</w>
qui to</w>
pur suit</w>
pro file</w>
pri or</w>
pi e</w>
pan el</w>
pa use</w>
p m</w>
off ices</w>
off ering</w>
ob li
nu al</w>
ni ght
n ation
mos quito</w>
m .</w>
liter acy</w>
lap tops</w>
ke vin</w>
k ick</w>
j o</w>
infec tions</w>
indepen dence</w>
inclu ded</w>
in trin
impro ved</w>
imag in
ici ous</w>
health ier</w>
head lines</w>
han ded</w>
ha wai
gras p</w>
gr ate
grate ful</w>
gener ous</w>
gall ery</w>
fun g
fi res</w>
f ought</w>
experi encing</w>
ex ception</w>
eng ines</w>
electr on</w>
e go</w>
depen dence</w>
demonstr ation</w>
deman ds</w>
cy cles</w>
conveni ent</w>
confu sed</w>
com ics</w>
col l
clos est</w>
chi ps</w>
ce ment</w>
bu re
bom bs</w>
bl ank</w>
believ es</w>
assign ment</w>
asse mble</w>
an throp
an nual</w>
an drew</w>
an ced</w>
an as</w>
al led</w>
ad venture</w>
ad dic
activi st</w>
6 ,000</w>
5 0s</w>
20 50</w>
. m.</w>
yi eld</w>
wor thy</w>
woo den</w>
wide ly</w>
was h</w>
ur ge</w>
un happy</w>
un able</w>
trans forming</w>
than k
telesc opes</w>
ted talk</w>
techn ically</w>
te en</w>
tal e</w>
supp lies</w>
ste al</w>
stati sti
soci ally</w>
smal lest</w>
se y</w>
s ca
reli ef</w>
recy cling</w>
re public</w>
rap ed</w>
r s</w>
pros thetic</w>
priv acy</w>
prin ted</w>
pri de</w>
physici sts</w>
ph er
perform ed</w>
percei ved</w>
pe ers</w>
pat ents</w>
particip ation</w>
part nership</w>
p uni
p a</w>
ow nership</w>
ori al</w>
o logist</w>
nee dle</w>
name ly</w>
mi a</w>
mem or
man de
mande la</w>
magn ific
magnific ent</w>
lo c
limit ations</w>
jos hu
joshu a</w>
je ff</w>
inv ested</w>
inter vention</w>
ho ok</w>
hi red</w>
har mony</w>
gr as</w>
go ds</w>
gla de
glade sh</w>
gl ue</w>
gener ating</w>
ge ar</w>
g ur
g are
fron ti
fri day</w>
found ations</w>
formul a</w>
fi n</w>
fes tiv
expres sions</w>
expe dition</w>
enter pri
en cies</w>
eco logy</w>
du tch</w>
down town</w>
coun ting</w>
conduc tor</w>
comm and</w>
co lored</w>
ci gare
bi osphere</w>
bene ath</w>
barri er</w>
ban gladesh</w>
autonom ous</w>
auth orities</w>
at ar</w>
arab ic</w>
anony mous</w>
1 20</w>
z ones</w>
viet n
vietn am</w>
v a
ur ation</w>
two- thirds</w>
tro ops</w>
tre as
tor ture</w>
thu si
threat ened</w>
thre ats</w>
ther mal</w>
th us</w>
terr ain</w>
ten ds</w>
symp hon
surroun ding</w>
sun day</w>
str eng
st .</w>
soldi er</w>
sil ver</w>
reve als</w>
reser ves</w>
re stric
re r</w>
rad ically</w>
r at</w>
pur poses</w>
publi shing</w>
prop osition</w>
previ ously</w>
predat ors</w>
pre ven
pos t-
physici an</w>
person alized</w>
pack age</w>
nu ts</w>
non profit</w>
newsp apers</w>
ne ar
near by</w>
min es</w>
medic ines</w>
mathema tician</w>
lo west</w>
landsc apes</w>
k ins</w>
k el
inve stors</w>
insu lin</w>
influ enced</w>
incenti ve</w>
imp ressive</w>
il ing</w>
ic el
hun ting</w>
hi er
h ans</w>
guaran tee</w>
grad es</w>
g ained</w>
for got</w>
fan cy</w>
fal len</w>
extra ordinarily</w>
esti mated</w>
en thusi
en ables</w>
empow ered</w>
down load</w>
dist ingu
dest iny</w>
denti al</w>
defin ing</w>
dan iel</w>
d ressed</w>
d am</w>
controver si
compe te</w>
comm it</w>
clin ton</w>
cli ent</w>
circu its</w>
choos ing</w>
challeng ed</w>
ch asing</w>
car pet</w>
car di
cap abilities</w>
bran ches</w>
be ating</w>
antibio tics</w>
anima tion</w>
ag ue</w>
achiev ement</w>
a ward</w>
a er
8 5</w>
7 th</w>
200 2</w>
y ourselves</w>
xi ety</w>
wor rying</w>
wor ms</w>
wi res</w>
wi p
visu alization</w>
vir gin
virgin ia</w>
un prece
unprece d
unpreced ented</w>
umin es
tun e</w>
tri x</w>
ton gue</w>
theore tical</w>
tex ting</w>
terri fying</w>
tanz an
tanzan ia</w>
t one</w>
suff ered</w>
str ands</w>
spea ks</w>
smi ling</w>
simp ler</w>
si n</w>
set i</w>
sens ation</w>
se al</w>
san ta</w>
ro c
respon ses</w>
remark ably</w>
re actor</w>
prop ose</w>
prin ter</w>
pi pe
peop les</w>
pas sive</w>
palest ini
on going</w>
ol umines
obstac les</w>
ob serve</w>
o red</w>
ne ck</w>
miser able</w>
mini mum</w>
min al</w>
ma ture</w>
ma trix</w>
lun gs</w>
list ened</w>
li ghten
lar ry</w>
la bel</w>
je t</w>
inter ven
illustr ate</w>
i r</w>
har b
harb or</w>
fol ds</w>
er rors</w>
encour aging</w>
en lighten
earli est</w>
dy s
dis abled</w>
dilem ma</w>
desp air</w>
deli ci
delici ous</w>
decre ase</w>
cur ves</w>
cre w</w>
conv ic
connec tivity</w>
colon ies</w>
collap sed</w>
cl a
cho ir</w>
c led</w>
bu g</w>
bran ch</w>
bi olumines
b ond</w>
an xiety</w>
amaz ed</w>
affec ting</w>
ab and
a to</w>
a than</w>
x ury</w>
wor e</w>
wel fare</w>
volunte er</w>
v oting</w>
ti tan</w>
ti me
th west</w>
ta min
stre tch</w>
story telling</w>
story te
space craft</w>
slu ms</w>
short ly</w>
sho cked</w>
secre ts</w>
scen es</w>
s wee
res ses</w>
renew able</w>
re placed</w>
rain forest</w>
psycho logists</w>
psycho logist</w>
plan etary</w>
our ing</w>
ou ri
offic er</w>
neighbor hoods</w>
narra tives</w>
mi ke</w>
mechan ics</w>
market place</w>
magn itude</w>
lu xury</w>
lo cations</w>
l g</w>
l .
kid ney</w>
ju ly</w>
ju g
je ction</w>
jan e</w>
ja min</w>
j ones</w>
ind us</w>
in sane</w>
ic a</w>
hu h</w>
histor ically</w>
har dest</w>
hall uc
grand parents</w>
g as
fl ouri
fl ash</w>
ffici ent</w>
fail ures</w>
fact ories</w>
f ate</w>
ethn ic</w>
equ ality</w>
emer gence</w>
em br
eleg ant</w>
electr ons</w>
edu cate</w>
e pi
dr opping</w>
dis ability</w>
di tional</w>
der i
de fe
cric ket</w>
cre ator</w>
con tamin
con front</w>
compe ting</w>
coh ol</w>
co vers</w>
class rooms</w>
categ ories</w>
carto ons</w>
camp s</w>
cal ories</w>
ca p</w>
bur ned</w>
br is</w>
br a</w>
bi lity</w>
ben jamin</w>
b i</w>
automobi le</w>
at titudes</w>
as pir
appro aches</w>
alph a</w>
al titude</w>
al t</w>
al cohol</w>
ad vi
ad ditional</w>
ac id</w>
a ff
a .</w>
4 0,000</w>
200 ,000</w>
199 0</w>
willi am</w>
we dding</w>
ves sel</w>
tr ick
throw ing</w>
teach es</w>
te ment</w>
ta xes</w>
surger ies</w>
sur gi
surgi cal</w>
succe eded</w>
strai ght
straight forward</w>
str ings</w>
st ack</w>
squ ee
smo king</w>
sin k</w>
schizophren ia</w>
scan ning</w>
sc ans</w>
saf er</w>
s quid</w>
s ence</w>
reser ve</w>
reci pe</w>
rec es
reces sion</w>
read ers</w>
r ough</w>
pro ven</w>
prepar ing</w>
pi ll</w>
pi ge
philanthrop y</w>
pharmaceu tical</w>
ph. d.</w>
peac eful</w>
over head</w>
orig ins</w>
or ate</w>
new ton</w>
neu tr
navi gate</w>
mobi lity</w>
mi mic</w>
me als</w>
main stream</w>
m t</w>
lot tery</w>
leon ardo</w>
le op
le ban
kn ife</w>
ju li
it alian</w>
it ably</w>
intrigu ing</w>
inter viewed</w>
inev itably</w>
in fl
imp ul
im migr
hu mi
horiz on
honest ly</w>
ho p</w>
heli um</w>
h at</w>
h abi
g ases</w>
follow s</w>
fi s
exci tement</w>
equ ations</w>
enz y
ene mies</w>
e state</w>
e di
draw ings</w>
domin ated</w>
distin ct</w>
dis agree</w>
di ame
diame ter</w>
di al</w>
de ception</w>
de als</w>
correc tly</w>
corpor ations</w>
contribu ted</w>
concentr ated</w>
compar ing</w>
cl ue</w>
civi c</w>
candi date</w>
c ence</w>
bo red</w>
bo ats</w>
blow ing</w>
bi lls</w>
be lt</w>
back yard</w>
b c</w>
b adly</w>
ar l</w>
appl ying</w>
an ni
an esthe
ac r
ab sence</w>
- day</w>
y st
win ner</w>
war ri
w rap</w>
vei ll
veill ance</w>
une mp
unemp lo
u ms</w>
transforma tive</w>
trans mission</w>
tr ace</w>
tou gh
ti ps</w>
sur veillance</w>
sub stan
su l
ste am</w>
sp are</w>
some time</w>
scot t</w>
s pu
ret ina</w>
reflec tion</w>
reason able</w>
re fri
refri ger
re actions</w>
r itual</w>
qu ir
propos al</w>
pro be</w>
pre diction</w>
po ison</w>
pic ks</w>
phy si
per s</w>
pe ts</w>
p ills</w>
or phan
oi ds</w>
no red</w>
neurosci enti
ne ys</w>
n in
mush rooms</w>
mis si
microp h
micro bial</w>
medi cation</w>
mean while</w>
main tain
lin der</w>
li sts</w>
lea f</w>
lar ge
large -scale</w>
ke t
k i</w>
inter views</w>
int ent</w>
institu tional</w>
inst alled</w>
ig nored</w>
hor ses</w>
helicop ter</w>
heal ing</w>
hab its</w>
gre at
gen u
ge sture</w>
g mented</w>
frighten ing</w>
fri end
fre a
expos ure</w>
enjo yed</w>
don or</w>
diffic ulty</w>
di vision</w>
di stances</w>
der ed</w>
de sc
d ough</w>
d oms</w>
cy linder</w>
cu ts</w>
cu be</w>
cr yst
cour ses</w>
con doms</w>
comprom ise</w>
clai ms</w>
carol ina</w>
came l</w>
calcul ations</w>
cal m</w>
bul b</w>
budd hi
break through</w>
bos s</w>
be an</w>
bat teries</w>
auth or
al u
al ex</w>
agg ressive</w>
advan ces</w>
adop tion</w>
adap ted</w>
accoun ts</w>
a h
&apos; clock</w>
wid th</w>
wat er
wan dering</w>
vo y
victi m</w>
vi sually</w>
vi sions</w>
vari ations</w>
v o</w>
ur able</w>
ti s</w>
ter ey</w>
te ar</w>
syste matically</w>
swit ched</w>
super market</w>
su its</w>
st at
sp reads</w>
sp inning</w>
sl ation</w>
skelet al</w>
sel fish</w>
secre tary</w>
se a
scan ner</w>
s -
ri a</w>
reti rement</w>
resol ve</w>
resi dents</w>
renew ables</w>
rec ru
re wards</w>
re gard
regard less</w>
publi sh</w>
prom ised</w>
prin ce</w>
pos ted</w>
p ants</w>
ori tes</w>
occurr ing</w>
o logists</w>
nove mber</w>
niger ian</w>
ne are
neare st</w>
n ot
mu t
mon terey</w>
mind set</w>
mem bran
mas ses</w>
man ual</w>
like lihood</w>
li ons</w>
legi slation</w>
la p</w>
kin dness</w>
ju ice</w>
jos ep
josep h</w>
ite ms</w>
inten sity</w>
in don
indon e
indone sia</w>
in ch</w>
hop es</w>
high- tech</w>
hal f
half way</w>
guil ty</w>
gr ati
gr ams</w>
gir l
fi re
fav orites</w>
f ence</w>
exp lic
esti mates</w>
enjo ying</w>
engine ered</w>
dra g</w>
doub led</w>
diplom acy</w>
di p
devas tating</w>
deli ber
de adly</w>
d v
d ose</w>
d ges</w>
custom er</w>
cul ation</w>
coun ter
communi cating</w>
cham ber</w>
campai g
calcul us</w>
bri dges</w>
bre eding</w>
believ ing</w>
bacteri al</w>
b owl</w>
as th
appro ached</w>
ambi gu
amaz ingly</w>
accep table</w>
196 0s</w>
- to-
, 500</w>
ze al
zeal and</w>
v ice</w>
un seen</w>
ul tr
ultr as
ultras ound</w>
tun nel</w>
tran sc
top ics</w>
toler ance</w>
thu r</w>
the ast</w>
temp le</w>
tas man
symphon y</w>
survi ved</w>
sugge stion</w>
sub mer
stun ning</w>
struc tural</w>
strategi c</w>
sin s</w>
selec ted</w>
scenari o</w>
sacrif ice</w>
rub ber</w>
row s</w>
ro yal</w>
ric k</w>
real istic</w>
re aches</w>
r ot</w>
r i</w>
pur su
portra its</w>
phenomen al</w>
pass age</w>
par ked</w>
p h</w>
p ad</w>
overwhel med</w>
ope dia</w>
o tion</w>
nit rogen</w>
multip ly</w>
mp se</w>
mosquit os</w>
micros cop
mb s</w>
mar ath
loc ally</w>
lif f</w>
legi ti
l ted</w>
l ord</w>
k ong</w>
j ing</w>
int act</w>
ic onic</w>
i jing</w>
human itarian</w>
house hold</w>
hi p
he art
gra ve</w>
gr ace</w>
good bye</w>
go li
gli mpse</w>
genom es</w>
fl uc
ferti liz
fe males</w>
fe eds</w>
far ms</w>
ever est</w>
es thetic</w>
er als</w>
en cy
ency cl
encycl opedia</w>
en a</w>
embarras sing</w>
em bo
elimin ate</w>
electro des</w>
duc k</w>
dr ops</w>
div or
dem o</w>
d ating</w>
cy rus</w>
cri mes</w>
consum ed</w>
co verage</w>
clu bs</w>
clas si
centr alized</w>
c liff</w>
bul bs</w>
boun dary</w>
biom ass</w>
bin ary</w>
be ijing</w>
barre l</w>
b ound</w>
authenti c</w>
ar thur</w>
appro ved</w>
ali ens</w>
al arm</w>
ai m</w>
ac compan
a esthetic</w>
2 9</w>
195 0s</w>
x ima
xima tely</w>
w art</w>
vo ted</w>
vege table</w>
v as</w>
underst ands</w>
tu de</w>
to ma
the mes</w>
the -
terr itory</w>
t less</w>
t ags</w>
suc ces
stri king</w>
ste wart</w>
sp an</w>
sho e</w>
sha k
shak espe
shakespe are</w>
see mingly</w>
scal ing</w>
rot ate</w>
righ t-hand</w>
red wood</w>
realiz ation</w>
re stor
re se
re land</w>
q a
qa eda</w>
profes sion</w>
pro cess
pre su
pr opa
pl ates</w>
physici ans</w>
philosop hical</w>
philosop hers</w>
par ado
parado x</w>
p our</w>
p it</w>
ot ted</w>
on al</w>
obe se</w>
n ick</w>
mur der</w>
mu mb
mumb ai</w>
motiv ated</w>
monit oring</w>
min us</w>
min ority</w>
mi xing</w>
mi sphere</w>
maxi mum</w>
mar row</w>
manipul ate</w>
man ner</w>
mal ay
m o</w>
lon ge
longe vity</w>
lo ving</w>
liz ed</w>
l i</w>
k en</w>
journ alists</w>
it age</w>
inter ru
inten sive</w>
integr ate</w>
install ation</w>
ine ly</w>
indi ans</w>
inci dence</w>
in ted</w>
in n
ib m</w>
i reland</w>
hy bri
hop eful</w>
hi ding</w>
her itage</w>
head ing</w>
he misphere</w>
gradu ated</w>
frequ ently</w>
fos ter</w>
fore station</w>
fla vor</w>
fir ing</w>
explo it</w>
encour aged</w>
dig ging</w>
def end</w>
de an</w>
dama ged</w>
cor als</w>
contribu tion</w>
continu ous</w>
concentr ation</w>
con vey</w>
competi tive</w>
co at</w>
co as
che at</w>
char lie</w>
car ries</w>
car es</w>
can vas</w>
cal end
b by</w>
au gust</w>
asse ts</w>
appro ximately</w>
angiogen esis</w>
and -
ad just</w>
a k
4 7</w>
20 s</w>
1 1
- year</w>
- the-
wi shes</w>
who ever</w>
web sites</w>
vir gin</w>
vacc ines</w>
uni qu
tr apped</w>
tr ance</w>
tho lic</w>
teen ager</w>
tar ge
ta tional</w>
syn chr
syl via</w>
stor ms</w>
st ot
stot le</w>
sme lls</w>
sion -
sion- making</w>
simp lest</w>
shif ts</w>
she pher
shepher d</w>
sen ds</w>
se ctors</w>
safe ly</w>
sa ke</w>
s lower</w>
s aud
saud i</w>
ro lled</w>
res ted</w>
recomm end</w>
reason ing</w>
re think</w>
re quest</w>
random ly</w>
r itu
ritu als</w>
r ail
prosper ity</w>
predat or</w>
pr ay</w>
pot ent</w>
peri ods</w>
pen cil</w>
par kin
parkin son</w>
p is
p ays</w>
overwhel ming</w>
os is</w>
on -
olymp ics</w>
ol ine</w>
observ ations</w>
non- zero-sum</w>
mo z
mo od</w>
me me</w>
mar t</w>
mar ry</w>
man agers</w>
m one</w>
lo ads</w>
live stock</w>
lau ghter</w>
labe led</w>
k ans
kans as</w>
ju ven
j ay</w>
israel i</w>
irani an</w>
introduc tion</w>
interpre t</w>
inter connected</w>
inten tion</w>
inde x</w>
illu min
i sts</w>
hos tile</w>
hor mone</w>
hier archy</w>
hi lls</w>
gas oline</w>
g and
gand hi</w>
fo ie</w>
fin dings</w>
er t</w>
en de
ende av
el ty</w>
edit or</w>
e z
du mb</w>
distin ction</w>
di stor
determin es</w>
destro ying</w>
deplo yed</w>
den ial</w>
dee pest</w>
deci sion-making</w>
dan cers</w>
d ant</w>
cros sed</w>
cop ies</w>
cop ied</w>
controversi al</w>
concer ns</w>
compu tational</w>
colum n</w>
clin ics</w>
chromos ome</w>
cer ti
ca tholic</w>
ca tal
c tive</w>
blog ging</w>
ber lin</w>
bed room</w>
beauti fully</w>
be half</w>
bath room</w>
b lah</w>
b ite</w>
ari stotle</w>
ar rested</w>
ag ents</w>
accoun tability</w>
abun dance</w>
a my</w>
a bed</w>
3 6</w>
1 7th</w>
z zy</w>
work force</w>
v ot
use less</w>
tri angle</w>
trans mit</w>
tou ching</w>
the dr
text books</w>
temper atures</w>
ted talks</w>
t led</w>
sur ve
sub si
st ays</w>
signific ance</w>
si zes</w>
si mon</w>
sex y</w>
sens or</w>
se n</w>
se ctions</w>
sche du
satelli tes</w>
reve aled</w>
resi stant</w>
reflec ted</w>
re public
republic ans</w>
re n</w>
re con
recon ci
pur ple</w>
pul ls</w>
pu p
proje ction</w>
program mers</w>
pro ved</w>
prison er</w>
practic ing</w>
pas te</w>
part ner
par enting</w>
pan cre
os h</w>
ori ous</w>
opini ons</w>
oper ative</w>
op tical</w>
nu mer
nor den</w>
n is</w>
mu d</w>
mod ity</w>
mind -
measu rements</w>
me sh</w>
mc don
mcdon ald</w>
man kind</w>
mach in
machin ery</w>
m i</w>
low- cost</w>
lo go</w>
lifes pan</w>
le ar</w>
lan es</w>
lan ding</w>
l ation</w>
l ac
kore an</w>
ite m</w>
invest ments</w>
inti macy</w>
inst all</w>
ingredi ent</w>
if y</w>
ici ans</w>
hor ror</w>
he ating</w>
hawai i</w>
har ry</w>
har m
h ot
green land</w>
gr ant</w>
gl orious</w>
g ains</w>
fe min
expan ded</w>
evol ving</w>
er son</w>
enh agen</w>
en s
en abled</w>
empow er</w>
e ments</w>
dis gust</w>
demonstr ated</w>
cop enhagen</w>
continu ously</w>
con cei
compu te</w>
comm and
com modity</w>
collec tively</w>
coca ine</w>
co operative</w>
co in</w>
co ch
cen sus</w>
carto on
car t</w>
car ed</w>
ca ttle</w>
ca thedr
ca tching</w>
ca bles</w>
c any
but ter
bur st</w>
broad er</w>
blin dness</w>
beet le</w>
barri ers</w>
auton omy</w>
attrac ted</w>
app s</w>
ai ling</w>
aci ds</w>
accompli shed</w>
aband oned</w>
5 5</w>
- of
youn gest</w>
ye ast</w>
wei gh</w>
w is</w>
ver theless</w>
ver se</w>
v ors</w>
v entions</w>
ut ter
utter ly</w>
univer ses</w>
un conscious</w>
u. k</w>
u st</w>
tru ths</w>
trop ical</w>
tri ps</w>
tra vels</w>
ti tan
th als</w>
terri fied</w>
terri fic</w>
t ap
symme trical</w>
sto len</w>
star ing</w>
speci alized</w>
sp her
sk top</w>
shoul ders</w>
shor ter</w>
seven th</w>
sett le
sequ encing</w>
separ ation</w>
self- interest</w>
see king</w>
sca ff
ri sky</w>
repor ting</w>
repe ated</w>
reg ard</w>
recy cled</w>
recogn izing</w>
re produce</w>
re be
r ape</w>
qui e
prototyp es</w>
profess ors</w>
prof itable</w>
privi leg
privileg ed</w>
poli tician</w>
plat forms</w>
pige on</w>
pas ses</w>
par ac
parac hu
parachu te</w>
p airs</w>
om es</w>
olymp ic</w>
ok ly
okly n</w>
occasi on</w>
night mar
neander thals</w>
ne vertheless</w>
n n</w>
mini stry</w>
mi st</w>
med itation</w>
man n</w>
mag ician</w>
m ously</w>
m ask</w>
lo an</w>
lif ted</w>
li ed</w>
leop ard</w>
le wis</w>
l. a.</w>
jo int</w>
ip od</w>
inti mate</w>
inter ventions</w>
integr ation</w>
inci dentally</w>
im provi
i .
horizon tal</w>
home town</w>
hol ders</w>
he a</w>
gr oss</w>
gr ains</w>
ght ful</w>
ge stion</w>
ga e</w>
ful l
fro gs</w>
frequ encies</w>
foun der</w>
film maker</w>
fe ver</w>
far ther</w>
f it
enor mously</w>
e tr
e ats</w>
du mp
dru m</w>
dir t</w>
diagnos is</w>
di arr
diarr hea</w>
dete ctor</w>
desper ately</w>
def ic
de sktop</w>
crow s</w>
cra w
convic ted</w>
contr ad
cont ag
consum ing</w>
concentr ate</w>
con gestion</w>
common s</w>
comm un
comm er
co oling</w>
chromos omes</w>
chimpanze e</w>
che f</w>
bure auc
bro oklyn</w>
br ain
bi e</w>
be aten</w>
ban king</w>
bacteri um</w>
associ ate</w>
ash a</w>
arran ge
anesthe sia</w>
alex ander</w>
al gae</w>
ai ms</w>
afgh an</w>
acqui re</w>
ac ou
6 0,000</w>
3 50</w>
3 3</w>
199 9</w>
199 8</w>
y ards</w>
y an</w>
y -
witnes sed</w>
wip ed</w>
wil son</w>
wi ll
who a</w>
ver bal</w>
up side</w>
un fortunate</w>
trig ger</w>
tou ri
ti ght</w>
ti ger</w>
thri lled</w>
th ly</w>
tex ture</w>
t win</w>
t us</w>
syn ap
stre ams</w>
st ag
spe ll</w>
sho ots</w>
shif ted</w>
sh y</w>
sen sing</w>
se als</w>
s enti
s ands</w>
roof s</w>
ro b</w>
ri ding</w>
refuge e</w>
ques tion
pro v
premi se</w>
poli tically</w>
play ful</w>
plan ned</w>
pac ked</w>
p ouring</w>
opp er</w>
offici als</w>
non sense</w>
non e
none theless</w>
neutr al</w>
my ce
myce li
myceli um</w>
mu tation</w>
mp h</w>
moun t</w>
mil o</w>
mil ky</w>
mid st</w>
mi ze</w>
me lo
m ere</w>
lo ose</w>
lin ed</w>
life -
le o</w>
k ward</w>
k ings</w>
k icked</w>
jud gments</w>
ju red</w>
jon athan</w>
john ny</w>
j unk</w>
inci dent</w>
in jured</w>
happ ily</w>
halluc inations</w>
gard ens</w>
fam ine</w>
ex pressed</w>
en try</w>
embrac ing</w>
econom ically</w>
disappe ars</w>
dis gu
dic t
dest ination</w>
de ck</w>
dar win
d i</w>
d are</w>
cro p</w>
cri tic</w>
cor relation</w>
coordin ation</w>
constr aints</w>
con vention</w>
chr onic</w>
che ating</w>
chap ters</w>
cere mony</w>
celebr ity</w>
celebr ated</w>
cap s</w>
ca ves</w>
c opper</w>
c a</w>
budd ha</w>
blow n</w>
ble w</w>
bi d</w>
belon gs</w>
beh old</w>
be am</w>
b ands</w>
aw kward</w>
authenti city</w>
argu es</w>
adop t</w>
ad y</w>
ad dy</w>
accur acy</w>
acceler ating</w>
acceler ate</w>
4 8</w>
20 20</w>
2 5,000</w>
199 4</w>
1 2
wri st</w>
work place</w>
we t</w>
war mer</w>
w age</w>
vers ary</w>
ve ments</w>
vas cular</w>
tru sted</w>
toi lets</w>
tane ous</w>
tal ented</w>
ta x
t s
symme tries</w>
stri kes</w>
storyte ller</w>
stimul ation</w>
stic king</w>
st y</w>
squar es</w>
so on
soon er</w>
sli ce</w>
sh ining</w>
scienti f
scientif ically</w>
sar ah</w>
revolu tions</w>
replac ement</w>
recei ving</w>
re tro
prop he
poe ms</w>
phili p</w>
pe a
path ways</w>
pan ic</w>
over night</w>
oper ates</w>
op us</w>
om in
obser ved</w>
o tes</w>
o ct
oct opus</w>
ni um</w>
net working</w>
negoti ate</w>
mon u
mom en
momen tum</w>
mo therapy</w>
mir rors</w>
millen nium</w>
ment or</w>
me tals</w>
me lting</w>
m w</w>
m bling</w>
m bed</w>
lon ely</w>
liber ty</w>
lef t-hand</w>
lec tures</w>
leban on</w>
le go</w>
lad en</w>
l u</w>
l at
k it</w>
k able</w>
je ws</w>
j h</w>
invol ve</w>
inv entions</w>
indi gen
indigen ous</w>
impro vements</w>
immen se</w>
icel and</w>
hypo the
house holds</w>
he l</w>
h es</w>
girl friend</w>
g al</w>
friend ship</w>
fre sh
fantas y</w>
exp or
enterpri se</w>
embarras sed</w>
el ing</w>
docu mentary</w>
disas ters</w>
di shes</w>
desper ate</w>
de cent</w>
d ental</w>
d al</w>
coun ter</w>
coun ted</w>
cor ners</w>
com mission</w>
clu ster</w>
cli ps</w>
cli mbed</w>
christi ans</w>
chi le</w>
che motherapy</w>
char ter</w>
candi dates</w>
ca f
c on</w>
bur ger</w>
bu gs</w>
bra ve</w>
ber g</w>
be e
bar bar
attac ked</w>
astronom ers</w>
assum ed</w>
appreci ation</w>
app les</w>
apart ments</w>
anni versary</w>
ambi tious</w>
alph abe
alphabe t</w>
ag an</w>
add ressing</w>
7 2</w>
1, 500</w>
1 5
1 2,000</w>
zer land</w>
ye men</w>
wr apped</w>
well- known</w>
visu alize</w>
vari able</w>
v a</w>
ut ter</w>
us al
usal em</w>
up ward</w>
un fair</w>
umin um</w>
treas ure</w>
trac es</w>
tr ading</w>
tow ns</w>
tin ational</w>
ti ming</w>
tal ents</w>
tag ged</w>
t ni
tni k</w>
syste matic</w>
symbo lic</w>
swit zerland</w>
str and</w>
stom ach</w>
sta ke</w>
spu tnik</w>
spi ders</w>
so ap</w>
sk i</w>
sexu ally</w>
ses sions</w>
sea water</w>
se bas
sebas tian</w>
se att
seatt le</w>
san itation</w>
s wa
s adly</w>
ro me</w>
respon ded</w>
resili ent</w>
repor ter</w>
rela tives</w>
recep tor</w>
rec all</w>
re hen
puni shment</w>
publi sh
proto cell</w>
propa g
propag anda</w>
pri ority</w>
pri orities</w>
pri mates</w>
pri mate</w>
preven ting</w>
prescri ption</w>
pres enting</w>
prepar ation</w>
pr ic
pric ing</w>
pr ai
power point</w>
por tu
por ts</w>
poll in
po les</w>
plan ting</w>
pipe line</w>
pho en
phoen i
phoeni x</w>
persi st
per ative</w>
pe an
p tions</w>
ow ners</w>
occup y</w>
oc col
occol i</w>
o li
nucle us</w>
ni ghts</w>
nes ses</w>
nee dles</w>
mul tinational</w>
midd le-
mi e</w>
mess y</w>
men ting</w>
me trop
marath on</w>
mar ks</w>
manif est
liz abe
lizabe th</w>
lin king</w>
le ague</w>
l it</w>
l amp</w>
jer usalem</w>
j or
ir rational</w>
ir ony</w>
innov ate</w>
indi cate</w>
in struction</w>
im plant</w>
im perative</w>
illu sions</w>
i ll</w>
hon ored</w>
ho o
high light</w>
hi ll
ha ted</w>
grab bed</w>
gover n</w>
func tioning</w>
frustr ation</w>
frighten ed</w>
for give</w>
flo at</w>
fi red</w>
fi les</w>
explo red</w>
ex otic</w>
ex am</w>
ev alu
estab lish</w>
er e
equ ity</w>
equ als</w>
emo tionally</w>
e lizabeth</w>
dri f
docu mented</w>
do od
di ves</w>
di um</w>
dev oted</w>
deser ves</w>
democr ats</w>
deli vering</w>
d row
cu st
correspon ds</w>
corpor ation</w>
cop ying</w>
conver ted</w>
conduc t</w>
comp rehen
commit tee</w>
comb at</w>
colli sion</w>
co her
co ach</w>
catastrop hic</w>
buddhi st</w>
br occoli</w>
bos nia</w>
bo ther</w>
bi ll
bi c</w>
be lly</w>
ban jo</w>
b p</w>
auth ors</w>
atlan ta</w>
ath le
at om</w>
astron omy</w>
assi stance</w>
asi an</w>
ari th
ander son</w>
an ten
an no
al uminum</w>
al bert</w>
ad mi
activi sts</w>
acqui red</w>
accompan ied</w>
ac knowledge</w>
a tic</w>
9 6</w>
3 .
19 80</w>
19 50</w>
1 50,000</w>
z ler</w>
yl ac
x ture</w>
wor th
whist le</w>
week end</w>
w k</w>
val ence</w>
v on</w>
u d</w>
tur ers</w>
transl ator</w>
tran scen
tok yo</w>
ther lands</w>
than ol</w>
th ylac
tes zler</w>
ten ance</w>
ted global</w>
te st
tan ks</w>
t ome</w>
t ance</w>
t ac
su san</w>
su pre
supre me</w>
stu res</w>
statisti cal</w>
st opping</w>
st air
stair case</w>
squar ed</w>
sp ray</w>
si er
sier ra</w>
sen sus</w>
se gment</w>
sculp tures</w>
scrip ts</w>
s am
s ally</w>
ros ling</w>
ro ckets</w>
reven ues</w>
resear ching</w>
replac ing</w>
regul ations</w>
read er</w>
ra ins</w>
qu ate</w>
pun ch</w>
pul se</w>
prote st</w>
prog ression</w>
produc ers</w>
pre y</w>
pre valence</w>
pray er</w>
prac tically</w>
pr aying</w>
ple ased</w>
pi ter</w>
phili pp
persu ade</w>
pen alty</w>
pe sti
pe er
path way</w>
pas sions</w>
palestini an</w>
pa ul
p ot</w>
ou tw
os o
oso vo</w>
os ex
ori um</w>
ol era</w>
ogen s</w>
off en
o is</w>
nor ms</w>
ne therlands</w>
mu tations</w>
motiv ate</w>
mon ster</w>
mon es</w>
min erals</w>
microscop ic</w>
mi xture</w>
mex ican</w>
me lt</w>
me ets</w>
manufac turers</w>
man ager</w>
main tenance</w>
los es</w>
kne es</w>
kis s</w>
ki lo
k osovo</w>
ju piter</w>
jec tions</w>
j as
iter ia</w>
it ar</w>
investi gation</w>
inter faces</w>
injur ies</w>
infin ity</w>
in o</w>
in ks</w>
il led</w>
i di
humi lity</w>
hor mones</w>
he avi
heavi ly</w>
he al</w>
gu itar</w>
gro cer
grocer y</w>
graph s</w>
gr ounds</w>
gr at
go at</w>
gener ates</w>
ge stures</w>
fr iction</w>
form at</w>
fle sh</w>
festiv al</w>
fa vel
ex ceptions</w>
eth ics</w>
eth ic</w>
e thanol</w>
dv d</w>
don ors</w>
diplom at</w>
diagnos tic</w>
di gi
descri bing</w>
de forestation</w>
de bris</w>
d ney</w>
cu ps</w>
cru de</w>
cro co
croco di
cre am</w>
cr iteria</w>
cr ai
crai g</w>
coun ts</w>
coun tless</w>
cou p
contribu ting</w>
contain ed</w>
connec tome</w>
con sensus</w>
con fig
comp ounds</w>
comm ents</w>
colum bia</w>
coas tal</w>
co des</w>
clu es</w>
chick ens</w>
char ged</w>
ch olera</w>
ch ains</w>
car l</w>
can adi
canadi an</w>
calcul ated</w>
butt ons</w>
bud gets</w>
bru ce</w>
bri be</w>
br ands</w>
bor row</w>
be ef</w>
bab bage</w>
b ol
author itarian</w>
at omy</w>
asth ma</w>
ap o
answ ering</w>
an atomy</w>
al lies</w>
al an</w>
ade quate</w>
achiev ing</w>
accep ting</w>
accep tance</w>
ac tively</w>
ac tic</w>
absor b</w>
a we</w>
a u</w>
20 12</w>
19 30s</w>
z i</w>
y er</w>
wi shed</w>
weigh s</w>
we lls</w>
w ins</w>
vit a
vita min</w>
vis iting</w>
vio let</w>
vi sc
vi al</w>
var y</w>
v is</w>
us a</w>
ul tra
ultra violet</w>
u h</w>
tu es
tues day</w>
tri vial</w>
tow ers</w>
ti de</w>
ti ally</w>
threat ening</w>
thin kers</w>
there by</w>
therap ies</w>
th ic</w>
th ai
thai land</w>
text book</w>
ted sters</w>
tat too</w>
tan a</w>
t oss</w>
t ab
synthe si
swe at</w>
survi ving</w>
surr ound</w>
suppor tive</w>
sub mit</w>
stri p</w>
stran ger</w>
spir al</w>
sp r
smar t
sl ope</w>
sing er</w>
shel ves</w>
sha king</w>
sensi tivity</w>
self- assembly</w>
s am</w>
ric he
riche st</w>
representa tive</w>
regre ts</w>
re views</w>
re vel
r he
quarter s</w>
pur chase</w>
psychiatri c</w>
prom ises</w>
proje cted</w>
prob able</w>
preci sion</w>
pos ters</w>
po is
pi pes</w>
pe cu
pecu liar</w>
partner ships</w>
particip ating</w>
paraly sis</w>
p ted</w>
p ing</w>
on flies</w>
on a</w>
obses sion</w>
mon tana</w>
mon day</w>
moder n
mode st</w>
microph one</w>
metr ic</w>
metabo li
metaboli sm</w>
mat t</w>
mas sac
mag net</w>
ma tion</w>
ma ting</w>
li ghter</w>
li ation</w>
laugh ed</w>
la k
l ays</w>
ke ley</w>
juven ile</w>
journ alism</w>
je ff
jeff erson</w>
isol ation</w>
invol ving</w>
integr ity</w>
infec tious</w>
inf ant</w>
imple mented</w>
imple ment</w>
goli ath</w>
gal ap
galap a
galapa gos</w>
fung i</w>
fru its</w>
fronti er</w>
fran c
franc is</w>
fol ded</w>
fluc tu
fil med</w>
fam ously</w>
f use</w>
f da</w>
emphas ize</w>
electro magnetic</w>
el ab
elab orate</w>
easi est</w>
e ternal</w>
drag onflies</w>
di amon
diamon ds</w>
demonstr ates</w>
deci ding</w>
de light</w>
de fault</w>
de cor
d ote</w>
d board</w>
cru el</w>
cou sins</w>
cou sin</w>
consider ing</w>
comp ound</w>
comp osition</w>
color ful</w>
ch in</w>
celebr ation</w>
cas ting</w>
car dboard</w>
cap tain</w>
cam bo
cambo dia</w>
calcul ation</w>
calcul ating</w>
cal s</w>
c ross
bor row
bloo d
ber keley</w>
