#version: 0.2
t h
i n
a n
th e</w>
e r
a r
o s
an d</w>
a p
o u
a t</w>
in g</w>
t o</w>
e n
ap os
& apos
i s</w>
t i
&apos ;
o f</w>
a l
r e
o n
th e
o r
e d</w>
i n</w>
th at</w>
o n</w>
i t</w>
w h
e s</w>
s t
a c
i t
y o
yo u</w>
e r</w>
h a
s e
l y</w>
w e</w>
c a
o t
o m
v e</w>
l i
q u
a t
r o
&apos; s</w>
n o
l e</w>
e n</w>
a s</w>
o r</w>
o p
er e</w>
b e
s e</w>
th is</w>
qu ot
l e
d i
s t</w>
s i
m a
s o</w>
r i
l o
a b
b u
l d</w>
d e
m e</w>
u r
c h
quot ;</w>
& quot;</w>
ou t</w>
d o
v er
i l
a n</w>
n e
the y</w>
ti on</w>
ar e</w>
i c
a l</w>
e l
s h
k e</w>
en t</w>
w as</w>
p e
- -</w>
a y</w>
f or</w>
v ar
g o
al ly</w>
u n
var _
c om
g h
ha ve</w>
k _
wh at</w>
bu t</w>
no w</w>
on e</w>
ou r</w>
r a
w it
ca n</w>
al l</w>
wit h</w>
w or
c on
l a
t s</w>
in g
b e</w>
ou n
&apos; t</w>
c e</w>
c i
ab out</w>
th ere</w>
e x
p er
g e
p ro
s a
s u
r e</w>
t a
gh t</w>
s om
t r
o l
ou ld</w>
m ar
the r</w>
v i
m e
no t</w>
b r
f i
d o</w>
t o
g e</w>
a s
d s</w>
u se</w>
t er
m y</w>
ver y</w>
&apos; re</w>
e s
pe op
th ing</w>
peop le</w>
m p
h o
f ro
li ke</w>
j u
e i
i f</w>
os e</w>
t e
or e</w>
ti on
fro m</w>
it y</w>
h e</w>
t u
e ar
se p
k ing</w>
m o
do t</w>
the se</w>
ha s
sep _
sep_ dot</w>
ju st</w>
be ca
m i
t ed</w>
v er</w>
s p
u c
br ac
: has
a se
an t</w>
quot _
quot_ mar
quot_mar k_
brac k_
at e</w>
f e
b o
t er</w>
g i
C T</w>
B ase
- Base
p l
c l
beca use</w>
wh en</w>
ur e</w>
d e</w>
d er
th in
u l
ho w</w>
op a
f or
opa -Base
opa-Base :has
ei opa-Base:has
u s</w>
b y</w>
p o
i r</w>
el l</w>
u p</w>
e a
a g
k now</w>
lo o
the m</w>
go ing</w>
er s</w>
h i
en ti
h ere</w>
ic h</w>
m ore</w>
in d</w>
wh ich</w>
var_ e</w>
w ay</w>
p ar
som e
ing s</w>
p re
thin k</w>
ha d</w>
se e</w>
o ther</w>
ge t</w>
p u
t w
f f
w n</w>
wh o</w>
y our</w>
b i
re ally</w>
m an
t h</w>
the ir</w>
c o
a m
w ould</w>
the n</w>
t ing</w>
w ere</w>
c re
i d</w>
a d
wh ere</w>
oun d</w>
&apos; ve</w>
g h</w>
il l</w>
in e</w>
u s
wor ld</w>
en ce</w>
e v
ti me</w>
ou r
som e</w>
tu ally</w>
tion s</w>
k s</w>
ap p
y s</w>
&apos; m</w>
s s</w>
var_ o</w>
d on</w>
o d</w>
f a
ha s</w>
a tion</w>
f u
y ear
i s
ac tually</w>
c e
os t</w>
m ent</w>
in to</w>
l l</w>
ab le</w>
e c
st r
d ay</w>
g u
op en</w>
th ings</w>
g o</w>
ac k</w>
w ill</w>
year s</w>
ca l</w>
w a
ou gh</w>
g re
f ac
eiopa-Base:has I
a f
a me</w>
cl ose</w>
c h</w>
g r
in ter
k e
al l
d ing</w>
st ar
se l
n o</w>
s ti
w ell</w>
p h
c ould</w>
t al
l it
d y</w>
v e
s o
h app
w ant</w>
en ts</w>
com p
s ur
v es</w>
ri ght</w>
m s</w>
ma ke</w>
en t
quot_mark_ r</w>
quot_mark_ l</w>
brack_ open</w>
brack_ close</w>
sh o
be en</w>
sa id</w>
h u
y ing</w>
di ff
t le</w>
m b
ne w</w>
m ost</w>
s c
W H
WH E
WHE R
WHER E</w>
T I
TI N
TIN CT</w>
S TINCT</w>
S E
SE L
SEL E
SELE CT</w>
I STINCT</w>
D ISTINCT</w>
w i
p a
fi r
com e</w>
t ri
ch an
st e
sh e</w>
f e</w>
d u
some thing</w>
d enti
t ure</w>
st or
k ed</w>
v ing</w>
s y
fir st</w>
tw o</w>
th an</w>
s pe
th ose</w>
ou s</w>
on g</w>
h is</w>
wor k</w>
ti ve</w>
loo k</w>
p r
w e
pro b
f o
t y</w>
m on
g y</w>
i z
lit tle</w>
e t</w>
ma n</w>
le a
diff er
go t</w>
N ame</w>
b ack</w>
0 0</w>
al so</w>
m uc
ac e</w>
i mp
muc h</w>
at es</w>
st u
c u
li fe</w>
si on</w>
a u
s ay</w>
en d</w>
it e</w>
d er</w>
es s</w>
o ver</w>
d ed</w>
b le</w>
t ra
p os
on s</w>
d re
m il
a d</w>
a ge</w>
g en
on ly</w>
ev en</w>
i r
re e</w>
si g
man y</w>
e ver
bo dy</w>
m in
at ed</w>
ta ke</w>
denti f
k ind</w>
t ur
fu l</w>
ch o
i de
ever y
d n</w>
it s</w>
c t</w>
o k</w>
ar d</w>
y ing
var_ a</w>
ying Name</w>
eiopa-Base:hasI dentif
eiopa-Base:hasIdentif yingName</w>
c oun
th r
di d</w>
h er</w>
ne ed</w>
lo t</w>
f f</w>
go od</w>
i es</w>
an s</w>
ta k
c ol
r u
ar ound</w>
ea r</w>
at er</w>
n ing</w>
wh y</w>
un i
c ar
l s</w>
w s</w>
le t</w>
do wn</w>
m u
an y</w>
s er
al s</w>
or t
ac h</w>
n i
&apos; ll</w>
un der
ic e</w>
i ma
th ou
p ri
s s
tr y</w>
differ ent</w>
e very</w>
thr ough</w>
com m
h e
m at
re c
t y
w er</w>
con t
te ch
j ec
pu t</w>
c all
or t</w>
s ci
g ra
f in
i m
w r
s en
stor y</w>
prob le
an y
be ing</w>
si de</w>
l ar
le c
a mp
sa me</w>
ti c
happ en
per c
v ed</w>
do ing</w>
p i
ti es</w>
a r</w>
e l</w>
e st
O per
sel f</w>
er e
re d</w>
a m</w>
lo gy</w>
an d
le ar
b ra
t e</w>
at ing</w>
s h</w>
o b
en g
mb er</w>
u e</w>
d uc
th ree</w>
ti m
sy ste
ar y</w>
ag a
call ed</w>
ti c</w>
li on</w>
or s</w>
ol u
wa ys</w>
so ci
an s
s on</w>
perc ent</w>
ma de</w>
an ce</w>
tal k</w>
tech no
o l</w>
&apos; d</w>
st s</w>
bu il
ac h
n a
di s
n ed</w>
t ly</w>
pl an
de sig
ex per
at e
to day</w>
f ore</w>
k i
gre at</w>
af ter</w>
r os
n u
an k</w>
p la
lo w</w>
i c</w>
tion al</w>
e f
d a
an ce
under st
l ing</w>
j o
t ell</w>
c es</w>
qu es
c an
r on
y ear</w>
la r</w>
in t</w>
hu man</w>
t re
re s</w>
p ic
v el
imp ort
chan ge</w>
bi g</w>
fac t</w>
an other</w>
h el
sh i
f ind</w>
us ed</w>
la st</w>
w om
t ter</w>
b a
b l
le ss</w>
o wn</w>
c our
in di
wi th
ide a</w>
s in
er i
es s
di dn</w>
be fore</w>
0 00</w>
t en
gi ve</w>
w an
tim es</w>
w ent</w>
sh ould</w>
tak ing
g er</w>
taking I
takingI D</w>
sur ance
surance U
suranceU n
suranceUn der
suranceUnder takingID</w>
n suranceUndertakingID</w>
eiopa-Base:hasI nsuranceUndertakingID</w>
f t</w>
star ted</w>
g a
in s</w>
thou ght</w>
h ear
s cho
w ing</w>
i ld</w>
ne x
s m
me di
g ro
t ting</w>
be li
c or
o ff</w>
ima g
c ou
, 000</w>
ri c
i l</w>
h ea
v en</w>
ne ver</w>
l ed</w>
pl ace</w>
import ant</w>
be tter</w>
aga in</w>
k no
p p
cour se</w>
b it</w>
l es</w>
var_ x</w>
se e
inter est
sho w</w>
b ot
al iz
ter s</w>
lo gi
ch il
syste m</w>
w ar
b il
st a
hi m</w>
do es</w>
p s</w>
proble m</w>
ex amp
star t</w>
c k</w>
n at
si mp
nex t</w>
mi ght</w>
to ge
e ach</w>
sti ll</w>
wh o
toge ther</w>
in v
par t</w>
ag o</w>
w ater</w>
f -
d d
bra in</w>
e en</w>
techno logy</w>
c ur
ca me</w>
th ank</w>
1 9
si ble</w>
tr y
al i
h om
d at
l u
m or
h ere
comp le
l an
l ong</w>
pro duc
n ti
ty Oper
tyOper ates</w>
try W
tryW here
tryWhere E
tryWhereE nti
tryWhereEnti tyOperates</w>
oun tryWhereEntityOperates</w>
eiopa-Base:has E
eiopa-Base:hasE U
eiopa-Base:hasEU C
eiopa-Base:hasEUC ountryWhereEntityOperates</w>
f ound</w>
be g
spe ci
&apos ;</w>
b re
str uc
ac t</w>
exper i
li ght</w>
e p</w>
be tw
ou s
betw een</w>
po li
c ess</w>
se con
com es</w>
fe w</w>
loo king</w>
it ed</w>
to o</w>
o ld</w>
ma y
re ad
f ri
e y</w>
in cre
po int</w>
f un
e ve</w>
me an</w>
jec t</w>
e ver</w>
t en</w>
for ma
ca tion</w>
c er
dre n</w>
com pu
chil dren</w>
2 0
o m</w>
s ort</w>
de ci
m ents</w>
c ul
or g
may be</w>
gen er
d one</w>
p en
do l
c ap
ce p
s k
k es</w>
c ity</w>
us ing</w>
n s</w>
ques tion</w>
gr ap
lo ve</w>
who le</w>
ne c
do es
does n</w>
scho ol</w>
he al
dat a</w>
fa mi
t el
sel ves</w>
e con
ch e
ab ly</w>
si c
examp le</w>
w al
c en
r y</w>
underst and</w>
m en
g le
wan ted</w>
ma y</w>
n or
econ om
1 0</w>
f our</w>
v al
in st
re al</w>
wor king</w>
forma tion</w>
vel op
chan g
uni ver
g s</w>
ne ss</w>
li ve</w>
mil lion</w>
ar e
fac e</w>
re as
tr ying</w>
or i
in e
an ds</w>
ch ar
wom en</w>
c all</w>
gle i
a way</w>
de velop
S t
l ine</w>
mon ey</w>
per son</w>
ou t
every thing</w>
u m</w>
ki ds</w>
al ways</w>
fe c
h ar
beli eve</w>
e lec
se ar
z e</w>
m er
si c</w>
al ity</w>
y es</w>
c el
d ri
fe el</w>
com ing</w>
fi ve</w>
b li
for m</w>
en er
po wer</w>
desig n</w>
h al
& #
&# 9
ti v
or y</w>
g lo
coun try</w>
m om
c t
ti cal</w>
ro om</w>
hel p</w>
pr ot
o k
sp ace</w>
h op
w at
s olu
st o
pre s
g al
un ity</w>
w er
thin king</w>
nu mber</w>
m y
org an
cre ate</w>
a tions</w>
su b
ot s</w>
c li
pu bli
ne e
to ok</w>
b ro
l dn</w>
vi e
tr ans
in formation</w>
secon d</w>
la tion</w>
s it
il ity</w>
c la
l in
l and</w>
ener gy</w>
fo od</w>
me ans</w>
s ing
p at
d es</w>
an g
o ff
ma king</w>
sen se</w>
wh i
l on
h un
st er</w>
sp on
s on
s es</w>
ge tting</w>
st re
th s</w>
fu ture</w>
e st</w>
be come</w>
qu ite</w>
c y</w>
stu d
en ough</w>
wh e
f ul
af ric
par ti
b er
f il
be st</w>
sm all</w>
gr ou
ros s</w>
si ve</w>
sa ys</w>
prob ably</w>
go ver
c ri
read y</w>
buil ding</w>
we e
v o
cont ro
al e</w>
p as
th er
m ic
bre a
bo ok</w>
ab ility</w>
v en
st ri
on es</w>
ar t
tr u
with out</w>
be au
d ge</w>
b ri
hom e</w>
cl u
ent ly</w>
pl ay</w>
glo b
b or
w on
re ad</w>
le ft</w>
stu ff</w>
interest ing</w>
ve l</w>
sic ally</w>
qu i
hi gh
te ly</w>
tal king</w>
t es</w>
n er</w>
f ol
ar i
w ed</w>
v a
soci al</w>
c ra
sci ence</w>
lar s</w>
ic i
it ing</w>
pre t
d ra
d in
en vi
c r
afric a</w>
p le</w>
happen ed</w>
ph y
b as
w ard</w>
p e</w>
y oun
mar ke
ear th</w>
m en</w>
tri es</w>
op p
ar t</w>
shi p</w>
e du
gover n
dol lars</w>
bu sin
bu ild</w>
z ing</w>
con nec
c are</w>
envi ron
2 0</w>
mo de
hal f</w>
pl ac
as k</w>
any thing</w>
se t</w>
s our
ous ly</w>
a se</w>
re spon
re aliz
5 0</w>
f re
m ed</w>
whi le</w>
go es</w>
bi o
re la
si ons</w>
se en</w>
c ha
sci enti
min u
simp le</w>
th ers</w>
s ol
pret ty</w>
ma kes</w>
a ma
li ves</w>
mo ve</w>
to ld</w>
ac ross</w>
su pp
ent al</w>
ca se</w>
wor ks</w>
on ce</w>
hu man
happ en</w>
ou se</w>
su ch</w>
li ving</w>
ba sically</w>
ot e</w>
re sear
p or
sa w</w>
su l
ta in</w>
pro ject</w>
el se</w>
m ul
b ac
it al</w>
fo re
heal th</w>
ca r</w>
y et</w>
imag ine</w>
hea d</w>
a tion
r an
der s</w>
pic ture</w>
p op
in ed</w>
f l
sh ar
mom ent</w>
h and</w>
coun tries</w>
da ys</w>
to p</w>
happen s</w>
th ough</w>
dis co
ha ving</w>
k in
en ds</w>
b ad</w>
re me
p er</w>
e -
m ind</w>
ok ay</w>
o f
fami ly</w>
ne t</w>
m ing</w>
gi r
experi ence</w>
h ard</w>
fi c</w>
vi r
at h</w>
proble ms</w>
glob al</w>
as ked</w>
l ater</w>
glei f-
er ic
vi de
soci e
ide as</w>
m ach
hi gh</w>
o h</w>
lear n</w>
in a</w>
var_ s</w>
eiopa-Base:has Oper
eiopa-Base:hasOper ation
eiopa-Base:hasOperation St
eiopa-Base:hasOperationSt art
eiopa-Base:hasOperationStart D
eiopa-Base:hasOperationStartD ate</w>
youn g</w>
am eric
ph ot
nat ure</w>
tur n</w>
compu ter</w>
fe ct</w>
e mp
sh ed</w>
pa ti
st er
in side</w>
f ron
c er</w>
su c
mi s
cont in
si on
busin ess</w>
s ure</w>
d ar
plan et</w>
s ing</w>
every body</w>
cu lar</w>
si x</w>
pro cess</w>
ol s</w>
f er
o grap
hi story</w>
ap s</w>
ur al</w>
reas on</w>
sa ying</w>
st ates</w>
no thing</w>
lan gu
thou s
o ver
bot h</w>
d r
pro f
incre di
tic s</w>
g n
h y
ch ild</w>
sing le</w>
whe ther</w>
with in</w>
sti c</w>
di se
comm uni
al most</w>
fa r</w>
ou ght</w>
t ro
tu res</w>
loo ks</w>
g g
e u
ei ght</w>
cel ls</w>
c ed</w>
beau ti
our s</w>
bil lion</w>
spe a
s ity</w>
al ready</w>
br ing</w>
b lo
wr ong</w>
ge st</w>
t on</w>
reme mber</w>
mu sic</w>
pop u
li gh
0 ,000</w>
ke ep</w>
d en
won der
sc ri
h er
gu y</w>
in f
e ce</w>
th ir
st an
pos sible</w>
m er</w>
tr an
ic s</w>
u p
tr ue</w>
lea r</w>
ar ti
mo ther</w>
i denti
f lo
bu r
0 s</w>
can cer</w>
wa r</w>
tiv ity</w>
ic es</w>
en ces</w>
s ou
or der</w>
hear d</w>
hop e</w>
loo ked</w>
beauti ful</w>
w in
mat eri
d ro
per son
organ iz
of ten</w>
pro gra
h ouse</w>
mat ter</w>
op er
o ce
ur y</w>
ac y</w>
di es</w>
amp ;</w>
& amp;</w>
ic k
ser v
ex c
ge ts</w>
d -
pi ece</w>
e gal
ar ch
ur ing</w>
ta tion</w>
indi a</w>
grou p</w>
na tional</w>
al lo
3 0</w>
in ing</w>
g er
20 0
u .
d ent</w>
buil t</w>
w as
vide o</w>
pos i
mon ths</w>
ex p
c ent
ama zing</w>
comm unity</w>
o t</w>
ea d</w>
ans wer</w>
un ti
mi dd
t un
i a</w>
publi c</w>
stor ies</w>
go d</w>
ap e</w>
some one</w>
gleif- L
gleif-L 1
gleif-L1 :has
gleif-L1:has L
gleif-L1:hasL egal
ve ly</w>
univer se</w>
ta king</w>
hun dre
ch all
ac tion</w>
my self</w>
un ited</w>
c op
po wer
plac es</w>
ex i
bi r
inst ead</w>
fe el
is m</w>
wor ds</w>
sin ce</w>
os p
edu cation</w>
unti l</w>
resear ch</w>
olu tion</w>
an im
speci es</w>
fi g
e p
li es</w>
is su
is n</w>
ate ly</w>
un der</w>
our selves</w>
is h</w>
k il
us es</w>
some times</w>
o c
w o
contro l</w>
n er
di rec
b ly</w>
st ate</w>
y ea
ul t</w>
the m
jec ts</w>
govern ment</w>
indi vi
deci ded</w>
some body</w>
indivi du
col le
ap pro
. .
vie w</w>
re sul
e ly</w>
st ra
inter net</w>
l ab
ex ac
.. .</w>
in du
d ly</w>
cou ple</w>
in no
le vel</w>
ni ght</w>
langu age</w>
e le
tur ns</w>
ra ther</w>
hear t</w>
re li
ap er</w>
du ce</w>
midd le</w>
b en
happ y</w>
exac tly</w>
do m</w>
th re
pr in
ca ted</w>
be ha
t or</w>
t in
gr ound</w>
ch ing</w>
t -
s or
li st
f el
bi g
was n</w>
ap pe
kin ds</w>
every one</w>
de mo
sto p</w>
ne t
yea h</w>
lar ge</w>
it self</w>
r en
phy si
p ol
fo c
s k</w>
mi c</w>
c ess
sp i
comple tely</w>
au di
them selves</w>
wom an</w>
ru n</w>
b ab
minu tes</w>
f ar
anim als</w>
wor d</w>
t able</w>
ex pe
en s</w>
stud ents</w>
n a</w>
fron t</w>
socie ty</w>
s ound</w>
k er</w>
h or
beca me</w>
g ame</w>
p ul
ver ed</w>
sti tu
sh are</w>
n on
jo b</w>
in es</w>
cep t</w>
c tion</w>
mu st</w>
mode l</w>
t om
1 00</w>
comp any</w>
c y
beha vi
struc ture</w>
happen ing</w>
n ame</w>
o il</w>
mb ers</w>
st ed</w>
a ir</w>
lear ned</w>
c al
i se</w>
environ ment</w>
cre ated</w>
stu dy</w>
h ear</w>
fri ends</w>
b ar
hu ge</w>
ci r
re co
ic ally</w>
st ing</w>
lit er
h ours</w>
americ a</w>
in i
a i
3 ;</w>
1 ;</w>
&#9 3;</w>
&#9 1;</w>
tu al</w>
ne ws</w>
de v
y ed</w>
thir d</w>
sho ws</w>
s ed</w>
er ing</w>
d ru
o s</w>
elec tri
am eri
cent ury</w>
w on</w>
ph one</w>
nat ural</w>
ex pla
cl os
d ence</w>
logi cal</w>
k ers</w>
dise ase</w>
an i
ro w</w>
gu ys</w>
ss ed</w>
in de
eng ine
am es</w>
al ong</w>
te ach
am oun
wor ked</w>
ra di
e t
s ha
p t</w>
ar ly</w>
ameri can</w>
oun ds</w>
li ons</w>
var i
phot ograp
ch ina</w>
p ur
or din
opp ort
con si
war ds</w>
ques tions</w>
ou ldn</w>
a tive</w>
str y</w>
sel f-
per h
perh aps</w>
fig ure</w>
fi sh</w>
parti cular</w>
marke t</w>
vi sion</w>
tur ned</w>
mo ving</w>
k new</w>
ear ly</w>
bas ed</w>
h ol
e d
c le</w>
spe c
in st</w>
aga inst</w>
s qu
o thers</w>
l ots</w>
cou ldn</w>
ch ed</w>
m ental</w>
are a</w>
gleif-L1:hasLegal Name</w>
ga ve</w>
en ing</w>
at t
kno wn</w>
g es</w>
d uring</w>
si ze</w>
pa st</w>
oce an</w>
lear ning</w>
at us</w>
w el
ef fec
an ts</w>
pro vi
ag es</w>
tak es</w>
ta in
sh ing</w>
ad v
re st</w>
b an
p ot
in ning</w>
y or
mach ine</w>
s is</w>
c ks</w>
prot ec
lea st</w>
e m</w>
su g
at s</w>
ob vi
r un
in tel
out side</w>
j our
pat ter
e ld</w>
fin ally</w>
f ree</w>
te le
fa ther</w>
m al
tr ac
syste ms</w>
a ir
differ ence</w>
wonder ful</w>
m p</w>
di g
1 5</w>
u es</w>
se ven</w>
sc ale</w>
nee ds</w>
enti re</w>
cul ture</w>
tak en</w>
diff ic
t ou
go o
th y</w>
ke y</w>
to m</w>
ol ved</w>
an ti
ul es</w>
te st</w>
ch i
at or</w>
s li
enti al</w>
e ts</w>
su m
rec or
it ec
arch itec
y -
gh ts</w>
di ed</w>
ma j
m ate</w>
thous ands</w>
sur pri
rela tion
ma l</w>
kno w
h on
d en</w>
w il
ros s
ar gu
eu ro
y our
power ful</w>
o ks</w>
te mp
wh ate
whate ver</w>
p sy
c ell</w>
ti ce</w>
par ts</w>
h ind</w>
g la
see ing</w>
se qu
popu lation</w>
chang ed</w>
your self</w>
yor k</w>
gro w</w>
as y</w>
re gi
pr ac
identi fi
g ar
beg inning</w>
l er</w>
gi ven</w>
e mo
lea ve</w>
cer tain</w>
c ost</w>
c k
be hind</w>
sp end</w>
f ra
e yes</w>
ima ge</w>
po in
ex pl
an ta
inno v
in stitu
audi ence</w>
tra di
par ents</w>
bil ity</w>
gre en</w>
f li
e vi
ab solu
wal k</w>
ex tre
ter ms</w>
reli gi
in clu
v il
tic ally</w>
mo ve
gro w
con ver
at ure</w>
su per
interest ed</w>
for ce</w>
ca te</w>
amoun t</w>
e asy</w>
de ath</w>
econom ic</w>
can not</w>
x i
cen ter</w>
an ima
medi a</w>
st age</w>
re v
ver age</w>
m a</w>
in ve
ti vely</w>
l ate</w>
de fin
comm on</w>
c os
te am</w>
know le
ful l</w>
bu y</w>
an ding</w>
con di
t ot
su al</w>
g one</w>
do ct
diffic ult</w>
a w
bo oks</w>
pos si
lo cal</w>
e qu
beg an</w>
c le
at ten
ori g
m os
e m
qu ick
wee k</w>
cl es</w>
b ed</w>
pos ed</w>
di st
t ex
or der
ne ur
li m
h ands</w>
s ite</w>
re sour
fri end</w>
pre di
d om
pres ent</w>
col lec
wr it
nee ded</w>
e y
w ers</w>
p aper</w>
z ed</w>
simp ly</w>
me an
lon ger</w>
fi eld</w>
ci ties</w>
sur vi
ch es</w>
bl ack</w>
val ue</w>
sp ent</w>
realiz ed</w>
pa in
de al</w>
incredi ble</w>
human s</w>
ei ther</w>
b loo
min i
ti s
su dd
ci vi
s .</w>
hel p
a x
tri ed</w>
e f</w>
s cre
f ic
comp as
bor n</w>
on d</w>
o -
li g
ou gh
de li
comp an
techno logi
ste p</w>
for ward</w>
ro bo
mo der
li sh</w>
ho ld</w>
grow th</w>
for tun
sur face</w>
c ing</w>
sit u
quick ly</w>
de scri
b al
sit ting</w>
fe et</w>
f ur
wat ch</w>
s it</w>
ne y</w>
compan ies</w>
vi ol
tran sp
str u
pre sen
par t
ne i
n ers</w>
we st</w>
comple x</w>
m ine</w>
c ro
per i
as ure</w>
lea se</w>
l ost</w>
inv en
gir l</w>
d na</w>
w ouldn</w>
knowle dge</w>
bac k
gro wing</w>
cur r
c lear</w>
4 0</w>
per for
bl ue</w>
sp ir
solu tion</w>
ser i
re f
p ay</w>
me t</w>
an ci
mil es</w>
me s
identifi es</w>
year -
st ro
d y
d am
di e</w>
sou th</w>
si l
e mer
wh ite</w>
qu e</w>
ross B
rossB order
rossBorder St
rossBorderSt atus</w>
po or</w>
iz e</w>
glei f
gleif -Base
gleif-Base :
gleif-Base: identifies</w>
eiopa-Base:has C
eiopa-Base:hasC rossBorderStatus</w>
de ca
cu t</w>
al y
econom y</w>
e at</w>
wee ks</w>
j e
fu n</w>
fel t</w>
anima l</w>
y er</w>
su sta
se a</w>
technologi es</w>
re ality</w>
poli tical</w>
li ke
fol lo
f ly</w>
behavi or</w>
ordin ary</w>
le ss
ing ly</w>
gi ving</w>
char ac
opport unity</w>
le g
n am
h osp
as es</w>
develop ed</w>
chang es</w>
br ought</w>
stre et</w>
vil la
tel ling</w>
si mil
con sci
ca mer
wr ote</w>
s mar
person al</w>
mor ning</w>
lab or
tur al</w>
t an
er ed</w>
any one</w>
ma the
gr and
ci p
au th
si a</w>
mathe ma
star ting</w>
im pro
con su
wr ite</w>
u ght</w>
pati ents</w>
in ten
fa st</w>
fa il
f oun
d ou
the ory</w>
progra m</w>
n al</w>
in spi
th an
r om
mes sa
feel ing</w>
m us
n y</w>
imag es</w>
g en</w>
are as</w>
n ice</w>
gi ves</w>
ab o
z er
ri ed</w>
underst anding</w>
ar s</w>
u. s.</w>
scienti sts</w>
t on
su n</w>
me t
cli mate</w>
par tic
ke t</w>
disco vered</w>
cer tain
car b
atten tion</w>
t ors</w>
ic k</w>
sh ort</w>
pati ent</w>
mul ti
ma g
en cy</w>
ss ing</w>
liter ally</w>
enti ally</w>
spea k</w>
l ap
de f
va il
com pe
com b
see ms</w>
in ation</w>
fil m</w>
es pe
d an
che mi
to ols</w>
s al
nu mbers</w>
mic ro
di ver
car s</w>
c ine</w>
pro duce</w>
non -
mo vi
l -
cen tr
realiz e</w>
pr om
l t</w>
for d</w>
en ge</w>
bo ard</w>
a verage</w>
re si
comp li
materi al</w>
in ess</w>
chall enge</w>
b at
pla ying</w>
la w</w>
st e</w>
s un
ful ly</w>
ff ici
absolu tely</w>
sh ape</w>
nor mal</w>
k y</w>
g ing</w>
ca tions</w>
ac cess</w>
run ning</w>
n uc
chang ing</w>
bot tom</w>
intel lig
hundre ds</w>
fa v
develop ing</w>
al low</w>
lo w
individu al</w>
am s</w>
al one</w>
reco gn
re p
ben ef
resul t</w>
physi cal</w>
move ment</w>
mil lions</w>
gir ls</w>
cre ating</w>
sol ve</w>
no body</w>
moder n</w>
l os
gen e
f la
en d
de ep</w>
1 2</w>
ma p</w>
m oun
ci ally</w>
for ms</w>
a vail
qu ality</w>
di men
b es</w>
p ac
la b</w>
il s</w>
ss es</w>
rec ently</w>
eng lish</w>
ter ri
compas sion</w>
se ver
le y</w>
develop ment</w>
demo cr
6 0</w>
t or
produc t</w>
pre ci
i g
foc us</w>
we b</w>
t ar
ster n</w>
sho wed</w>
w ish</w>
w all</w>
u res</w>
st and</w>
se cur
relation ship</w>
om s</w>
fer ence</w>
ex tra
connec ted</w>
pre ss</w>
ine se</w>
c ts</w>
l uc
kno ws</w>
il ls</w>
desig ned</w>
ac hi
ul arly</w>
s le
maj or</w>
d ings</w>
ar en</w>
any body</w>
tin y</w>
th o
t op
see m</w>
r ate</w>
obvi ously</w>
innov ation</w>
indu stry</w>
bloo d</w>
ti ci
secur ity</w>
mo ved</w>
ty pe</w>
sion al</w>
k id</w>
dar k</w>
bo x</w>
tal ked</w>
supp ort</w>
so on</w>
sh e
r ac
me mor
m it</w>
like ly</w>
ch inese</w>
rev olution</w>
r ing</w>
op en
nei gh
issu e</w>
gi c</w>
gener ation</w>
co ol</w>
all s</w>
year- old</w>
s sive</w>
incredi bly</w>
fun dam
fre e
beg in</w>
te d
sy n
sa ve</w>
medi cal</w>
ev olution</w>
espe cially</w>
ea si
avail able</w>
wr iting</w>
ph il
tre at
p an
ho od</w>
ha ven</w>
b s</w>
nor th</w>
experi ment</w>
en ded</w>
d on
19 9
z y</w>
cla ss</w>
bu n
univer sity</w>
th ro
p le
on line</w>
nec ess
lin es</w>
l a</w>
be comes</w>
ver s</w>
v in
li ved</w>
happ iness</w>
ef fect</w>
con cer
y ond</w>
su p
per fect</w>
be yond</w>
2 5</w>
so f
li z
g ames</w>
expla in</w>
incre as
ar ed</w>
sour ce</w>
p lease</w>
o x
me ly</w>
big ger</w>
bac ter
jo h
gu ess</w>
el s</w>
ca mp
st and
fi ed</w>
di sc
compu ters</w>
reas ons</w>
psy cho
ou d</w>
mis sion</w>
exper im
de gre
at ors</w>
situ ation</w>
resour ces</w>
j a
h our</w>
de pen
c ru
imp act</w>
fe ar</w>
euro pe</w>
dri ve</w>
ne w
en ding</w>
ea st</w>
to wn</w>
su ally</w>
pu tting</w>
net work</w>
grou ps</w>
dev ice</w>
suc cess
sm all
l y
g ed</w>
en ly</w>
dig ital</w>
chall eng
wor th</w>
tel ls</w>
str an
sti c
scienti fic</w>
off ice</w>
in tro
de ad</w>
tech ni
re qui
re l
pro gre
p es</w>
materi als</w>
li ties</w>
ex pen
c in
ag ed</w>
ac tive</w>
ve lo
tri bu
scho ols</w>
r ules</w>
ni fic
di sp
car e
read ing</w>
me et</w>
li fe
susta in
g t</w>
te ach</w>
re ly</w>
bab y</w>
0 -
ma in</w>
h and
c ted</w>
b all</w>
vo ice</w>
simil ar</w>
pic tures</w>
g le</w>
e g
col or</w>
to wards</w>
speci al</w>
so lar</w>
sever al</w>
s we
s an
h y</w>
chan ce</w>
teach ers</w>
inv olved</w>
gener al</w>
f all</w>
con struc
st ers</w>
issu es</w>
f am
di stri
ac tivity</w>
w ind</w>
t a</w>
ri sk</w>
partic ularly</w>
imp os
ch ec
a in</w>
sudd enly</w>
ro ad</w>
inde ed</w>
do or</w>
v ol
se cre
s ounds</w>
om e</w>
elec tr
sy m
on to</w>
g ri
er ci
e th
e qui
d ance</w>
c lo
brea k</w>
as king</w>
ser ve</w>
pro jects</w>
pp ed</w>
p al
li st</w>
en ter
robo t</w>
cir cu
w in</w>
su ff
l and
evi dence</w>
bo y</w>
ba sic</w>
tru th</w>
st an</w>
spe ed</w>
or ity</w>
m es</w>
hundre d</w>
conver sa
certain ly</w>
bu l
1 8
w ei
f ran
ey e</w>
cou ra
carb on</w>
a ds</w>
w ea
vi d</w>
u al</w>
posi tion</w>
n ine</w>
minu te</w>
la u
app li
ob ject</w>
messa ge</w>
list en</w>
in k</w>
1 1</w>
we b
villa ge</w>
ter m</w>
str ong</w>
str on
pres sion</w>
om e
indu stri
g ot
e ffici
tal ks</w>
s wi
pr os
fav or
co de</w>
any way</w>
wan ts</w>
th ere
cho ice</w>
st ay</w>
posi tive</w>
o d
i st</w>
h it</w>
f anta
wor l
mon th</w>
ac her</w>
mor al</w>
m ot
i cal</w>
ev en
beli ev
b an</w>
me chan
l un
g as</w>
examp les</w>
colle ge</w>
ate st</w>
an tly</w>
wal king</w>
star ts</w>
pro per
de ta
ti ves</w>
ex tr
con fli
tw are</w>
smar t</w>
sho wing</w>
o re
high -
contin u
sk in</w>
re mar
re ach</w>
patter n</w>
inter est</w>
h an
fur ther</w>
exc iting</w>
every where</w>
do w
y ers</w>
wa it</w>
v ac
ti z
sp read</w>
sof tware</w>
no tice</w>
iz ed</w>
fi re</w>
an aly
pa ge</w>
orig in
velo p</w>
sug ge
ca t
tot ally</w>
nuc lear</w>
m ale</w>
jour ney</w>
f le
democr acy</w>
de velop</w>
v ic
ro r</w>
pri v
pot ential</w>
n ar
me asure</w>
m ers</w>
fol low</w>
big gest</w>
s end</w>
extra ordinary</w>
ad d</w>
te m
t end</w>
r ap
ph en
peri od</w>
nam ed</w>
te acher</w>
stud ent</w>
prin ci
ma ss</w>
com for
c lear
pre si
ob s</w>
gre w</w>
gra du
am ong</w>
po ver
pic k</w>
il lu
eiopa-Base:has N
eiopa-Base:hasN C
eiopa-Base:hasNC A</w>
di ag
af ri
ric ul
pl an</w>
medi cine</w>
le ad
k able</w>
goo gle</w>
com par
lea d</w>
k en</w>
j ap
in te
even tually</w>
d a</w>
st ore</w>
pover ty</w>
i ght</w>
hosp ital</w>
at ures</w>
ar m</w>
ver sion</w>
per spec
o w
it ary</w>
i tion</w>
ear li
buil dings</w>
b er</w>
wo od</w>
s ent</w>
poin ts</w>
pe ace</w>
lar gest</w>
fo ot
extre mely</w>
ex cept</w>
ag ing</w>
vi sual</w>
ul ly</w>
organiz ation</w>
m ent
j obs</w>
inter national</w>
ca use</w>
appro ach</w>
wat ching</w>
u sually</w>
suc cess</w>
sep ar
plan e</w>
hi v</w>
ess entially</w>
ef ully</w>
8 0</w>
z z
stan ding</w>
shi ps</w>
ri ch</w>
plan ts</w>
la un
camer a</w>
b ase
sic s</w>
produc ts</w>
om en
ob jects</w>
contin ue</w>
col labor
ac coun
su s</w>
prot e
ol der</w>
im medi
gal ax
di sa
de ter
de p
aliz ed</w>
tre es</w>
sig nific
ser ies</w>
resul ts</w>
par a
do w</w>
b it
u se
mo le
m ous</w>
inf lu
fortun ately</w>
fo ot</w>
f ing
da vid</w>
5 00</w>
2 00</w>
thr ough
electri city</w>
wi de</w>
some where</w>
sh ap
prof es
phen omen
li ar</w>
le ct</w>
l ose</w>
cre a
sa fe</w>
cont ex
bra ins</w>
re le
pro cess
de te
ari ly</w>
movi e</w>
f r
vel s</w>
some how</w>
ra is
osp here</w>
min ds</w>
expe ct</w>
en jo
ch ri
au gh
tem per
t t
sk y</w>
sho t</w>
se x</w>
distri bu
cre ative</w>
ri ch
lea ders</w>
g l
ec es</w>
doct or</w>
wi fe</w>
uc k</w>
thous and</w>
stu dies</w>
st y
sp ac
se ll</w>
sc en
s at
mode ls</w>
mo m</w>
lar ger</w>
impos sible</w>
as su
ur s</w>
tim ate</w>
sur ger
sor ts</w>
mean ing</w>
high er</w>
expen sive</w>
b om
sho wn</w>
seri ous</w>
scre en</w>
s ch
p ose</w>
fi gu
d ang
cra zy</w>
as se
al ing</w>
tra ining</w>
ste m</w>
for med</w>
allo wed</w>
afri can</w>
tou ch</w>
p tion</w>
ce le
writ ten</w>
pi eces</w>
n ot
inclu ding</w>
fin ding</w>
fac es</w>
f as
condi tions</w>
ar ds</w>
abo ve</w>
there fore</w>
m r
kil led</w>
ing ing</w>
hi c</w>
d augh
con ne
beau ty</w>
tradi tional</w>
t ree</w>
star s</w>
s ke
en e
ad di
tru st</w>
ri se</w>
in come</w>
il l
f our
exc ited</w>
produc tion</w>
mu se
individu als</w>
conne ct</w>
bio logy</w>
architec ture</w>
ta ught</w>
sup posed</w>
r us
r ay</w>
go l
go al</w>
er y</w>
cri sis</w>
bacter ia</w>
ad dre
tru ly</w>
rec ei
perspec tive</w>
en or
e se</w>
dre am</w>
compli cated</w>
m it
dru gs</w>
disc us
con vin
ci tiz
viol ence</w>
to ol</w>
su e</w>
fami lies</w>
cep tion</w>
1 8</w>
sh es</w>
lo wer</w>
hi m
favor ite</w>
fa ster</w>
dru g</w>
bo dies</w>
a de
wi se</w>
vi sible</w>
v al</w>
up on</w>
ri es</w>
k ill</w>
in fec
heal thy</w>
fanta stic</w>
af fec
zer o</w>
treat ment</w>
s si
ro le</w>
ox y
g -
fi ght</w>
dow n
ti tu
regi on</w>
ni a</w>
mat h</w>
cont ent</w>
communi ties</w>
ac k
parti cip
lo y
him self</w>
hea d
de ser
compe ti
ali ve</w>
ach ed</w>
tr ou
sta ti
neur ons</w>
f ine</w>
wor se</w>
wel l-
s low</w>
respon se</w>
g ni
free dom</w>
through out</w>
success ful</w>
str ate
serv ice</w>
ran ge</w>
n os
me ant</w>
ma tic</w>
ligh ts</w>
d ad</w>
ca ses</w>
sk ills</w>
logi st</w>
inven ted</w>
i al</w>
human ity</w>
gen es</w>
b la
al though</w>
t ory</w>
s mo
pri ce</w>
on e-
ho t</w>
fundam ental</w>
fam ous</w>
f er</w>
con ven
bun ch</w>
squ are</w>
pa in</w>
m or</w>
in se
ici al</w>
bi le</w>
we stern</w>
s y</w>
op s</w>
mach ines</w>
ke pt</w>
ir s</w>
i sts</w>
thre e-
phy sics</w>
op ti
o od</w>
mil itary</w>
is ms</w>
got ten</w>
f lu
f fe
earli er</w>
centr al</w>
1 0
stran ge</w>
re ct</w>
poli cy</w>
f low</w>
colle ag
clear ly</w>
be ings</w>
a st</w>
small er</w>
secon ds</w>
ri ghts</w>
recogn ize</w>
k en
contro l
contex t</w>
con cept</w>
c tions</w>
spe ct</w>
si ght</w>
patter ns</w>
ne u
me a
ini ti
b and</w>
americ ans</w>
allo ws</w>
wa ste</w>
solu tions</w>
re duc
progre ss</w>
man i
le t
ju sti
fami liar</w>
exp lo
e ting</w>
dang er
cho ose</w>
vir us</w>
to -
stic s</w>
perfor man
h ic
fas cin
engine ering</w>
won der</w>
wh ere
than ks</w>
recor d</w>
ma ssive</w>
lo ved</w>
list ening</w>
l li
l ay</w>
ef for
cos ts</w>
consi der</w>
connec tion</w>
af ter
a k</w>
wa iting</w>
val ues</w>
si bility</w>
de mon
bot s</w>
as soci
any where</w>
ab les</w>
a ge
tre at</w>
s sion</w>
r an</w>
pla stic</w>
phil os
philos op
ous ness</w>
la tions</w>
he y</w>
gre ater</w>
con tribu
ac tual</w>
a id</w>
re -
ra ise</w>
presi dent</w>
pl ant</w>
o ds</w>
dra w</w>
pre ss
lan ds</w>
dri ving</w>
de b
provi de</w>
muse um</w>
mi sta
inf ra
f ru
di vi
deci sions</w>
b its</w>
se x
man u
ma gic</w>
h ur
effec tive</w>
dol lar</w>
de sp
danger ous</w>
d ate</w>
u m
ter r
sustain able</w>
sig n
religi on</w>
rel ated</w>
le -
es ti
cri tical</w>
cal cul
ad ap
we ver</w>
teach ing</w>
st om
s wit
ro bots</w>
remar kable</w>
protec t</w>
photograp h
n one</w>
leg al</w>
ho wever</w>
cle an</w>
b on
au tom
19 8
wh ose</w>
wal ked</w>
v ul
tw o-
tra vel</w>
t v</w>
intellig ence</w>
fu el</w>
exi st</w>
d ation</w>
con ference</w>
b os
aw are</w>
ar ri
ag ricul
surger y</w>
expl or
diver sity</w>
curr ent</w>
conversa tion</w>
c ked</w>
arti st</w>
any more</w>
ac ci
tra in</w>
ta ins</w>
st ar</w>
s ong</w>
ru le</w>
re por
le gs</w>
i ly</w>
h ous
f y</w>
e ma
direc tion</w>
cul tural</w>
be coming</w>
b ank</w>
z e
ther n</w>
poli tics</w>
n ur
mu si
logi sts</w>
joh n</w>
ho le</w>
gla ss</w>
fore st</w>
do cu
ac tions</w>
underst ood</w>
p ho
c ket</w>
a h</w>
tion ary</w>
s ks</w>
prac tice</w>
pr int</w>
pl es</w>
mic ros
mi le</w>
mat ely</w>
it h</w>
hi stor
gene tic</w>
fin anci
ci es</w>
cap ac
5 ,000</w>
sub ject</w>
speci fic</w>
sli de</w>
qu ar
pul l</w>
physi ci
li ber
in stru
in c
immedi ately</w>
g or
flo or</w>
cu ri
re presen
r is</w>
mo tiv
me ter</w>
land sc
it ation</w>
incre ase</w>
gre atest</w>
fl ying</w>
f os
ent re
do g</w>
y el
web site</w>
ve hic
mp tion</w>
marke ts</w>
is la
fun ction</w>
enor mous</w>
en coura
civi liz
ther ap
spea king</w>
sh el
produc ed</w>
ph ones</w>
environ mental</w>
entre pr
e ment</w>
deca de</w>
c ali
br u
w eight</w>
sequ ence</w>
con clu
co ld</w>
st ation</w>
os y
mar s</w>
fa ir
ep ing</w>
dis appe
crea tivity</w>
the tic</w>
shar ing</w>
performan ce</w>
inde pen
for th</w>
follo wing</w>
fe ed</w>
eri a</w>
eng th</w>
chemi cal</w>
wer en</w>
ti n</w>
temper ature</w>
tele vision</w>
photograp h</w>
on ic</w>
g ul
for get</w>
for ces</w>
comple te</w>
al ter
vari ous</w>
tr ack</w>
survi ve</w>
priv ate</w>
oc cu
net works</w>
is ra
e k</w>
con duc
comm it
at ory</w>
use ful</w>
un fortunately</w>
ti vi
serv ices</w>
pp ing</w>
inspi red</w>
g ent
en ced</w>
cha ir</w>
bo ys</w>
and a</w>
7 0</w>
uni que</w>
sum mer</w>
shar ed</w>
s an</w>
poli ce</w>
it es</w>
i shed</w>
h ot
di a</w>
consi der
x -
ty pes</w>
sti ck</w>
st opp
ne ar</w>
mea su
ma in
gen e</w>
ev olved</w>
en ess</w>
doct ors</w>
confli ct</w>
co ver</w>
cl in
a head</w>
we ap
sig n</w>
s m</w>
rec ent</w>
pat h</w>
origin al</w>
men d
me ters</w>
me eting</w>
m ou
gra de</w>
cap it
br inging</w>
bir ds</w>
y a</w>
tre mend
pas sion</w>
no tic
help ed</w>
fin al</w>
ap h
we al
u l</w>
tra de</w>
socie ties</w>
r ot
gg ing</w>
fun ny</w>
bab ies</w>
al ism</w>
af gh
possi bly</w>
mos tly</w>
m ac
ligh tly</w>
institu tions</w>
effec ts</w>
direc tly</w>
de cl
consci ousness</w>
9 0</w>
s la
pi cal</w>
par k</w>
lon don</w>
li c
le vels</w>
disco ver</w>
de stro
c ure</w>
bu d
as ed</w>
al o
mo on</w>
li e</w>
indi an</w>
experim ents</w>
cro w
cla ss
an a</w>
aliz ation</w>
ai ds</w>
ac ting</w>
sear ch</w>
prof ess
obvi ous</w>
industri al</w>
he at</w>
gu e</w>
gen ome</w>
de si
st ance</w>
sp o
sor ry</w>
se ct
s at</w>
financi al</w>
fi gh
fa shi
care er</w>
be low</w>
an n
wor kers</w>
mo bile</w>
is land</w>
h us
ex ten
er a</w>
dr .</w>
cele br
ab i
sur r
ra tion</w>
pas s</w>
ot y
i m</w>
ga z
foc used</w>
de a
daugh ter</w>
d ness</w>
terri ble</w>
inve st
govern ments</w>
e ding</w>
challeng es</w>
camp ai
bio logical</w>
b ought</w>
1 6</w>
v y</w>
ta sk</w>
stru gg
gre en
expl ore</w>
emo tional</w>
capac ity</w>
campai g
bri lli
bir th</w>
ani stan</w>
anci ent</w>
afgh anistan</w>
ac tivi
wil ling</w>
scienti st</w>
sa mp
pre par
la ws</w>
il ed</w>
e mb
e ating</w>
din os
deci de</w>
comple x
comp on
co ffe
cap ital</w>
ber t</w>
b ill</w>
arti sts</w>
pla yed</w>
n an
manu fac
intro duc
f it</w>
deci sion</w>
bu t
tw ice</w>
tur ning</w>
tu be</w>
sp ending</w>
re al
n ation</w>
lon g-
j un
inst ance</w>
ev ent</w>
dom in
de m
communi cation</w>
ca uses</w>
b oun
z o
ter y</w>
t al</w>
st one</w>
sle ep</w>
re ver
pur pose</w>
pa id</w>
neigh bor
is tic</w>
i ra
complex ity</w>
co o
al g
wor ry</w>
vul ner
tri al</w>
stra ight</w>
press ure</w>
popu lar</w>
lec ules</w>
infra structure</w>
d ying</w>
cor ru
clos er</w>
car ry</w>
surpri sing</w>
s lightly</w>
s ent
s al</w>
re ma
pu sh</w>
p it
inte gr
i er</w>
hom e
charac ter</w>
ch ris</w>
b y
ad ul
w is
ur ban</w>
tran si
t ent</w>
mo lecules</w>
ig n</w>
dou b
dise ases</w>
deca des</w>
de e
cor por
ver ing</w>
tion ed</w>
sy mp
se lec
in tu
dev ices</w>
- year-old</w>
ta tions</w>
secre t</w>
sc ul
char ge</w>
cali for
bro ken</w>
addre ss</w>
te en
qu ick</w>
memor y</w>
ma m
m el
lo g
dro p</w>
col on
col lap
3 00</w>
y ou
trou ble</w>
st -
signific ant</w>
serv ation</w>
s -
resear ch
publi shed</w>
mi r
m ming</w>
l en
extr a</w>
age ment</w>
tremend ous</w>
supp ly</w>
pre v
ne ga
l o</w>
el ds</w>
desig ners</w>
degre es</w>
coffe e</w>
call s</w>
u sual</w>
u g
ti sh</w>
sty le</w>
re pe
m c
citiz ens</w>
califor nia</w>
br an
ar tic
ans wers</w>
ac ts</w>
1 0,000</w>
wor st</w>
wor k
ti mately</w>
sur ve
si des</w>
pas sed</w>
par ty</w>
m osphere</w>
h i</w>
chec k</w>
bl ind</w>
at mosphere</w>
ap art</w>
tra vel
shi ft</w>
ro oms</w>
radi o</w>
o ther
o es</w>
low -
justi ce</w>
et c</w>
di a
cre ates</w>
co gni
al le
supp or
struc tures</w>
re gu
pl u
per fec
no tion</w>
moun tain</w>
met aph
mar y</w>
ma gaz
la w
jour n
impro ve</w>
differ ences</w>
communi cate</w>
ch ur
am bi
ac ks</w>
x es</w>
w ear
se lect</w>
oxy gen</w>
notic ed</w>
l ying</w>
hy dro
hear ing</w>
foun dation</w>
bu b
2 ,000</w>
ro ck</w>
rich ard</w>
respon sibility</w>
phenomen on</w>
na tive</w>
le ts</w>
ec osy
e dge</w>
con fi
comm erci
bro ad
app ed</w>
and -
am i</w>
achi ev
ac cep
a -
see med</w>
s and</w>
pl at
ot ing</w>
organ isms</w>
na tions</w>
lo ad</w>
i an</w>
fre qu
ec h</w>
de ep
19 7
1 ,000</w>
tur ing</w>
ro l
p ra
ke ts</w>
il ing</w>
help ing</w>
fi x</w>
colleag ues</w>
ali st</w>
ad ver
a st
tex t</w>
stud ying</w>
stor s</w>
stand ard</w>
s op
religi ous</w>
r ace</w>
m b</w>
feel s</w>
far mers</w>
f all
electri c</w>
easi ly</w>
e ty</w>
e book</w>
d an</w>
cor ner</w>
an ces</w>
tis sue</w>
progra ms</w>
plan ets</w>
parti cles</w>
necess arily</w>
ne arly</w>
li c</w>
j an
gh t
condi tion</w>
brea k
bas is</w>
asse mb
ali ties</w>
achi eve</w>
win dow</w>
sa fe
pain ting</w>
ori th
organiz ations</w>
ni g
alg orith
ac ade
a th
a di
tot al</w>
stra tion</w>
sh u
re turn</w>
prof it</w>
op e</w>
ne l</w>
landsc ape</w>
ing ton</w>
ha ir</w>
figu red</w>
f light</w>
effici ent</w>
dimen sional</w>
cu stom
a vo
1 4</w>
tu red</w>
ter ed</w>
re duce</w>
ra in</w>
n it
mi d
mar k</w>
li br
kno wing</w>
ira q</w>
imp re
imag ination</w>
gi ant</w>
f ren
f ab
diag nos
chil d
bir d</w>
bal ance</w>
worl d
vol un
v ity</w>
sta ur
re staur
neigh b
luc ky</w>
high ly</w>
heal th
fin ished</w>
de st</w>
d ents</w>
civi l</w>
c ore</w>
bri dge</w>
bo at</w>
ag ree</w>
ach ing</w>
a sia</w>
x ed</w>
uni ties</w>
stre ets</w>
stopp ed</w>
ste in</w>
sol di
relation ships</w>
ref lec
possi bility</w>
pol lu
nu tri
necess ary</w>
m un
fl u</w>
fa ir</w>
defin ition</w>
cho ices</w>
at temp
as pe
ar a
an ced</w>
ag re
z en</w>
val u
ta il</w>
opport unities</w>
new sp
mus li
inter act</w>
eng ine</w>
benef it</w>
yel low</w>
te ch</w>
st ant</w>
s low
pri son</w>
op pos
mi ssing</w>
lea ds</w>
ha m
grap h</w>
emp loy
differ ently</w>
desp ite</w>
c ent</w>
argu ment</w>
1 .
w ear</w>
ul timately</w>
sen s
sa ving</w>
re spect</w>
ra id</w>
profess or</w>
pri ze</w>
organ ic</w>
nor m
me mbers</w>
m ur
ge or
f lies</w>
desig ner</w>
br it
br ings</w>
b one</w>
au str
ari an</w>
ach es</w>
va tive</w>
th row</w>
ta ge</w>
sit es</w>
sion ate</w>
o logy</w>
mom ents</w>
mo ves</w>
inv ol
h a</w>
g ate</w>
eng age</w>
effor t</w>
edu ca
da ma
att ack</w>
ac cor
vi sit</w>
sym me
sequ ences</w>
rep li
r ying</w>
pre ssed</w>
ot h</w>
no ise</w>
mr .</w>
mathema tics</w>
lead ing</w>
jo in</w>
fore ign</w>
f ying</w>
e co
cy cle</w>
cu le</w>
comfor table</w>
ad op
ad a</w>
tici ans</w>
scul p
ri c</w>
re ve
pu zz
pres ents</w>
po e
oper ation</w>
less on</w>
in ci
g an
fos si
fore ver</w>
fair ly</w>
emo tions</w>
disco very</w>
bre ad</w>
benef its</w>
b le
app ing</w>
agricul ture</w>
ac cur
val ent</w>
spec tr
rais ed</w>
r d</w>
pa ir</w>
or ies</w>
on -
k it
ir an</w>
i or</w>
hel ps</w>
he ld</w>
ear s</w>
co ast</w>
brilli ant</w>
be l
b ing</w>
ari a</w>
suff ering</w>
s er</w>
s ac
extre me</w>
engine ers</w>
demon str
demo cra
ch ick
busin ess
1 3</w>
wis dom</w>
wa sh
tal ity</w>
slow ly</w>
shar es</w>
ri ver</w>
pu ts</w>
pre vi
pen gu
oun ded</w>
it ely</w>
fo ld</w>
ex tin
ent ally</w>
consci ous</w>
app ly</w>
an cy</w>
ali a</w>
af raid</w>
temp or
si ck</w>
respon sible</w>
mat ters</w>
jap an</w>
fil led</w>
fe male</w>
fashi on</w>
engine er</w>
cre atures</w>
comp os
car to
bil lions</w>
be l</w>
be es</w>
be d
af ford</w>
adul ts</w>
si an</w>
quot e</w>
p ha
nega tive</w>
n ote</w>
mo thers</w>
m ouse</w>
figh ting</w>
fi elds</w>
fac ebook</w>
ele ments</w>
degre e</w>
aliz e</w>
w alls</w>
ty pical</w>
rep ort</w>
r a</w>
los s</w>
h ei
gh t-
fren ch</w>
fascin ating</w>
dy na
dd en</w>
d un
competi tion</w>
cap able</w>
beg ins</w>
ap preci
1 ,
vir tual</w>
va st</w>
titu de</w>
stre am</w>
sect or</w>
influ ence</w>
hop efully</w>
gg ed</w>
g all
experi ences</w>
easi er</w>
ea p</w>
dist ance</w>
ch eap</w>
ca ught</w>
adv anta
2 4</w>
z i
wi ld</w>
tra f
traf fic</w>
t ch</w>
sur ge
stati stics</w>
sh ou
sa v
respon d</w>
pro found</w>
p un
lea ving</w>
identi ty</w>
hol ding</w>
gu n</w>
gu i
fi cation</w>
dre ss
cri me</w>
cop y</w>
cel l
19 6
th u
simp li
mis sions</w>
men ted</w>
me at</w>
kil ome
f ically</w>
deter min
c king</w>
bri tish</w>
blo ck</w>
arti f
su it</w>
stan ces</w>
so ld</w>
si mul
r ough
lin k</w>
invest ment</w>
hea ds</w>
ev ol
euro pe
est er
ep ide
enjo y</w>
em brac
col ors</w>
bro ther</w>
bi lities</w>
ba se</w>
an thro
tra ined</w>
stu died</w>
spe ech</w>
sh ouldn</w>
pa int</w>
other wise</w>
off er</w>
ob se
magaz ine</w>
l ack</w>
inve st</w>
import antly</w>
i on</w>
go s</w>
fi f
deser t</w>
descri be</w>
con cep
brea st</w>
bl es</w>
spe ct
sen si
qu es</w>
opti mi
oc cur
o be
norm ally</w>
n e</w>
m ex
mex ic
ke e
k a</w>
it u
intel lec
inse cts</w>
grap h
gleif-L1:hasLegal A
gleif-L1:hasLegalA d
gleif-L1:hasLegalAd dress
gleif-L1:hasLegalAddress /
gleif-L1:hasLegalAddress/ gleif-
gleif-L1:hasLegalAddress/gleif- base
gleif-L1:hasLegalAddress/gleif-base :has
gleif-L1:hasLegalAddress/gleif-base:has C
gleif-L1:hasLegalAddress/gleif-base:hasC ity</w>
emp o
ef s</w>
dre ams</w>
campaig n</w>
ar ms</w>
therap y</w>
sudd en</w>
si ster</w>
princi ples</w>
ju d
it able</w>
inter pre
in visible</w>
in -
galax y</w>
fel low</w>
f ill</w>
consu mption</w>
4 00</w>
wa ve</w>
ste ps</w>
seri ously</w>
ser ved</w>
se ly</w>
p ing</w>
n ic
mole cule</w>
mil li
inc enti
gent le
fac tory</w>
every day</w>
eg y
econom ics</w>
dol ph
dama ge</w>
cat ch</w>
be at</w>
y ester
trans form</w>
ri d</w>
profes sional</w>
oppos ite</w>
oper ating</w>
langu ages</w>
l it</w>
intellig ent</w>
exi st
enti rely</w>
d ry</w>
civiliz ation</w>
app le</w>
ac u
war ming</w>
transp or
th -
spir it</w>
sp ring</w>
re m
prote in</w>
mou th</w>
lim ited</w>
lab or</w>
hus band</w>
ge ly</w>
fun c
ev ents</w>
de pression</w>
cre ation</w>
cir cle</w>
cel er
beli ef</w>
ang le</w>
al es</w>
air plane</w>
1 7</w>
vir uses</w>
vi su
tu m</w>
stan tly</w>
st uck</w>
st ate
ro ll</w>
princi ple</w>
pl us</w>
pho to</w>
l en</w>
ke eping</w>
f al
desi re</w>
deli ver</w>
concer ned</w>
con ta
c ard</w>
artic le</w>
argu e</w>
appro pri
yester day</w>
wo w</w>
v it
v es
to ward</w>
the ater</w>
p hi
p ap
op ini
man aged</w>
i ds</w>
hor ri
dyna mic</w>
desig ning</w>
deep ly</w>
commerci al</w>
co 2</w>
che mic
believ ed</w>
back ground</w>
am p</w>
am a</w>
ac celer
wh en
when ever</w>
wear ing</w>
tr act</w>
tion ally</w>
ti le</w>
ti l
te x</w>
te e
t ol
prot oty
predi ct</w>
open ed</w>
olu tionary</w>
oce ans</w>
maj ority</w>
lau gh
ki d
inter vie
institu te</w>
increas ingly</w>
ha te</w>
g on
follo wed</w>
fail ed</w>
ex hi
evi l</w>
en ter</w>
el lit
child hood</w>
a stron
wash ington</w>
ver sus</w>
tom or
tomor row</w>
thin ks</w>
surpri se</w>
sol ved</w>
rele v
qu a
pa ul</w>
p ages</w>
op ening</w>
lo s</w>
isra el</w>
in fin
ha bit
gr an
gener ate</w>
expe c
dri ven</w>
cri min
who m</w>
weal th</w>
struc tion</w>
spac es</w>
separ ate</w>
sat ellit
perfec tly</w>
organiz ed</w>
me d
mag ne
electri cal</w>
do ws</w>
con stantly</w>
char les</w>
accor ding</w>
a thy</w>
survi val</w>
so il</w>
prev ent</w>
prac tic
n as
mexic o</w>
he li
four th</w>
fing er</w>
far m</w>
fail ure</w>
f ted</w>
e li
du e</w>
dra wing</w>
cogni tive</w>
chur ch</w>
br and</w>
ar ts</w>
volun te
un less</w>
trans l
sho p</w>
phot os</w>
p ounds</w>
om y</w>
mon it
mo tion</w>
mat ch</w>
indepen dent</w>
har der</w>
gradu ate</w>
dimen sions</w>
def ine</w>
curr ently</w>
corru ption</w>
comp are</w>
- up</w>
transp ar
stu di
produc ing</w>
metaph or</w>
le tter</w>
ju mp</w>
in d
ga ther
ex plan
der ship</w>
def en
de part
class room</w>
ch imp
b ar</w>
ac tor</w>
vo ices</w>
ve ge
univer sal</w>
tu mor</w>
sp ot</w>
ran dom</w>
p il
nar ra
le gi
inter ven
gr y</w>
go ti
galax ies</w>
exper ts</w>
employ e
coun t</w>
co vered</w>
ch ap
af fect</w>
a war
5 0,000</w>
wor ried</w>
wei rd</w>
tre ated</w>
to i
tele sc
t ough</w>
supp ose</w>
suc ce
shap es</w>
ra in
r ural</w>
pp er</w>
p y</w>
ner v
lea ves</w>
lea dership</w>
inv ited</w>
inv esti
ga in</w>
fe ed
exi sts</w>
ex erci
equi valent</w>
e in
cre d
ca used</w>
ve -
st un
sign als</w>
sig nal</w>
pro jec
pa ying</w>
jap an
h ell</w>
ema il</w>
distribu tion</w>
din ner</w>
deb ate</w>
cop e</w>
contin ent</w>
con gre
compar ed</w>
c es
artif icial</w>
weap ons</w>
vic ti
sym bo
so li
plan ning</w>
ne goti
mar ri
la yer</w>
ke ys</w>
japan ese</w>
i i</w>
hol es</w>
hi dden</w>
has n</w>
h en
entrepr ene
ein stein</w>
di sci
di rect</w>
cor tex</w>
ch en</w>
business es</w>
ab str
a urs</w>
vehic le</w>
val ley</w>
v olu
thre at</w>
the sis</w>
st ac
sp here</w>
sho es</w>
se at</w>
re present</w>
neighbor hood</w>
mus cle</w>
mic ha
europe an</w>
ec u
construc tion</w>
circu m
chemic als</w>
appe ar</w>
wa ves</w>
t wit
t an</w>
strate gy</w>
st ea
sc an
ra tional</w>
n ames</w>
mor tality</w>
men tioned</w>
mal aria</w>
lun ch</w>
la dy</w>
in si
hy per
high est</w>
ge ograp
fac ts</w>
ex pression</w>
er -
di r
descri bed</w>
coun ter
cl oud</w>
ca mp</w>
c ally</w>
bl u
be ar</w>
are ly</w>
advanta ge</w>
z es</w>
wea ther</w>
su m</w>
se as
pr oud</w>
p ment</w>
nat ur
k ly</w>
hous es</w>
gro wn</w>
gener ations</w>
for ming</w>
feel ings</w>
dinos aurs</w>
collec tive</w>
co m</w>
chemi stry</w>
charac ter
20 th</w>
world wide</w>
wa ke</w>
viol ent</w>
sop hi
pro ce
perc ei
neur os
ma tically</w>
k ore
inter action</w>
hosp it
emb ar
dou ble</w>
disci pl
clos ed</w>
brit ain</w>
be t</w>
tion ing</w>
ten s</w>
t i</w>
ster y</w>
sk y
shou l
multi ple</w>
mini ster</w>
laun ched</w>
k .</w>
iz ing</w>
ini cal</w>
i dentif
hea vy</w>
gar den</w>
for ced</w>
emer ging</w>
cl inical</w>
b ic
wi ki
techni cal</w>
sh ort
pla yer</w>
or al</w>
on ed</w>
micha el</w>
los ing</w>
j ac
intellec tual</w>
ha m</w>
f at</w>
eng land</w>
cha in</w>
can ada</w>
associ ated</w>
ann oun
4 5</w>
th ri
tan e
spectr um</w>
r at
pe t</w>
ot ed</w>
mu lation</w>
mole cular</w>
mar ried</w>
libr ary</w>
le g</w>
kil ling</w>
inter face</w>
h all</w>
grand mother</w>
go ld</w>
f ting</w>
f ell</w>
dr ink</w>
deta ils</w>
democra tic</w>
cor al</w>
con sequences</w>
con f
colle ct</w>
cl ou
chri st
c ros
b in
ar my</w>
ap par
abi lities</w>
tri p</w>
tri als</w>
tee th</w>
surpri sed</w>
sm ell</w>
se tting</w>
rough ly</w>
resour ce</w>
rem ote</w>
pre -
nor thern</w>
movi es</w>
lo cation</w>
let ters</w>
l ers</w>
k ne
k a
hon est</w>
hom es</w>
h ou
gr and</w>
equi pment</w>
equ al</w>
emo tion</w>
ele ph
disa ster</w>
deta il</w>
depart ment</w>
col um
b right</w>
aw ful</w>
avo id</w>
us ers</w>
th om
studi o</w>
ste el</w>
spo ke</w>
sel ling</w>
re a
ple asure</w>
oc ca
me th
lead er</w>
l ac
ju mp
jo y</w>
in ner</w>
import ance</w>
hy po
est ab
cul tures</w>
cont act</w>
co al</w>
ca ting</w>
bro wn</w>
al -
ad ed</w>
3 5</w>
10 0,000</w>
wer ed</w>
trans formation</w>
soldi ers</w>
se ction</w>
sa d</w>
rec y
re plac
pla y
pa ki
mean ing
man agement</w>
less ons</w>
ken ya</w>
gra m</w>
feed back</w>
de aling</w>
control led</w>
ca te
bud get</w>
affec ted</w>
acci dent</w>
a tional</w>
war m</w>
v an</w>
sto od</w>
sh ir
s ar
regu lar</w>
re action</w>
r ates</w>
pro ve</w>
pac i
p in
os ity</w>
nig eria</w>
musi ci
kilome ters</w>
j ames</w>
intu i
ha dn</w>
grap hic</w>
geor ge</w>
ess ential</w>
d p</w>
bu s</w>
absolu te</w>
3 ,000</w>
where as</w>
w ine</w>
under ne
underne ath</w>
u t
thou ghts</w>
stre ss</w>
sh all</w>
sc o</w>
ri dge</w>
research ers</w>
proper ty</w>
produc tive</w>
possi bilities</w>
pos t-
part ner</w>
p el
open -
long- term</w>
it ual</w>
fossi l</w>
fin ish</w>
emp ty</w>
effec tively</w>
chick en</w>
austr alia</w>
accoun t</w>
1 7
v an
tri l
to x
sug gest</w>
speci fically</w>
sophi sti
sat ur
s per
r ound</w>
pic ally</w>
or ders</w>
nerv ous</w>
met al</w>
hor se</w>
f ts</w>
en ed</w>
de st
d i</w>
cla ssi
car ds</w>
arri ved</w>
analy sis</w>
ama z
ag gre
ad ult</w>
3 d</w>
wi re</w>
vari ety</w>
u nex
transi tion</w>
tis m</w>
sug ar</w>
sub -
shar ks</w>
sa ved</w>
ro ots</w>
radi cal</w>
progra m
pri me</w>
prac tical</w>
po le</w>
pic ked</w>
on ing</w>
moun tains</w>
mi ss</w>
mathema tical</w>
iz ation</w>
it i</w>
inven tion</w>
hon or</w>
h os
gra vity</w>
da ily</w>
curi ous</w>
call ing</w>
c ross</w>
be ach</w>
addi tion</w>
1 50</w>
w ings</w>
valu able</w>
uni on</w>
thom as</w>
sugge sts</w>
st atus</w>
sour ces</w>
scen e</w>
s and
p y
org ans</w>
on g
mon y</w>
mi x</w>
me as
m as</w>
imp li
her o</w>
gi ft</w>
fun d</w>
fi sh
fe wer</w>
fa il</w>
experi enced</w>
exist ence</w>
ex press</w>
dem and</w>
de -
d le</w>
cr y
consider ed</w>
connec tions</w>
clo ck</w>
ch ron
bre ath</w>
adv anced</w>
a i</w>
9 9</w>
2 1
var d</w>
techni ques</w>
st able</w>
relev ant</w>
rela tively</w>
qu it
protec tion</w>
pri vi
pre gn
oper ate</w>
n ose</w>
m on</w>
is on</w>
gu ar
go als</w>
fol ks</w>
ev olutionary</w>
di o
di et</w>
charac ters</w>
bu ying</w>
at trac
at en</w>
architec t</w>
an o</w>
ag ers</w>
0 0
vi a</w>
v ote</w>
v a</w>
ul tra
ty pically</w>
tar get</w>
stu p
sil k</w>
sc ot
requi re</w>
ren e
radi ation</w>
plat form</w>
pla yers</w>
photograph s</w>
newsp aper</w>
meth od</w>
mar ine</w>
ma ster</w>
logi c</w>
life time</w>
ing u
increas ing</w>
i gn
fre sh</w>
employe es</w>
d ots</w>
convin ce</w>
ci l</w>
bir th
alter native</w>
ad mini
200 8</w>
vi s
te sting</w>
swi m</w>
sa u
qu est</w>
prepar ed</w>
per ception</w>
not es</w>
mo di
j os
identif y</w>
fl at</w>
expla ins</w>
epide mic</w>
en coun
en cing</w>
en cies</w>
effici ency</w>
defin ed</w>
de l
cap e</w>
ca st</w>
c ere
bu sh</w>
be e
ax is</w>
awar eness</w>
ang ing</w>
z one</w>
win ter</w>
wiki pe
war s</w>
v ag
tradi tion</w>
sent ence</w>
restaur ant</w>
re ward</w>
re presents</w>
previ ous</w>
pl om
on i
nas a</w>
mu m</w>
mot or</w>
li ked</w>
introduc ed</w>
ill ness</w>
fac tor</w>
di plom
dar win</w>
cred it</w>
ban g</w>
at lan
adver ti
19 5
z a</w>
vulner able</w>
vide os</w>
us h</w>
the me</w>
st y</w>
sex ual</w>
se ts</w>
safe ty</w>
sa tis
ro ads</w>
re place</w>
re gre
r ou
pri mary</w>
person ally</w>
perc en
para dig
paci fic</w>
ol y
neuros ci
ment ary</w>
kit chen</w>
fi shing</w>
fac ing</w>
ecosy stem</w>
cle an
chri sti
c has
bro thers</w>
brea king</w>
bat tery</w>
ar ity</w>
ar ing</w>
anti -
ali sts</w>
6 00</w>
writ er</w>
twit ter</w>
sto ck</w>
ri sks</w>
proper ties</w>
prom ise</w>
plan es</w>
marke ting</w>
la dies</w>
l at
gi es</w>
er al</w>
environ ments</w>
dy nam
direc tor</w>
defin itely</w>
dee per</w>
al ed</w>
ac cept</w>
un like</w>
tri ck</w>
te sts</w>
swit ch</w>
strugg le</w>
str ength</w>
prote ins</w>
process es</w>
por tra
per s</w>
pat ent</w>
no r</w>
men tion</w>
marri age</w>
ma kers</w>
li qu
j er
instru ment</w>
ga p</w>
g ment</w>
exp an
ex change</w>
ear th
dri ver</w>
do gs</w>
convin ced</w>
confi dence</w>
ci sco</w>
bi a</w>
behavi ors</w>
ar ies</w>
appropri ate</w>
wonder ing</w>
win dows</w>
wikipe dia</w>
wi red</w>
u ne
stup id</w>
ster o
ser ving</w>
sen ses</w>
sen ding</w>
se tt
s l
ro of</w>
requi res</w>
r are</w>
por tion</w>
poli ticians</w>
par aly
natur ally</w>
mista ke</w>
m ates</w>
m aps</w>
lo ck</w>
lap top</w>
in king</w>
har vard</w>
ger many</w>
gener ally</w>
fra me
f es
en ted</w>
ea stern</w>
e missions</w>
e ds</w>
dre w</w>
cra sh</w>
cra ft</w>
coo king</w>
collap se</w>
cen ters</w>
car rying</w>
blo cks</w>
bat tle</w>
as si
ap es</w>
al u
0 0,000</w>
wat ched</w>
un usual</w>
tra ge
t les</w>
s lu
recei ved</w>
re ven
psycho logy</w>
prom is
ph an
pengu ins</w>
neu ro
li cen
l in</w>
inv ent</w>
intro duce</w>
in ev
im mun
har d
goo ds</w>
g y
g ation</w>
fa ith</w>
expe cted</w>
compu ting</w>
compon ents</w>
cli ck</w>
chimp an
chimpan ze
bot tle</w>
ber g</w>
autom a
appli ed</w>
an alo
am ing</w>
u. k.</w>
tril lion</w>
shar k</w>
s na
s co
ri di
re min
re di
re d
r ab
pul led</w>
poe try</w>
p ed</w>
no on</w>
mb le</w>
log ically</w>
liqu id</w>
l ou
in tri
h its</w>
gi cal</w>
fra me</w>
for mer</w>
di c
cli mb
car efully</w>
bur ning</w>
bub ble</w>
bro ke</w>
b allo
ap art
ance stors</w>
ac qui
ve ment</w>
un it</w>
the -
t ons</w>
str ing</w>
sol ving</w>
run s</w>
re sc
percen tage</w>
pas sionate</w>
o f-
no vel</w>
musi cal</w>
me mber</w>
m ol
ing redi
infec ted</w>
har ve
ha n</w>
h it
gri d</w>
gra in</w>
explor ation</w>
exerci se</w>
discus sion</w>
di sh</w>
consu mer</w>
collabor ation</w>
c o</w>
bra z
at oms</w>
an der
ad ded</w>
sti mul
ste ve</w>
shap ed</w>
sensi tive</w>
ro bert</w>
ri de</w>
rap i
pre ven
po o
pac k
or che
orche str
mista kes</w>
mir ror</w>
man age</w>
mal es</w>
labor atory</w>
interest s</w>
hospit als</w>
hor iz
health care</w>
g ay</w>
fran cisco</w>
emp athy</w>
de struction</w>
cu tting</w>
con sum
braz il</w>
bi om
arch i
ara b</w>
wi re
us er</w>
tempor ary</w>
t ables</w>
sophisti cated</w>
situ ations</w>
satellit e</w>
re ti
r hy
qu an
protec ted</w>
pollu tion</w>
or ing</w>
or an
ob jec
neighb ors</w>
hop ing</w>
h il
gul f</w>
gen i
gen cy</w>
g ence</w>
es timate</w>
ent y</w>
e di
dro pped</w>
disp lay</w>
depen ds</w>
de vi
comfor t</w>
col li
bur n</w>
au ton
ac tiv
a ti
7 5</w>
- like</w>
whe el
vir g
three- dimensional</w>
tain ment</w>
sp or
sou thern</w>
sig ned</w>
power ed</w>
po p</w>
pi ano</w>
pe ak</w>
opini on</w>
o tic</w>
n .</w>
mil k</w>
micro bes</w>
medi um</w>
ma ker</w>
isla m</w>
inno vative</w>
hot el</w>
h ac
flo wers</w>
explan ation</w>
entreprene urs</w>
encoura ge</w>
embar ra
elec tro
crow d</w>
cre te</w>
co ordin
clos ely</w>
cap ture</w>
c ers</w>
b ay</w>
amoun ts</w>
ag er</w>
you tube</w>
wh el
travel ing</w>
trac king</w>
stor y
se es</w>
resi li
recor ded</w>
re ached</w>
qu anti
pain t
p ack</w>
over whel
mu sh
move ments</w>
inspi ration</w>
in sight</w>
hou se
f alls</w>
er ror</w>
ele ment</w>
cor rec
con centr
comb ine</w>
comb ination</w>
ba g</w>
af for
ul timate</w>
the s</w>
sing ing</w>
si r</w>
sho ot</w>
s ons</w>
s mile</w>
rela tive</w>
recy cl
qui et</w>
presen tation</w>
pres ence</w>
pre dat
perfor ming</w>
pa y
mis m</w>
mi gr
meaning ful</w>
l ant</w>
inclu de</w>
in struc
hur t</w>
ge -
fore sts</w>
fac tors</w>
f it
electr onic</w>
eg gs</w>
consi st
che st</w>
activi ties</w>
accur ate</w>
ab sor
200 7</w>
2 000</w>
2 .
1 5
y o</w>
wal ks</w>
vie ws</w>
tre ating</w>
transpor tation</w>
ta ste</w>
ta r</w>
sun light</w>
st af
samp le</w>
quan tum</w>
org an</w>
on ics</w>
ol ds</w>
occur red</w>
ner ship</w>
lin ked</w>
ke y
k ness</w>
in sul
her oes</w>
frame work</w>
ex ecu
continu ed</w>
c kets</w>
bl ack
aspe ct</w>
as ks</w>
a we
xi de</w>
where ver</w>
top ic</w>
ti e</w>
techno logical</w>
te sted</w>
t ape</w>
st eri
sha me</w>
ro b
religi ons</w>
re late</w>
poin ted</w>
pl ans</w>
mi rac
manufac turing</w>
l or
jo ke</w>
hydro gen</w>
hol ds</w>
gh ten
g un
fi le</w>
fall ing</w>
emp i
educa tional</w>
e ful</w>
dra matic</w>
conven tional</w>
conclu sion</w>
collec tion</w>
co w</w>
cla s
camer as</w>
ca ble</w>
c at</w>
blo g</w>
birth day</w>
b ones</w>
auth or</w>
ab led</w>
a sh
vac cine</w>
u. n.</w>
ton ight</w>
tol er
te ams</w>
stron ger</w>
si x
s tion</w>
re lease</w>
re ci
li ver</w>
li an</w>
institu tion</w>
i um</w>
g li
g dp</w>
fundam entally</w>
fortun ate</w>
expl os
exi sting</w>
er ic</w>
econom ists</w>
de di
d able</w>
cor rect</w>
circum stances</w>
ang el
algorith ms</w>
after noon</w>
tou ched</w>
surve y</w>
surge on</w>
sha ke</w>
se ven
se v
rene w
pol len</w>
per form</w>
par alle
p ort</w>
out come</w>
oun ding</w>
on e
mi x
ly wood</w>
increas ed</w>
glo be</w>
g ers</w>
fa ke</w>
dri ves</w>
defen se</w>
con ser
com man
cen tu
c ents</w>
bo w</w>
bic y
attemp t</w>
architec ts</w>
abstr act</w>
a de</w>
wat er
w are</w>
unex pe
th in</w>
techni que</w>
t ac
swi mming</w>
sp lit</w>
sig ns</w>
s ca
ro cket</w>
re st
re mind</w>
re g
rapi dly</w>
r and
qu e
pri son
ph ra
part ners</w>
paradig m</w>
paki stan</w>
gol den</w>
gentle men</w>
fun ding</w>
fle xi
fin ance</w>
fi ve-
fe eding</w>
exper t</w>
exp and</w>
e e
dete ct</w>
decl ine</w>
de cre
cur ve</w>
cre ature</w>
cour t</w>
c a</w>
bos ton</w>
bl in
behavi oral</w>
b o</w>
a stero
volu me</w>
sp ok
s w
rom an
re gul
psy ch
po cket</w>
per man
od d</w>
measu red</w>
ma d</w>
liter ature</w>
laun ch</w>
k u
k ing
in sur
illu str
h all
exhi bi
ex act</w>
ent ure</w>
comb ined</w>
clou ds</w>
bo xes</w>
b ers</w>
adv ice</w>
a do
20 10</w>
2 1</w>
wonder ed</w>
whi st
well- being</w>
under water</w>
ul l</w>
te e</w>
swe et</w>
sustain ability</w>
staf f</w>
sk ill</w>
sc rat
sa tion</w>
sa ge</w>
s che
s a</w>
ru b
regi ons</w>
re main</w>
ra m</w>
pol y
phy sically</w>
philosop hy</w>
o gen
mp s</w>
min ate</w>
me tho
inter nal</w>
instru ments</w>
in her
fe atures</w>
ev ening</w>
elec tion</w>
ele v
deter mine</w>
corpor ate</w>
connec ting</w>
congre ss</w>
con stitu
bom b</w>
b age</w>
b a</w>
auth ority</w>
ar ab
ac ted</w>
youn ger</w>
un clear</w>
thre at
spir ing</w>
ru p
recor ds</w>
re ference</w>
poli o</w>
ph ar
particip ate</w>
op tions</w>
op tion</w>
om ic</w>
narra tive</w>
mon keys</w>
ligh ting</w>
kee ps</w>
k o
joh n
es tim
eng aged</w>
doub t</w>
desig ns</w>
dan cing</w>
d ary</w>
cop y
challeng ing</w>
appli cations</w>
ac i
21 st</w>
worl ds</w>
trans formed</w>
ti ous</w>
te mber</w>
te a</w>
sub jects</w>
son gs</w>
so -
sep tember</w>
selec tion</w>
sel s</w>
sa har
ridi cul
rever se</w>
re fu
qu een</w>
prin ting</w>
predi ct
po em</w>
pl ate</w>
my stery</w>
musli m</w>
mechan ical</w>
me -
lar gely</w>
l ength</w>
k i</w>
j i
is lands</w>
horri ble</w>
ha iti</w>
ger man</w>
fu els</w>
fle w</w>
fing ers</w>
figu res</w>
f ed</w>
estab li
es the
en able</w>
embrac e</w>
e pi
dia be
dea ths</w>
cli p</w>
cli mb</w>
cho col
chi ca
chica go</w>
c .</w>
bi ke</w>
bar ri
ast oni
1 6
. com</w>
zer o-
y i
wer ing</w>
villa ges</w>
v or</w>
unexpe cted</w>
un known</w>
u pper</w>
ter nal</w>
symp tom
st ands</w>
simpli city</w>
sc ar
rema ins</w>
ra w</w>
ori ties</w>
obse ssed</w>
ne st</w>
ne s
mi d-
messa ges</w>
l atest</w>
in ts</w>
in spiring</w>
hous ing</w>
gener ated</w>
exp on
ex cell
enter tainment</w>
dist in
den se</w>
con crete</w>
compon ent</w>
clas sic</w>
chan nel</w>
ch rom
ca using</w>
bu dd
bor ing</w>
ad mit</w>
ac cu
1 2
wire less</w>
victi ms</w>
ul ous</w>
ter -
su sp
sou l</w>
some what</w>
p en</w>
oly mp
ob ama</w>
o logical</w>
na vi
inv ent
ing -
gra tion</w>
gr ay</w>
fil ms</w>
egy pt</w>
dis gu
direc tions</w>
cy ber
conven i
concep ts</w>
con c
com mon
clo thes</w>
ck y</w>
c ines</w>
bu sy</w>
br on
b al</w>
a y
7 0s</w>
6 0s</w>
w l</w>
va st
ti tle</w>
sculp ture</w>
s ki
s can</w>
ri ce</w>
rhy th
rele ased</w>
r w
pri ces</w>
pot entially</w>
pha se</w>
par king</w>
p ost</w>
oun d
opp ing</w>
nei ther</w>
min d
mi ser
lun g</w>
j el
it arian</w>
imp le
graph ics</w>
fun ctions</w>
fran kly</w>
fac ed</w>
expla ined</w>
entrepr en
entrepren eu
earth qua
e ch
de sper
de man
dan ger</w>
con servation</w>
collec ted</w>
centu ries</w>
celebr ate</w>
bu cks</w>
b ol
afric ans</w>
200 5</w>
19 th</w>
whe el</w>
top s</w>
terr ori
telesc ope</w>
tech n
t at
symme try</w>
sp in
recor ding</w>
r ors</w>
pos es</w>
par is</w>
om es</w>
o ci
neu tr
multi -
magne tic</w>
lo yed</w>
j ury</w>
in ations</w>
identi cal</w>
ici de</w>
green house</w>
ge ous</w>
fi re
f rac
dolph ins</w>
distribu ted</w>
d ates</w>
conversa tions</w>
con stant</w>
chi p</w>
c ross
b ad
auth enti
ac tors</w>
vehic les</w>
tr end</w>
sy l
su rely</w>
state ment</w>
soli d</w>
shu t</w>
shoul der</w>
s lo
ri st</w>
ri sing</w>
resi stance</w>
re pu
process ing</w>
pro of</w>
phi li
pap ers</w>
paint ings</w>
p ort
occu r</w>
obe sity</w>
no w
loo p</w>
lo vely</w>
la ke</w>
k ar
in put</w>
impli cations</w>
i phone</w>
gro ws</w>
gre at
gen der</w>
g ates</w>
flo wer</w>
em bed
divi ded</w>
dep end</w>
contro ver
comp la
co ok</w>
char ity</w>
chap ter</w>
care ful</w>
bl ed</w>
y n
tici an</w>
struc k</w>
sta yed</w>
spi der</w>
se y</w>
scri p
sc ore</w>
rus sia</w>
ro ot</w>
requi red</w>
per su
p on
organ ism</w>
mi d</w>
le st</w>
king dom</w>
intui tive</w>
infin ite</w>
i op
hand le</w>
g ps</w>
fur nit
fr ance</w>
four -
fe der
f at
explor ing</w>
equ ation</w>
dis order</w>
den sity</w>
de ad
d ity</w>
consum ers</w>
commit ment</w>
co -
clin ic</w>
cle ver</w>
cla sses</w>
cal cu
au d
as s</w>
ali an</w>
4 ,000</w>
un k</w>
ti ll</w>
ti an</w>
t all</w>
sti cks</w>
sc ared</w>
roman tic</w>
re ment</w>
quar ter</w>
puzz le</w>
pi le</w>
pe ac
par ent</w>
p a</w>
meas uring</w>
me ss</w>
mani pul
m m</w>
l ot
jo ined</w>
inter view</w>
inter active</w>
immun e</w>
gi le</w>
geni us</w>
furnit ure</w>
extin ct</w>
exi sted</w>
end a</w>
econom ist</w>
dynam ics</w>
dis orders</w>
d h</w>
con tra
circu it</w>
ch ose</w>
certain ty</w>
c up</w>
c tic</w>
bu st</w>
bro w
be ll</w>
b ag
automa tically</w>
allo wing</w>
ag ency</w>
zo om</w>
ug anda</w>
ty -
tane ously</w>
t our</w>
symptom s</w>
si ties</w>
sh or
sev ere</w>
se n</w>
ric k</w>
r he
pregn ant</w>
physici st</w>
pe ter</w>
pa tho
optimi stic</w>
op posed</w>
mechan ism</w>
mar ch</w>
mam m
li ft</w>
la tin</w>
journ alist</w>
grap hy</w>
gra ss</w>
ge ome
fac ial</w>
f loo
f are</w>
f an</w>
ex am
embed ded</w>
ei gh
ed it
dra matically</w>
do zen</w>
di v
der ing</w>
de sk</w>
de sc
cor n</w>
cla im</w>
cl ay</w>
christ mas</w>
can di
but ton</w>
awe some</w>
ac ces
200 9</w>
y ard</w>
ves sels</w>
tri cks</w>
th al</w>
sta tions</w>
spok en</w>
smo ke</w>
sli des</w>
si zed</w>
si vely</w>
sh ment</w>
s now</w>
reme mb
reco very</w>
re move</w>
py ra
provi ding</w>
produc tivity</w>
pre ssing</w>
po wers</w>
partic le</w>
on y
no where</w>
mon key</w>
me et
li zed</w>
le f
i e</w>
hun ger</w>
her self</w>
happ ier</w>
hal f-
func tional</w>
fru str
fri en
fal se</w>
eth iop
econom ies</w>
d der</w>
communi cations</w>
chocol ate</w>
cha mp
car ried</w>
brea the</w>
au tism</w>
att acks</w>
att ached</w>
argu ments</w>
an xi
am in</w>
ad am</w>
20 ,000</w>
tu m
tr uc
to wer</w>
tex as</w>
tal s</w>
surr ounded</w>
stand ards</w>
so ft</w>
ser ves</w>
re spec
re solution</w>
re lation</w>
psy chi
psychi at
prob ability</w>
poo rest</w>
pla ys</w>
p ure</w>
or bit</w>
ol ing</w>
na i
micros cope</w>
mi es</w>
le tting</w>
lau gh</w>
k er
ju dge</w>
incre ases</w>
incenti ves</w>
ide al</w>
h eight</w>
g ments</w>
g am
fun ded</w>
frien dly</w>
fr ank</w>
et ary</w>
du st</w>
do ors</w>
divi de</w>
dir ty</w>
depen ding</w>
d ur
con go</w>
bar re
ang ers</w>
an -
year- olds</w>
wh ales</w>
wan ting</w>
trans late</w>
tr uck</w>
ta x</w>
ta sks</w>
syn thetic</w>
swe den</w>
sil ence</w>
si lic
se l</w>
sav ings</w>
samp les</w>
rela tions</w>
ra p</w>
psycho logical</w>
pre ce
popu lations</w>
phar mac
per si
pe st</w>
pas sing</w>
pal est
pain ful</w>
pa d</w>
out comes</w>
orig ami</w>
musli ms</w>
multi p
ment ally</w>
meet ings</w>
lo cked</w>
life style</w>
le sc
isla mic</w>
inten se</w>
hel lo</w>
grand father</w>
g ent</w>
fif th</w>
enter ed</w>
ene my</w>
el ling</w>
col or
co ck
chrom os
bri ef</w>
b y-
b en</w>
appreci ate</w>
a side</w>
z z</w>
wo o
wea k</w>
vir tually</w>
u. s</w>
tele phone</w>
t os
t ack
spir itual</w>
sp r
sp ar
so- called</w>
sho oting</w>
she ep</w>
se ssion</w>
se cure</w>
s wa
s n
re pair</w>
re gar
re fer
re comm
re aching</w>
rais ing</w>
pu shing</w>
proper ly</w>
ne ts</w>
main ly</w>
k ni
is o
interest ingly</w>
inspi re</w>
hi de</w>
hi cal</w>
habit at</w>
h ren
fro zen</w>
for m
er o
dr inking</w>
disappe ared</w>
di ct
destro yed</w>
der ek</w>
der ed</w>
den cy</w>
de ce
d less</w>
clu b</w>
be e</w>
b in</w>
atlan tic</w>
agre ed</w>
after wards</w>
1 9</w>
z ar
y e
wh at
w ol
vulner ability</w>
vir tu
tox ic</w>
tic a</w>
terr or
tal i
ta g</w>
sp ots</w>
seas on</w>
represen ted</w>
profes sion
privi le
preci sely</w>
plac ed</w>
phra se</w>
oran ge</w>
off ers</w>
off ered</w>
mus cles</w>
motiv ation</w>
lin ks</w>
lim its</w>
kore a</w>
il legal</w>
hea ven</w>
gran ted</w>
g as
fu sion</w>
fri ghten
flo ating</w>
fi ber</w>
ex tent</w>
er adi
equ ally</w>
de gra
dat ab
ca u
bor der</w>
bi ble</w>
ballo on</w>
b and
astron om
assu me</w>
appe ars</w>
all -
adverti sing</w>
wh ale</w>
tri c</w>
toi let</w>
til ity</w>
ti les</w>
si x-
se ed</w>
scri pt</w>
rw anda</w>
ro cks</w>
rand om
presen ted</w>
practic es</w>
pl enty</w>
photograp hy</w>
pas sen
on y</w>
ob stac
mic s</w>
lo red</w>
le ton</w>
j ack</w>
ir on</w>
illu sion</w>
har dly</w>
h ill</w>
gu il
gra b</w>
govern ance</w>
fortun e</w>
for mul
foot age</w>
fe ature</w>
ey e
exhibi tion</w>
dra wn</w>
dist ant</w>
disappe ar</w>
dio xide</w>
diabe tes</w>
d v
d ding</w>
cur ren
coun cil</w>
con trac
ca tal
ca m
c ting</w>
brea thing</w>
brea ks</w>
back wards</w>
att ac
appli cation</w>
appe ared</w>
an gry</w>
al y</w>
al d</w>
ado lesc
ad ding</w>
acces sible</w>
acade mic</w>
ab un
a k
9 5</w>
200 4</w>
2 7</w>
x- ray</w>
wel come</w>
trage dy</w>
ti ed</w>
thro wn</w>
t ary</w>
symbo l</w>
suff er</w>
su bur
silic on</w>
si de
she et</w>
se t
ref lect</w>
reduc tion</w>
reas on
re t
r us</w>
publi c
provi ded</w>
pre fer</w>
po ol</w>
po lar</w>
over all</w>
ou ri
neur on</w>
ne ls</w>
mr i</w>
mor ality</w>
min ing</w>
mil len
men tation</w>
main tain</w>
kne e</w>
is ol
im provi
i b
g gs</w>
ful l-
fi xed</w>
edu cated</w>
earthqua ke</w>
d or
curi osity</w>
copy right</w>
control ling</w>
contra st</w>
char t</w>
cha os</w>
ca ta
ca mb
c ry</w>
c ot
be have</w>
be er</w>
b f</w>
anti cip
am ent</w>
ag enda</w>
a the
2 2</w>
1 4
u ary</w>
tu s</w>
tal ent</w>
succe ed</w>
sto res</w>
ste ms</w>
stan ford</w>
sp reading</w>
sc ary</w>
robo tic</w>
provi des</w>
prototy pe</w>
privile ge</w>
phil anthro
paralle l</w>
pa th
ol dest</w>
off icial</w>
no bel</w>
met abo
man ha
life -
less ly</w>
leg acy</w>
la be
jan uary</w>
histor ical</w>
hea ded</w>
gn ity</w>
glob alization</w>
frequ ency</w>
fil m
feder al</w>
fascin ated</w>
est s</w>
en ting</w>
eleph ant</w>
ele g
disco ver
cy cl
con tains</w>
con sequence</w>
cata stro
capit alism</w>
bar s</w>
b low</w>
b by</w>
au r</w>
adap t</w>
wi de
vi et</w>
v ot
un its</w>
un believ
tt an</w>
transpar ency</w>
trans forma
the ore
the less</w>
terror ism</w>
spea kers</w>
so viet</w>
shir t</w>
se ats</w>
se as</w>
s in</w>
recogn ized</w>
r out
person ality</w>
ox ford</w>
over come</w>
organiz e</w>
orchestr a</w>
manha ttan</w>
m our</w>
licen se</w>
l ens</w>
it ory</w>
ir ani
integr ated</w>
innov ations</w>
imag ined</w>
hi ggs</w>
her o
gol f</w>
gh ana</w>
g on</w>
fli p</w>
emer gency</w>
destro y</w>
custom ers</w>
construc t</w>
con stra
che aper</w>
calcul ate</w>
ca tes</w>
bicy cle</w>
be lon
b i</w>
apart ment</w>
a ff
a .
6 5</w>
3 0s</w>
- to-
- of-
y ours</w>
wil li
ug ly</w>
u r</w>
ter ing</w>
t es
t ab
su icide</w>
spor ts</w>
spea ker</w>
sh y</w>
sh r
secon dly</w>
sear ching</w>
s w</w>
ridicul ous</w>
repu tation</w>
re son
ra ti
photograp her</w>
p an</w>
ow ned</w>
op ens</w>
off ic
o ft</w>
na tion
micros oft</w>
mi ssed</w>
memor ies</w>
mar tin</w>
it e
industri es</w>
inclu des</w>
in ju
hu mor</w>
hon est
hear ts</w>
han g</w>
ga ther</w>
fir m</w>
far mer</w>
extr act</w>
ex pres
electr onics</w>
disa gre
determin ed</w>
descri bes</w>
depen dent</w>
demonstr ate</w>
cri tici
coura ge</w>
confli cts</w>
con tr
cha se</w>
c ke
bri ef
boun dar
bo ld</w>
bo ards</w>
bi as</w>
beli efs</w>
aspe cts</w>
as pi
appar ently</w>
an ony
affor dable</w>
8 0s</w>
200 3</w>
19 4
win ning</w>
volunte ers</w>
vie t
transp ort</w>
ta s
t ank</w>
sp an
reco gni
recogni tion</w>
re r</w>
produc es</w>
pre scri
po et</w>
ple as
perman ent</w>
p ir
p ace</w>
ne ar
musici ans</w>
monit or</w>
lo aded</w>
li ze</w>
lec ture</w>
le m
lan ded</w>
itu de</w>
invol ves</w>
in jec
in ch</w>
impro vement</w>
gui de</w>
guar an
gan g</w>
foot print</w>
fo ods</w>
fl ori
expla ining</w>
el se
dro ve</w>
di gnity</w>
di g</w>
di alo
dar kness</w>
da y
cu te</w>
cr ying</w>
cor respon
collec ting</w>
chimpanze es</w>
capit a</w>
ca ts</w>
boundar ies</w>
at tribu
an tar
aliz ing</w>
achiev ed</w>
9 0s</w>
200 6</w>
, 00
yo r</w>
wor ker</w>
vir al</w>
v ital</w>
ul ty</w>
tri bes</w>
travel ed</w>
tr ends</w>
thir ds</w>
tex t
ter ies</w>
sur faces</w>
su per</w>
st ere
sing ly</w>
sho ck</w>
sh ell</w>
rus h</w>
ri f
re moved</w>
re ads</w>
quar ters</w>
pro pos
po x</w>
pi one
out put</w>
os ph
nuc le
ne ural</w>
mor ous</w>
mamm als</w>
ma xi
le e</w>
la yers</w>
ja il</w>
isra el
har m</w>
goo d
gi ble</w>
g an</w>
fin ds</w>
fig uring</w>
fac ility</w>
ex pos
else where</w>
elec tions</w>
do z
cry st
contribu te</w>
contin ues</w>
co ca
ch os
bor ders</w>
astoni shing</w>
as sign
an gi
am ed</w>
all ed</w>
acci dents</w>
wil d
vol can
vac u
surpri singly</w>
st or</w>
st at
sha dow</w>
sh ri
satur n</w>
s wee
s p</w>
ri ght-
repor ted</w>
reduc ed</w>
re act</w>
r ats</w>
qu alities</w>
pre mi
pos ter</w>
pi lot</w>
pi g</w>
pan de
orig in</w>
ong st</w>
o v
o oh</w>
neighb or</w>
mit ted</w>
mar g
lin ear</w>
lim b</w>
li kes</w>
l led</w>
k ins</w>
k el
is es</w>
ingredi ents</w>
ign ore</w>
hi re</w>
hei mer</w>
ha w
ha t
h anging</w>
gr ab
gen oci
g ger</w>
foun ded</w>
fic tion</w>
exc use</w>
evol ve</w>
ethiop ia</w>
es cape</w>
eng aging</w>
ecosy stems</w>
discover ies</w>
diag ram</w>
dedi cated</w>
de pressed</w>
de fe
d ated</w>
d al</w>
cru ci
crimin als</w>
consu me</w>
concer n</w>
comp rom
colleag ue</w>
chi ef</w>
bu rea
base ball</w>
assemb ly</w>
architec tural</w>
arch y</w>
angel es</w>
am ongst</w>
ali en</w>
acu lar</w>
ac hu
a vi
a ur
2 50</w>
wit ness</w>
wheel chair</w>
ver se</w>
vag ina</w>
v as
tra jec
ton y</w>
ti p</w>
th ick</w>
ta ining</w>
stor m</w>
spect acular</w>
small pox</w>
sm el
sil ent</w>
separ ated</w>
scrat ch</w>
resc ue</w>
recei ve</w>
real m</w>
re turned</w>
pyra mid</w>
pul ling</w>
pic king</w>
nur ses</w>
na ked</w>
n -
m o</w>
la ys</w>
la ser</w>
la id</w>
j on
inten ded</w>
initi al</w>
in y</w>
i .
geograp hic</w>
g ur
exten ded</w>
expe di
eri an</w>
encoun ter</w>
en i
emer ged</w>
e dy</w>
diver se</w>
di ving</w>
daugh ters</w>
construc ted</w>
con sul
commit ted</w>
colon y</w>
co operation</w>
classi cal</w>
chos en</w>
cate gor
camb ridge</w>
ca sh</w>
ca p</w>
c s</w>
c enti
arti cles</w>
ar do</w>
announ ced</w>
air port</w>
air craft</w>
ad vo
a h
3 2</w>
200 1</w>
2 6</w>
2 3</w>
z heimer</w>
under lying</w>
under ground</w>
un likely</w>
tra u
ti ze</w>
than e</w>
t ate</w>
super -
ske p
see k</w>
resili ence</w>
refu ge
predict able</w>
predi ctions</w>
poli cies</w>
pl ying</w>
open ness</w>
mi a</w>
liber al</w>
le te</w>
it ations</w>
is tics</w>
inv ite</w>
ho ward</w>
gla sses</w>
fro g</w>
foc using</w>
fish er
fil ter</w>
fa thers</w>
expe ct
excell ent</w>
eth ical</w>
en z
dri ll</w>
dist ur
dinos aur</w>
diagnos ed</w>
dete ct
der i
de ar</w>
contro ls</w>
conclu de</w>
con tract</w>
comp ani
brief ly</w>
bio logists</w>
arti stic</w>
ar ctic</w>
al zheimer</w>
al ex
3 .
writ ers</w>
wat ts</w>
vil le</w>
vi sit
univer sities</w>
treat ments</w>
ti red</w>
strate gies</w>
str angers</w>
sion ally</w>
sh ine</w>
sch iz
schiz op
ri a</w>
research er</w>
repor ts</w>
r arely</w>
pro per</w>
para do
organiz ing</w>
op es</w>
op e
ob servation</w>
nutri tion</w>
ni ght
neurosci ence</w>
ne l
ma il</w>
law yers</w>
jun e</w>
jel ly
je wish</w>
inter acting</w>
in ches</w>
ici an</w>
gra ss
glob ally</w>
gather ing</w>
fron tal</w>
foot ball</w>
flori da</w>
fil ling</w>
fav or</w>
fab ulous</w>
f ears</w>
eng agement</w>
emer ge</w>
effor ts</w>
dre ss</w>
di str
di an</w>
deb t</w>
de vast
con ve
cli ents</w>
bag s</w>
al ty</w>
ad es</w>
ac compli
wee k
truc ks</w>
tor ies</w>
ti zed</w>
ta tive</w>
t ants</w>
syn the
sti ci
st ones</w>
st even</w>
sp ort</w>
smo oth</w>
shi fting</w>
sens ory</w>
sen ior</w>
see ds</w>
sal es</w>
rou te</w>
ri o</w>
re view</w>
r i</w>
pu mp</w>
protec ting</w>
poin ting</w>
photograph ed</w>
pal m</w>
pain ted</w>
p are</w>
ou ter</w>
origin ally</w>
oper a</w>
om ics</w>
lim it</w>
kil ler</w>
jour nal</w>
inter actions</w>
instruc tions</w>
in jury</w>
i est</w>
hol lywood</w>
ho li
histor ic</w>
hard ware</w>
gu t</w>
forma l</w>
flu id</w>
fer ti
ex trac
ex posed</w>
ed a</w>
discus s</w>
dis ap
di ss
d ges</w>
d .</w>
cos mo
com mo
cir cles</w>
cep tions</w>
c in</w>
bo om</w>
blo gs</w>
b ang
as m</w>
as h</w>
ar ro
anthro po
ani el</w>
an ger</w>
amaz on</w>
al e
agricul tural</w>
adop ted</w>
accu mul
,00 0-
vo ca
ver tical</w>
vari ation</w>
u bi
tun a</w>
titu des</w>
teen agers</w>
ta x
ta il
syn dr
sub tle</w>
sub si
stro ke</w>
some day</w>
sle eping</w>
sk ull</w>
sac red</w>
rol ling</w>
rich er</w>
remin ded</w>
re ef</w>
ra ys</w>
pre pare</w>
posi tions</w>
ph osph
ph .
par ties</w>
par li
p lot</w>
p ink</w>
opti mism</w>
oper ations</w>
nur se</w>
metho ds</w>
me al</w>
mani fe
m all</w>
m .</w>
lo cated</w>
li ve
li a</w>
lef t-
l oud</w>
k or
k b</w>
j o</w>
intri gu
insur ance</w>
in k
imag ing</w>
hon ey</w>
ho ods</w>
gon na</w>
g mented</w>
fru it</w>
flo ws</w>
fab ric</w>
fa ult</w>
ex clu
ess ence</w>
es tic</w>
domin ant</w>
dep th</w>
curren cy</w>
cross -
climb ing</w>
che ese</w>
bu ried</w>
bra in
b b
b arely</w>
auton om
autom o
at tract</w>
appe ar
angi ogen
ang ha
1 0-
- and-
wor thy</w>
wei gh
vis ited</w>
vacu um</w>
up set</w>
tum ors</w>
transpar ent</w>
tis su
sugge sting</w>
sub way</w>
stra i
st ages</w>
spin al</w>
shar p</w>
sh ore</w>
sh it</w>
schizop hren
sc ales</w>
rev olu
regre t</w>
re n</w>
re minds</w>
ra ft</w>
r on</w>
pros per
prom ote</w>
prof its</w>
predi cted</w>
pharmac eu
ph er
percei ve</w>
ow ner</w>
os is</w>
n ine
mirac le</w>
min ation</w>
micro -
me mes</w>
mb ling</w>
m ice</w>
lu x
it er
initi ative</w>
in o</w>
hun gry</w>
high way</w>
ge l</w>
g ory</w>
for gotten</w>
fol ding</w>
fail ing</w>
f its</w>
es is</w>
en a</w>
dom ain</w>
di am
cros sing</w>
cro ps</w>
consci ously</w>
character istics</w>
carto on</w>
cap tured</w>
bron x</w>
b att
at omic</w>
astero id</w>
ar med</w>
analy ze</w>
an esthe
ab use</w>
ab ra
8 00</w>
7 00</w>
what so
whatso ever</w>
weap on</w>
vi br
un certainty</w>
transp lant</w>
trans fer</w>
tradi tions</w>
trac ks</w>
tra sh</w>
te en</w>
ta p</w>
t sun
syndr ome</w>
sy mb
symb ols</w>
su spect</w>
sta irs</w>
st ure</w>
st ops</w>
ske let
shel f</w>
sh ots</w>
sex u
sens ors</w>
sco res</w>
ri s
reven ue</w>
repe at</w>
reduc ing</w>
re build</w>
pur sue</w>
pu shed</w>
progra mming</w>
pri mar
phosph or
p iz
op y</w>
occa sionally</w>
no ve
mo de</w>
min ated</w>
measu res</w>
ma yor</w>
le verage</w>
law yer</w>
lar y</w>
l i</w>
jelly fish</w>
it aly</w>
inv a
inst al
ic ked</w>
hen ry</w>
grand children</w>
gla morous</w>
gla d</w>
gh tly</w>
gar bage</w>
g ore</w>
flexi ble</w>
expect ancy</w>
expec tations</w>
exp anding</w>
emp lo
elec ted</w>
egy p
ed ges</w>
e ded</w>
dolph in</w>
docu ment</w>
discipl ine</w>
da tions</w>
d or</w>
cur ricul
con vic
con temporary</w>
con tain</w>
con fron
comm un
cho os
cha irs</w>
ch ol
catastro p
car ing</w>
ca ve</w>
bi zar
be gun</w>
b alls</w>
audi o</w>
arri ve</w>
anti bio
an nu
algorith m</w>
admini stration</w>
a to</w>
3 0,000</w>
199 0s</w>
0 .
w right</w>
un cle</w>
u ms</w>
to ber</w>
thu si
the ories</w>
te ars</w>
t s
success fully</w>
sub- sahar
sub stance</w>
strugg ling</w>
ste war
sp in</w>
sm ith</w>
ske leton</w>
sil ly</w>
si sters</w>
si mulation</w>
shel ter</w>
sh ops</w>
sh a</w>
scen ari
sal t</w>
s mil
ro of
ro gen</w>
repli cate</w>
regi me</w>
real -
re form</w>
re cep
r o</w>
pri mi
preci se</w>
pleas ant</w>
pi gs</w>
phan tom</w>
paraly zed</w>
oc tober</w>
ob serv
o red</w>
ner ve</w>
ligh t
le thal</w>
kil ls</w>
k ev
in formed</w>
imp lan
im mer
identifi ed</w>
i ties</w>
harve st</w>
h ost</w>
h ers</w>
gla mour</w>
genoci de</w>
extin ction</w>
explos ion</w>
en thusi
el and</w>
ear n</w>
dro pping</w>
doz ens</w>
dom estic</w>
disco vering</w>
dimen sion</w>
di ve</w>
di lem
dete ction</w>
deli vered</w>
d opa
conc ei
collabor ative</w>
ca ke</w>
c i</w>
br ush</w>
bi c</w>
at u
ad a
accep ted</w>
19 60</w>
z an
you th</w>
wi der</w>
ve ter
v able</w>
unbeliev able</w>
tur key</w>
trajec tory</w>
thre w</w>
ter ror</w>
ten sion</w>
surge ons</w>
ste ph
sou p</w>
sla very</w>
sh opping</w>
sac rif
s its</w>
restaur ants</w>
realiz ing</w>
r ent</w>
prin ts</w>
par tly</w>
p uni
open- source</w>
oc curr
o logists</w>
ni c</w>
n om
mp ed</w>
min es</w>
min d-
mi xed</w>
marke t
mam mo
m ort
m ingly</w>
m ill</w>
m apping</w>
luc k</w>
lo ves</w>
lo c
li ed</w>
je sus</w>
j im</w>
intu ition</w>
insi ghts</w>
inev itable</w>
imag ery</w>
ici ous</w>
i ed</w>
hom o</w>
hit ting</w>
hall uc
h ec
gra ms</w>
gener ating</w>
gene tics</w>
gar age</w>
g a</w>
fin ed</w>
fi res</w>
ex ternal</w>
ex tend</w>
de sh</w>
d .
crimin al</w>
con temp
con cent
compu tation</w>
compas sionate</w>
co vering</w>
christi an</w>
ch er</w>
cap ability</w>
be ars</w>
ban ks</w>
auth or
ap p</w>
ag encies</w>
affec ts</w>
adv ance</w>
5 0s</w>
198 0s</w>
- based</w>
win ds</w>
wat ers</w>
was h</w>
w ich</w>
u ti
tri be</w>
tra ins</w>
to y</w>
ti se</w>
t ap
t ant</w>
sto red</w>
sti cal</w>
sta tic</w>
smar ter</w>
shri mp</w>
she ets</w>
s or</w>
s ale</w>
robo tics</w>
resi stant</w>
re ments</w>
r ose</w>
qu ali
pu p
pro posed</w>
plu g</w>
pit ch</w>
per pe
per mission</w>
pe ts</w>
pe er</w>
pan els</w>
ne ander
mo ore</w>
mechan isms</w>
me thane</w>
me l</w>
m i</w>
m ere
ja zz</w>
interpre tation</w>
inse ct</w>
initi ally</w>
in ary</w>
home work</w>
heli cop
ha bit</w>
gl ori
gar den
g ated</w>
fu r</w>
fla g</w>
fa ste
exper tise</w>
ev alu
entrepreneu r</w>
enter ing</w>
engine ered</w>
end ang
di c</w>
devi l</w>
descri ption</w>
da mag
d ant</w>
cy cles</w>
cot ton</w>
cor d</w>
connec ts</w>
confi dent</w>
ci ous</w>
cer ti
bizar re</w>
b ats</w>
at titude</w>
ang les</w>
an ni
am ate
air planes</w>
a tic</w>
8 5</w>
2 8</w>
zero- sum</w>
z i</w>
y l
y a
wit ne
war ning</w>
wa shing</w>
vie wed</w>
ul ate</w>
ubi quit
tsun ami</w>
trans lation</w>
tr in
to cin</w>
ti m</w>
tali ban</w>
tal e</w>
t ori
suppor ted</w>
sugge sted</w>
sub-sahar an</w>
stre t
sta ying</w>
se at
san e</w>
rus sian</w>
ro y
rest ric
reli able</w>
re tro
r at</w>
prot o
profession als</w>
po ckets</w>
passen ger</w>
p ound</w>
oxy tocin</w>
ot a</w>
on al</w>
od ds</w>
my steri
mos quit
mere ly</w>
mat ri
mag nific
lea ther</w>
jo e</w>
inve sting</w>
immedi ate</w>
ig nor
ic on</w>
ho o
gun s</w>
got ta</w>
fri end
fe bru
febru ary</w>
fac i
expon ential</w>
expan sion</w>
es sion</w>
ent ro
en sure</w>
dialo gue</w>
der ly</w>
d os
d entally</w>
coun ty</w>
controver si
continu ing</w>
consist ent</w>
civiliz ations</w>
by e</w>
br a</w>
bo y
bo b</w>
bio diversity</w>
ate ful</w>
ans wered</w>
al co
, 500</w>
whe at</w>
vege tables</w>
v -
ubiquit ous</w>
tra gic</w>
tissu es</w>
thre sho
thresho ld</w>
terrori sts</w>
tan gible</w>
ta ined</w>
t led</w>
syn chron
sum mar
ster ed</w>
st ability</w>
signific antly</w>
sent ences</w>
reve al</w>
rememb ered</w>
re qu
r ul
prof oun
pro p
primi tive</w>
primar ily</w>
pre serve</w>
pre fer
pol lin
phosphor us</w>
pande mic</w>
p ants</w>
our ing</w>
ordin arily</w>
or ate</w>
or a</w>
now ada
nowada ys</w>
mot or
ma tion</w>
ma ss
lin col
lincol n</w>
le on
l an</w>
ki lo
key board</w>
k in</w>
ju gg
j et</w>
inven ting</w>
impro ving</w>
i po
hypo thesis</w>
ho ly</w>
gradu ally</w>
g os
fun g
fre sh
fra gile</w>
fr action</w>
faci lities</w>
experim ental</w>
enter pri
en ligh
emp ha
ele mentary</w>
el derly</w>
e ks</w>
e go</w>
distri ct</w>
ci g
char ges</w>
chan nels</w>
ce ment</w>
ce iling</w>
c ric
buil ds</w>
break fast</w>
bot tles</w>
bla me</w>
bio logist</w>
be sides</w>
bang la
bac ks</w>
b ound</w>
attrac tive</w>
ar ray</w>
ap ol
ag ger
ag ent</w>
197 0s</w>
- making</w>
wo ods</w>
tun e</w>
transl ated</w>
su res</w>
su ck</w>
str eng
st ine</w>
squ ee
ro cke
ro bust</w>
rec ru
re store</w>
re con
r y
r ings</w>
r b</w>
prison ers</w>
pret end</w>
pla stics</w>
piz za</w>
phenomen a</w>
ot ech
ol ine</w>
nar row</w>
mush room</w>
mp tions</w>
min es
ma gn
lu lar</w>
lab s</w>
l ing
k os
john son</w>
j or
inter ior</w>
inst antly</w>
in i</w>
imp acts</w>
im men
hu a</w>
hi p</w>
hi er
han ded</w>
gg ers</w>
geome try</w>
flo wing</w>
ffici ent</w>
establi shed</w>
er t</w>
endang ered</w>
empi re</w>
eco logical</w>
e aten</w>
dri vers</w>
dre ssed</w>
dist ingu
dic tionary</w>
dece mber</w>
de serve</w>
dam n</w>
curricul um</w>
cruci al</w>
conduc ted</w>
concer t</w>
com pre
com edy</w>
bur gh</w>
bub bles</w>
bri an</w>
be long</w>
be a
b or</w>
b end</w>
au to
ap o
an e</w>
an as</w>
ad ing</w>
ac ou
3 0-
2 9</w>
win d
wild life</w>
vo y
virg in
vi o
tu bes</w>
to ys</w>
to es</w>
th us</w>
ter rain</w>
ten dency</w>
t one</w>
six th</w>
sig nature</w>
sh angha
shangha i</w>
sci ences</w>
sch ol
ri vers</w>
re efs</w>
re actor</w>
rap ed</w>
qu ad
puzz les</w>
pros tate</w>
profoun dly</w>
proce d
proced ure</w>
pla in</w>
pi e</w>
pengu in</w>
parli ament</w>
otech no
on stage</w>
off ici
o logist</w>
nutri ents</w>
ne at</w>
my th</w>
min ating</w>
mb led</w>
mat ure</w>
ma gical</w>
ma d
luc ki
lo ws</w>
li hood</w>
le op
k ick</w>
ju ven
iz es</w>
isol ated</w>
invent or</w>
inst in
impre ssion</w>
gre ek</w>
gor geous</w>
gentle man</w>
gene tically</w>
g ly</w>
g aps</w>
fi bers</w>
f ear
exten sion</w>
expec ting</w>
entro py</w>
eg g</w>
dun g</w>
dopa mine</w>
docu ments</w>
di al</w>
deli very</w>
del hi</w>
da wn</w>
d ating</w>
cos mic</w>
con tradi
comple ted</w>
com ment</w>
com ic</w>
co ws</w>
co ke</w>
clos ing</w>
clo thing</w>
cate gory</w>
can opy</w>
b at</w>
audi ences</w>
as ing</w>
argu ing</w>
ap ri
an at
20 -
wor ms</w>
wo ke</w>
whe els</w>
v is</w>
tri cal</w>
tic ket</w>
ti me-
terri bly</w>
ten ds</w>
tack le</w>
t esti
suppor ting</w>
sum mit</w>
stri ke</w>
stic ally</w>
steph en</w>
simul taneously</w>
sau ce</w>
sand wich</w>
s sions</w>
ro pe</w>
ri al</w>
represen tation</w>
rema ining</w>
rema ined</w>
ref er</w>
reco ver</w>
rap id</w>
pro file</w>
preci ous</w>
portra it</w>
por ts</w>
po is
plan etary</w>
particip ants</w>
p h</w>
occur s</w>
objec tive</w>
n ings</w>
n gos</w>
musici an</w>
mot ors</w>
men ting</w>
mathema ticians</w>
kor an</w>
ki e</w>
jump ed</w>
jud gment</w>
ji had</w>
inno cent</w>
infec tion</w>
ine quality</w>
incenti ve</w>
ig no
hun ting</w>
hun t</w>
horiz on</w>
home less</w>
hear t
h ong</w>
frustr ated</w>
fron ti
fl ouri
faste st</w>
far ming</w>
e .
demo graphic</w>
datab ase</w>
cy lin
cu ts</w>
cr ack</w>
conser vative</w>
connec tivity</w>
compar ison</w>
comp elling</w>
can cers</w>
c tica</w>
burea uc
bul b</w>
bu g</w>
bro ad</w>
bo ats</w>
bl ank</w>
au gu
at ar</w>
assu mptions</w>
assu mption</w>
ar re
appear ance</w>
ap ers</w>
antar ctica</w>
analo gy</w>
alco ho
al titude</w>
ad mi
acade my</w>
20 11</w>
yn man</w>
ver sions</w>
ur ge</w>
un comfortable</w>
tran sc
than k
susta in</w>
stor age</w>
ste pped</w>
span ish</w>
sp ill</w>
simil arly</w>
sho cking</w>
ser ver</w>
re in
rati o</w>
qu it</w>
prop ag
pro ven</w>
pro portion</w>
prin ted</w>
preven tion</w>
philosop her</w>
p m</w>
ow nership</w>
nu ts</w>
ner ves</w>
nel son</w>
ne ver
ne ck</w>
mysteri ous</w>
mos qui
me ss
m t</w>
m -
lucki ly</w>
li sts</w>
lea p</w>
laugh ing</w>
la p</w>
inst ant</w>
imp ul
i j
hi p
help ful</w>
he mi
ha wa
gather ed</w>
g and
fun ds</w>
fre ely</w>
fol ds</w>
fe ynman</w>
fe a
fall en</w>
er ec
enligh ten
eleph ants</w>
el ite</w>
deta iled</w>
dea f</w>
de al
d ul
d aniel</w>
cr it
coun ting</w>
conver t</w>
contr ary</w>
contin ents</w>
conduc tor</w>
co lored</w>
citiz en</w>
chi ps</w>
chan ces</w>
ce o</w>
can e</w>
camp us</w>
bur den</w>
bo ok
blu e
bi al</w>
associ ation</w>
apri l</w>
appro aching</w>
adap ted</w>
ad vi
activi st</w>
abra ham</w>
a is
a .</w>
6 ,000</w>
3 3</w>
weal thy</w>
viet n
vietn am</w>
tw e
tra its</w>
tim acy</w>
ti fication</w>
teen age</w>
tar gets</w>
swi ss</w>
stron gly</w>
sto ck
st ack</w>
sp ain</w>
sin s</w>
scan ning</w>
rhyth m</w>
reli ef</w>
real istic</w>
re fri
refri ger
pur suit</w>
pri or</w>
physici sts</w>
physici an</w>
pan el</w>
palest ini
pa use</w>
otechno logy</w>
off ices</w>
off ering</w>
mosqui to</w>
midd le-
mar ks</w>
lor d</w>
liter acy</w>
li b
lap tops</w>
kni fe</w>
kev in</w>
interven tion</w>
infec tions</w>
indepen dence</w>
inclu ded</w>
in trin
in t
impro ved</w>
hon y</w>
health ier</w>
head lines</w>
har mony</w>
gra sp</w>
gr ateful</w>
gl ue</w>
gener ous</w>
gall ery</w>
ga ined</w>
g il
fi x
f ought</w>
experi encing</w>
ex ception</w>
eng ines</w>
en cycl
empo wered</w>
electr on</w>
ec raft</w>
dom s</w>
depen dence</w>
demon stration</w>
deman ds</w>
de ception</w>
de an</w>
d th</w>
d ough</w>
d les</w>
conveni ent</w>
conf used</w>
compe te</w>
com ics</w>
clos est</w>
circu its</w>
car ri
bom bs</w>
bom b
ben e
believ es</w>
autonom ous</w>
assign ment</w>
assemb le</w>
are t
anony mous</w>
annu al</w>
an drew</w>
al li
al istic</w>
adv enture</w>
a than</w>
a c</w>
20 50</w>
z ones</w>
yi eld</w>
woo den</w>
wide ly</w>
v oting</w>
un happy</w>
un able</w>
trans forming</w>
tor ture</w>
ti tan</w>
th ic</w>
telesc opes</w>
ted talk</w>
techn ically</w>
t less</w>
t ability</w>
supp lies</w>
sub jec
ste al</w>
ssi vely</w>
sp an</w>
soci ally</w>
sm alle
smalle st</w>
sil ver</w>
sh -
se a
scen es</w>
recycl ing</w>
reason able</w>
re public</w>
re jec
r itu
pur poses</w>
psycho logist</w>
pros thetic</w>
priv acy</w>
pri de</w>
pl ed</w>
perfor med</w>
percei ved</w>
pen e
pe ers</w>
pat ents</w>
particip ation</w>
part nership</w>
o th
nee dle</w>
na mely</w>
mar ath
man n</w>
man de
mande la</w>
magnific ent</w>
ma inst
lun gs</w>
lim itations</w>
l .
k at
jos hua</w>
je ff</w>
it ate</w>
inve sted</w>
inev it
hypo the
ho ok</w>
hi red</w>
h at</w>
gra des</w>
gr as</w>
go ds</w>
gli mp
gir l
gen u
ge on</w>
ge ar</w>
g ating</w>
fri day</w>
foun dations</w>
formul a</w>
fl uc
fing er
fes tiv
ferti liz
expres sions</w>
expedi tion</w>
ex ha
estim ated</w>
es thetic</w>
en abled</w>
ei ght-
eco logy</w>
du tch</w>
down town</w>
domin ated</w>
denti al</w>
defin ing</w>
d ot
d ged</w>
d am</w>
cr ac
competi tive</w>
comm and</w>
cig aret
chas ing</w>
challeng ed</w>
ca the
c us</w>
c and
bran ch</w>
blo wn</w>
bi osphere</w>
bene ath</w>
ben j
be ating</w>
barri er</w>
bangla desh</w>
ba th
auth orities</w>
arab ic</w>
anxi ety</w>
ab and
4 0,000</w>
200 2</w>
1 20</w>
z u
un prece
unprece den
un -
two- thirds</w>
tro ops</w>
tr ace</w>
toler ance</w>
to w
threat ened</w>
thre ats</w>
t .</w>
surr ounding</w>
sun day</w>
story tel
st .</w>
soldi er</w>
smo king</w>
se ti</w>
scot t</w>
reve als</w>
reflec tion</w>
re serves</w>
re se
radi cally</w>
publi shing</w>
pro position</w>
previ ously</w>
predat ors</w>
pos t
person alized</w>
pas sive</w>
pack age</w>
p it</w>
over -
or b
olu mines
non profit</w>
newsp apers</w>
near by</w>
min al</w>
medi cines</w>
mathema tician</w>
lo west</w>
li fes
lea f</w>
lar ge-
landsc apes</w>
la y
la bel</w>
kin son</w>
k o</w>
k ably</w>
j ones</w>
inve stors</w>
inten sive</w>
insul in</w>
influ enced</w>
impre ssive</w>
hy bri
h ans</w>
guaran tee</w>
gu ess
gr os
foun der</w>
for got</w>
fig ur
f ancy</w>
extra ordinarily</w>
eth nic</w>
ent -
en s
en ables</w>
edu cate</w>
dy s
down load</w>
do od
dis abled</w>
dest iny</w>
cur ves</w>
cre ator</w>
correc tly</w>
comm it</w>
collap sed</w>
clin ton</w>
cli ent</w>
choos ing</w>
chec k
car pet</w>
cap abilities</w>
cal ories</w>
bran ches</w>
bra tion</w>
bi olumines
bi e</w>
b ond</w>
ari st
ar es</w>
appro ved</w>
antibio tics</w>
anima tion</w>
an cing</w>
ambi gu
achiev ement</w>
ab y
a ward</w>
3 6</w>
1 1
zan ia</w>
y ourselves</w>
wor rying</w>
win ner</w>
wi res</w>
volunte er</w>
visu alization</w>
virgin ia</w>
v ors</w>
unpreceden ted</w>
ton gue</w>
ti ps</w>
thro wing</w>
theore tical</w>
tex ting</w>
terri fying</w>
te st
tan zania</w>
ta tional</w>
t t</w>
suff ered</w>
sub stan
su its</w>
stre tch</w>
strai ght
str ings</w>
str ands</w>
spea ks</w>
sp ra
smil ing</w>
ske t
sin k</w>
simp ler</w>
she pher
sha k
sen sation</w>
see king</w>
se al</w>
san ta</w>
ro wing</w>
respon ses</w>
replac ed</w>
renew able</w>
remar kably</w>
re ha
pro pose</w>
pro por
prin ter</w>
pic ks</w>
pi pel
pi er
peop les</w>
pat ri
par achu
pac ked</w>
or g</w>
on going</w>
ograp hy</w>
obstac les</w>
ob serve</w>
neurosci enti
ne ys</w>
miser able</w>
mini mum</w>
mi li
mechan ics</w>
me m
matri x</w>
ly n</w>
list ened</w>
lar ry</w>
integr ate</w>
inte gration</w>
in don
indon e
illustr ate</w>
ic a</w>
i ms</w>
har bor</w>
grand parents</w>
gi e</w>
gh et
fla sh</w>
er rors</w>
ent y-
encoura ging</w>
emer gence</w>
em br
earli est</w>
e less</w>
dro ps</w>
dilem ma</w>
dig it</w>
di vision</w>
desp air</w>
deli cious</w>
deli ber
decre ase</w>
cre w</w>
colon ies</w>
co vers</w>
co oper
co inci
cho ir</w>
categor ies</w>
c ence</w>
bur ned</w>
bul bs</w>
budd hi
bo red</w>
ber ry</w>
be th</w>
b ling</w>
arist ot
ama zed</w>
al a</w>
affec ting</w>
a stro
4 8</w>
20 0,000</w>
19 0
ze al
wor e</w>
wh it
wel fare</w>
v in</w>
une mp
un t</w>
thu r</w>
th west</w>
th i
th al
ter ly</w>
ta xes</w>
struc tural</w>
story telling</w>
sta ir
spac ecraft</w>
slu ms</w>
short ly</w>
sho e</w>
sho cked</w>
secre ts</w>
sc ans</w>
s wal
rain forest</w>
ra il
r ing
psycho logists</w>
pre su
pos ted</w>
ph a</w>
par ks</w>
par as
or -
offic er</w>
neighbor hoods</w>
narra tives</w>
mo bility</w>
mis sion
mi ke</w>
mem bran
mc don
market place</w>
mainst re
magn itude</w>
ma sses</w>
lux ury</w>
lon ge
lo cations</w>
lin ed</w>
l g</w>
kid ney</w>
ju ly</w>
jan e</w>
j en
it alian</w>
inten sity</w>
ind us</w>
in sane</w>
hu h</w>
horiz on
ho p</w>
histor ically</w>
har dest</w>
ha bits</w>
gr ace</w>
ge ment</w>
fir st-
fail ures</w>
fac tories</w>
f ing</w>
f ate</w>
exc it
equ ality</w>
eleg ant</w>
electr ons</w>
e ments</w>
div or
dis ability</w>
dia meter</w>
di stor
cric ket</w>
con ge
con front</w>
compre hen
compe ting</w>
co ch
class rooms</w>
carto ons</w>
camp s</w>
bre eding</w>
br is</w>
blo wing</w>
benj amin</w>
automo bile</w>
at titudes</w>
are st</w>
ar thur</w>
ar -
appro aches</w>
alcoho l</w>
al pha</w>
agre ement</w>
addi tional</w>
ac id</w>
ab s
a p</w>
a ks</w>
4 7</w>
20 s</w>
199 0</w>
y ards</w>
worl d-
willi am</w>
wi dth</w>
we dding</w>
vi sions</w>
ves sel</w>
v ice</w>
v ation</w>
ur a</w>
tr action</w>
to k
teach es</w>
ta i
t is</w>
surve ill
surveill ance</w>
surger ies</w>
sur gical</w>
succe eded</w>
substan ti
sub mer
straight forward</w>
squ id</w>
sel fish</w>
schizophren ia</w>
sacrif ice</w>
sa fer</w>
s ni
s ab
rub ber</w>
reti rement</w>
reci pe</w>
rec ession</w>
rea ders</w>
re serve</w>
re actions</w>
r ough</w>
propos al</w>
pro ph
prepar ing</w>
portra its</w>
pic k
philanthro py</w>
pharmaceu tical</w>
ph. d.</w>
peac eful</w>
p is
p ill</w>
over head</w>
orig ins</w>
ol ina</w>
occurr ing</w>
nig erian</w>
new ton</w>
navi gate</w>
motiv ated</w>
micros cop
mi st</w>
mi mic</w>
me als</w>
mb s</w>
mat ing</w>
man ual</w>
mainstre am</w>
m ously</w>
lot tery</w>
leon ardo</w>
legi s
le ban
le ag
l ling</w>
l ingu
k le
k ings</w>
je wel
it ating</w>
intrigu ing</w>
intervie wed</w>
institu tional</w>
inst alled</w>
inevit ably</w>
im per
im ed</w>
il er</w>
i re
hor ses</w>
honest ly</w>
heli um</w>
heal ing</w>
hal f
g ases</w>
g ad
follo ws</w>
excit ement</w>
evol ving</w>
est ate</w>
equ ations</w>
ep h</w>
enz y
ene mies</w>
em bo
electr om
el ing</w>
dru m</w>
dra wings</w>
don or</w>
distin ct</w>
disagre e</w>
di gi
deci sion
de cor
de als</w>
d ose</w>
cylin der</w>
cul tiv
corpor ations</w>
controversi al</w>
contribu ted</w>
conser va
concentr ated</w>
compar ing</w>
co at</w>
cl ue</w>
civi c</w>
ci a</w>
candi date</w>
can v
ca tho
bur st</w>
bo wl</w>
bil ls</w>
bil li
be lt</w>
be an</w>
bad ly</w>
bacter ial</w>
back yard</w>
authenti c</w>
ari ans</w>
ap plying</w>
al pha
ac re</w>
abs ence</w>
5 5</w>
wel ls</w>
war ri
w rap</w>
w ling</w>
vi sually</w>
ver bal</w>
v oted</w>
transp lan
transforma tive</w>
trans mission</w>
tou gh
swit ched</w>
stea m</w>
sp are</w>
some time</w>
skelet al</w>
sk i</w>
signific ance</w>
si zes</w>
shak espe
se ctions</w>
scho ol
s i</w>
s enti
ru pt</w>
ret ina</w>
renew ables</w>
regar dless</w>
reg ard</w>
re stor
r itual</w>
pro be</w>
prin ce</w>
predi ction</w>
po ison</w>
pa irs</w>
p ills</w>
or phan
opp er</w>
on a</w>
ne o
mush rooms</w>
mu d</w>
mo z
mis si
min us</w>
micro bial</w>
medi cation</w>
mean while</w>
mar t</w>
m in</w>
lo ads</w>
leg ed</w>
large- scale</w>
l as</w>
kee pers</w>
k ong</w>
journ alists</w>
jo y
j ay</w>
j ar
it ated</w>
it an</w>
is y</w>
intervie ws</w>
interpre t</w>
in tent</w>
igno red</w>
i le</w>
i di
human -
helicop ter</w>
gu it
ge sture</w>
frighten ing</w>
frequ ently</w>
ff s</w>
fa i
expos ure</w>
estim ates</w>
enjo yed</w>
electrom ag
diffic ulty</w>
di stances</w>
den ial</w>
dar win
custom er</w>
cu be</w>
cour ses</w>
cop ies</w>
con doms</w>
comprom ise</w>
communi cating</w>
cla ims</w>
char ged</w>
ch er
car olina</w>
calcul us</w>
calcu lations</w>
cal m</w>
ca mel</w>
break through</w>
bos s</w>
bloo d
bat teries</w>
b ite</w>
aw k
avo i
as th
ale x</w>
aggre ssive</w>
ag ents</w>
adv ances</w>
adop tion</w>
accoun ts</w>
ab ed</w>
a- half</w>
2 4
195 0s</w>
&apos; clock</w>
z zy</w>
wan dering</w>
victi m</w>
vari ations</w>
ur ban
u ps</w>
tw i
tun nel</w>
th y
ter ey</w>
te ar</w>
tar ge
syste matically</w>
super market</w>
stri p</w>
sti r
sp reads</w>
sp inning</w>
short -
ser en
selec ted</w>
secre tary</w>
scan ner</w>
sca ff
ro t</w>
resi dents</w>
realiz ation</w>
re wards</w>
re solve</w>
r ang
pur su
publi sh</w>
promis ed</w>
pol ar
p ou
off -
obe se</w>
nove mber</w>
ne arest</w>
mu mb
mon terey</w>
mo bi
mix ing</w>
mind set</w>
millen ni
me ta
low- cost</w>
lo ving</w>
like lihood</w>
lic it</w>
li fted</w>
legis lation</w>
kin dness</w>
ju ice</w>
jos eph</w>
ite ms</w>
israel i</w>
int act</w>
ine ly</w>
indone sia</w>
in ks</w>
in hi
house hold</w>
hop es</w>
high- tech</w>
her it
hea ding</w>
he ating</w>
half way</w>
guil ty</w>
great -
gen omes</w>
fol ded</w>
fir ing</w>
favor ites</w>
far ms</w>
f i</w>
f ence</w>
er als</w>
enjo ying</w>
encycl ope
en tation</w>
el ine</w>
dra g</w>
dou bled</w>
diplom acy</w>
devast ating</w>
destro ying</w>
dep loyed</w>
dead ly</w>
d ar</w>
consu med</w>
connec tom
co in</w>
clu bs</w>
che mo
cha mber</w>
centr alized</w>
car t</w>
can adi
c tive</w>
bur g</w>
bri dges</w>
believ ing</w>
be at
ar cha
appro ached</w>
an ten
an no
amaz ingly</w>
ag n
ade qu
accep table</w>
ac tively</w>
a qu
4 0
196 0s</w>
-of- the-
zeal and</w>
wh is
v enture</w>
v enti
un seen</w>
ultra sound</w>
top ics</w>
them es</w>
the ast</w>
temp le</w>
tane ous</w>
syn ap
symp hony</w>
survi ved</w>
sugge stion</w>
stun ning</w>
strate gic</w>
stra tions</w>
stor ms</w>
st ly</w>
sex y</w>
scenari o</w>
sa ke</w>
s ma
roy al</w>
rol led</w>
rec la
re public
re aches</w>
qui e
qu ir
prosper ity</w>
pot ent</w>
phenomen al</w>
pas sage</w>
part ner
overwhel med</w>
ou tw
ori al</w>
o y
o ct
nit rogen</w>
neutr al</w>
n ap
multip ly</w>
mosquit os</w>
monit oring</w>
mon o
mi ze</w>
manipul ate</w>
lo cally</w>
le w
ke -
j as
is ing</w>
irani an</w>
in o
ij ing</w>
ic onic</w>
i ons</w>
human itarian</w>
h ills</w>
gra ve</w>
gr u
good bye</w>
gol d
glimp se</w>
g al</w>
fe males</w>
fe eds</w>
explo it</w>
ever est</w>
encyclope dia</w>
en velop
en h
embarra ssing</w>
eli minate</w>
electro des</w>
el a</w>
duc k</w>
dr on</w>
doub le-
disp os
dem o</w>
de lu
damag ed</w>
cy rus</w>
cri mes</w>
con tain
comm er
co verage</w>
co ol
cli ff</w>
chromos ome</w>
che e
ch or
ca sting</w>
ca s
bro ok
boun dary</w>
bo ar
biom ass</w>
bin ary</w>
bed room</w>
be ijing</w>
barre l</w>
b ited</w>
b ble</w>
angiogen esis</w>
ali ens</w>
al arm</w>
ai m</w>
a v
a esthetic</w>
xi mately</w>
w a</w>
vie wing</w>
vege table</w>
underst ands</w>
tun ed</w>
tr apped</w>
ther mal</w>
terr itory</w>
ta gs</w>
stri king</w>
stewar t</w>
st ol
shakespe are</w>
sen ds</w>
see mingly</w>
sc aling</w>
rot ate</w>
right- hand</w>
red wood</w>
rec ur
ra tions</w>
qu is
q a
qa eda</w>
prot est
profes sion</w>
privi leged</w>
pop ul
po t</w>
physici ans</w>
philosop hical</w>
philosop hers</w>
parado x</w>
p ouring</w>
p our</w>
p al</w>
opp ed</w>
ol d-
off en
no -
ni k</w>
n in
my ce
mur der</w>
mumb ai</w>
mu tation</w>
mp ing</w>
mp h</w>
mo od</w>
min ority</w>
mi gration</w>
me me</w>
me ga
maxi mum</w>
mar ry</w>
mar row</w>
man ner</w>
mal ay
m ing
longe vity</w>
l y-
k it</w>
it y-
it em</w>
ire land</w>
instal lation</w>
indi ans</w>
ib m</w>
hop eful</w>
hol ders</w>
hi ding</w>
herit age</w>
hemi sphere</w>
har m
hand -
ha med</w>
graph s</w>
gradu ated</w>
gr ant</w>
fos ter</w>
fore station</w>
for bi
fla vor</w>
fe min
f ric
encoura ged</w>
en dea
dis rup
di um</w>
di gging</w>
di ar
def end</w>
de sk
da y-
cros sed</w>
cor als</w>
cop en
conve y</w>
contribu tion</w>
continu ous</w>
concent ration</w>
che at</w>
char lie</w>
ch a</w>
cat ching</w>
car ries</w>
car es</w>
cap s</w>
canv as</w>
but ter
bur ger</w>
bo om
bo o
augu st</w>
at oes</w>
at ers</w>
asse ts</w>
arre sted</w>
appro ximately</w>
an u
an der</w>
amp li
ad just</w>
ac ies</w>
aband oned</w>
a my</w>
7 2</w>
3 7</w>
z er</w>
wi shes</w>
who ever</w>
web sites</w>
virg in</w>
vi al</w>
vac cines</w>
uni qu
u d</w>
tr ance</w>
tow ns</w>
ti zing</w>
the d</w>
th or
teen ager</w>
syl via</w>
su pre
stre ams</w>
sti g
ss ment</w>
smel ls</w>
simp lest</w>
shi fts</w>
shepher d</w>
seven th</w>
sen sing</w>
sect ors</w>
sau di</w>
safe ly</w>
s lower</w>
s ary</w>
ritu als</w>
rhe a</w>
recomm end</w>
rec k
reas oning</w>
re think</w>
re quest</w>
re mot
random ly</w>
r ape</w>
program mers</w>
pro li
predat or</w>
pr ay</w>
plat forms</w>
peri ods</w>
pene tr
pen cil</w>
pas ses</w>
par kinson</w>
pa ys</w>
overwhel ming</w>
op tical</w>
on ist</w>
on er</w>
olymp ics</w>
occu p
observ ations</w>
non- zero-sum</w>
na tives</w>
n is</w>
myce li
mul tin
moun t</w>
milli meter</w>
mi gra
med itation</w>
me lo
man agers</w>
ma sters</w>
ma s
m one</w>
loy ment</w>
live stock</w>
ligh ted</w>
laugh ter</w>
lan es</w>
lan ding</w>
labe led</w>
kore an</w>
ke t
k ans
kans as</w>
k -
je ff
j a</w>
introduc tion</w>
inter rup
inter connected</w>
inten tion</w>
inde x</w>
imag ining</w>
il es</w>
i g</w>
hos tile</w>
hor mone</w>
hier archy</w>
hea vi
hea d-
ha z
ha gen</w>
gra vit
go d
ge ck
gas oline</w>
gand hi</w>
ga ins</w>
func tioning</w>
fo ie</w>
fluc tu
fin dings</w>
fac tion</w>
en try</w>
edit or</w>
du mb</w>
distin ction</w>
determin es</w>
dee pest</w>
decision -making</w>
de pos
de ck</w>
dan cers</w>
cro p</w>
cop ied</w>
concer ns</w>
compu tational</w>
com modi
colum n</w>
col i</w>
co her
co des</w>
co ast
clin ics</w>
catho lic</w>
cat tle</w>
cam bo
blo gging</w>
blin dness</w>
bla h</w>
bl an
bio -
bi an</w>
ber lin</w>
beauti fully</w>
be half</w>
bath room</w>
b ands</w>
ath le
aristot le</w>
al ga
al bu
ad dy</w>
acqui red</w>
accoun tability</w>
ac compani
abun dance</w>
a sian</w>
9 8</w>
8 ,000</w>
6 0,000</w>
17 th</w>
y n</w>
work force</w>
vas cular</w>
use less</w>
tw enty-
tur ally</w>
tru ths</w>
tri gger</w>
tri angle</w>
trans mit</w>
tou ching</w>
ti ght</w>
ti ble</w>
text books</w>
temper atures</w>
ted talks</w>
ta ils</w>
su spec
stere oty
star ing</w>
sta ys</w>
st le</w>
sp her
sing le-
si mon</w>
si ans</w>
sens or</w>
satellit es</w>
sa m</w>
s ms</w>
reve aled</w>
republic ans</w>
reflec ted</w>
recon ci
re stri
re produce</w>
pur ple</w>
pul ls</w>
projec tion</w>
prof itable</w>
pro ved</w>
prison er</w>
practic ing</w>
phot o
pe ar
par enting</w>
pal e
pa ste</w>
p ity</w>
opini ons</w>
on to
olymp ic</w>
oct op
o is</w>
nor den</w>
mon u
mi e</w>
metabo li
measu rements</w>
me tro
me tic</w>
me sh</w>
mcdon ald</w>
man kind</w>
mag ician</w>
mach in
machin ery</w>
ma ster
ma sk</w>
lo go</w>
lo an</w>
liz a
lifes pan</w>
le o</w>
invest ments</w>
inst all</w>
ingredi ent</w>
in timacy</w>
il led</w>
il a</w>
ici ans</w>
hor ror</w>
hawa ii</w>
har ry</w>
green land</w>
glori ous</w>
gi a</w>
gen ous</w>
fl at
far -
fa st-
expan ded</w>
ex u
empo wer</w>
e liza
dra gon
do or
disp lac
disgu st</w>
diagnos is</w>
demonstr ated</w>
de fic
dd le</w>
d ney</w>
d ently</w>
d ental</w>
copen hagen</w>
cooper ative</w>
continu ously</w>
consu ming</w>
compu te</w>
commo dity</w>
comman d
com mu
collec tively</w>
coca ine</w>
co di
clu ster</w>
che f</w>
cen sus</w>
cathe dr
car ed</w>
ca bles</w>
c any
broad er</w>
bee tle</w>
be ds</w>
be aten</w>
be am</w>
barri ers</w>
ban king</w>
b ath</w>
auton omy</w>
auth ors</w>
attrac ted</w>
associ ate</w>
ari th
ar i</w>
app s</w>
ander son</w>
ali gn
ali g
al an</w>
ad ju
accompli shed</w>
ac ids</w>
a il
5 0
youn gest</w>
yea st</w>
wr apped</w>
wil son</w>
wei gh</w>
we l</w>
wa ge</w>
w an</w>
vie wer</w>
vic tori
vi sc
ven ess</w>
ut terly</w>
us a</w>
univer ses</w>
un conscious</w>
u. k</w>
u n</w>
tro pical</w>
tri ps</w>
tra vels</w>
tr a</w>
to s</w>
ti ger</w>
th als</w>
tex ts</w>
terri fied</w>
terri fic</w>
te dly</w>
t z</w>
symme trical</w>
stu res</w>
storytel ler</w>
stol en</w>
st abi
speci alized</w>
sp ot
smar t
shoul ders</w>
shor ter</w>
sett le
sequ encing</w>
separ ation</w>
self- interest</w>
se bas
sc al
s mi
s ands</w>
ri sky</w>
repor ting</w>
repe ated</w>
recycl ed</w>
recogn izing</w>
re spect
r anging</w>
prototy pes</w>
profess ors</w>
pos se
poli tician</w>
plan ned</w>
pi geon</w>
ph al
parachu te</w>
p .
p -
on ically</w>
occa sion</w>
nu mer
non sense</w>
never theless</w>
neander thals</w>
n n</w>
my tho
mini stry</w>
mel ting</w>
me tals</w>
mar i
m ere</w>
lew is</w>
leop ard</w>
le x
la tive</w>
l. a.</w>
k is
jun k</w>
jud gments</w>
jo int</w>
is ed</w>
ipo d</w>
interven tions</w>
inju red</w>
in timate</w>
in duc
i shing</w>
i sa
i ans</w>
horizon tal</w>
home town</w>
ha i
gu ard</w>
gros s</w>
gra ins</w>
gr ounds</w>
girl friend</w>
g han</w>
fun dra
ful ness</w>
fro gs</w>
frequ encies</w>
film maker</w>
fi es</w>
fe ver</w>
far ther</w>
ex pressed</w>
ev al</w>
enor mously</w>
en ab
em it
e ing</w>
e ats</w>
docu mented</w>
dis per
dir t</w>
diar rhea</w>
detect or</w>
desper ately</w>
desk top</w>
cro ws</w>
counter -
convic ted</w>
conta gi
conge stion</w>
conduc t</w>
concentr ate</w>
common s</w>
co oling</w>
co ok
co ding</w>
cl oth</w>
cl ar
chromos omes</w>
chimpanze e</w>
chemi st</w>
canadi an</w>
ca s</w>
brook lyn</w>
bot tom
bil l
bel ly</w>
bacter ium</w>
at om</w>
at a</w>
ash a</w>
ar ran
ap ples</w>
anni ver
anesthe sia</w>
an na</w>
alga e</w>
alex ander</w>
ai ms</w>
af ghan</w>
acqui re</w>
acceler ating</w>
9 7</w>
5 0-
3 50</w>
2 5,000</w>
2 5
199 9</w>
199 8</w>
1 3
. org</w>
y an
witne ssed</w>
wi ped</w>
who a</w>
war mer</w>
ven e
ve ments</w>
var y</w>
val ence</w>
up side</w>
un fortunate</w>
tw in</w>
tur ers</w>
tra ding</w>
thri lled</w>
tex ture</w>
tan a</w>
t u</w>
t ance</w>
stri kes</w>
sti mulation</w>
sti l
spac e
sp ut
sp ell</w>
sp el
sp a
sho ots</w>
shi fted</w>
se als</w>
sc u
s ound
s ne
roof s</w>
ro b</w>
ri sts</w>
ri ding</w>
respon si
refuge e</w>
re vel
ra ge</w>
pro vin
pro -
prin cip
pri ority</w>
premi se</w>
poli tically</w>
po w
play ful</w>
pl ates</w>
pi pes</w>
pho eni
persi st
pe cu
ow ners</w>
ori um</w>
ori ented</w>
offici als</w>
ob served</w>
non e
none theless</w>
net working</w>
n ate</w>
myceli um</w>
mu tations</w>
mon es</w>
mom en
mil o</w>
mil ky</w>
mid st</w>
metro pol
ment or</w>
me tric</w>
lo ose</w>
leag ue</w>
la k
la den</w>
k ur
k icked</w>
k an
jon athan</w>
john ny</w>
inci dent</w>
in cu
hon ored</w>
har d-
happ ily</w>
halluc inations</w>
h s</w>
gro cer
gl ac
gh ted</w>
gener ates</w>
gen s</w>
ge o
garden s</w>
for -
fir ms</w>
fil es</w>
fi red</w>
fam ine</w>
ex ce
et te</w>
eri al</w>
er ra</w>
er ies</w>
enterpri se</w>
en u
en ri
en e</w>
embrac ing</w>
electromag ne
econom ically</w>
e yed</w>
dro w
disappe ars</w>
dis se
dest ination</w>
de pic
d are</w>
cu ps</w>
cri tic</w>
coun ted</w>
cor relation</w>
cor ners</w>
cop ying</w>
coordin ation</w>
conven tion</w>
constra ints</w>
compos ition</w>
comm ent
col a</w>
co ach</w>
chron ic</w>
che ating</w>
chap ters</w>
cere mony</w>
celebr ity</w>
celebr ated</w>
catal y
catal o
ca ves</w>
c opper</w>
c on</w>
budd ha</w>
bu gs</w>
ble w</w>
belon gs</w>
be hold</w>
b c</w>
b ani
awk ward</w>
authenti city</w>
attac ked</w>
as y
argu es</w>
ap a
ani um</w>
an e
alu min
ali ke</w>
al i</w>
adop t</w>
accur acy</w>
acceler ate</w>
9 6</w>
3 1</w>
20 20</w>
199 4</w>
1, 500</w>
- year-olds</w>
y an</w>
work place</w>
wor th
we t</w>
w rist</w>
voca bu
ver i
vac cin
tru sted</w>
tri vial</w>
top -
toi lets</w>
ther ed</w>
te l</w>
tal ented</w>
ta gged</w>
symme tries</w>
stopp ing</w>
stic king</w>
st ric
st on</w>
squ ir
squ ares</w>
spac e-
so oner</w>
sli ce</w>
sh ining</w>
sh er</w>
sh er
scienti fically</w>
sar ah</w>
revolu tions</w>
replac ement</w>
recei ving</w>
re vi
ra z
puni shment</w>
pros titu
program med</w>
process or</w>
pro vo
pri cing</w>
preven ting</w>
power point</w>
por tu
poe ms</w>
phoeni x</w>
phili pp
phili p</w>
pe er-
pe di
path ways</w>
pan ic</w>
pa ul
p in</w>
p c</w>
over night</w>
ou ts</w>
oper ates</w>
ol a</w>
octop us</w>
occu py</w>
negoti ate</w>
n ick</w>
momen tum</w>
moder n
mir rors</w>
millenni um</w>
me g
mb er
mani pu
ma r</w>
